alignas(16) const unsigned char eegnet[] = {
  0x20, 0x00, 0x00, 0x00, 0x54, 0x46, 0x4c, 0x33, 0x00, 0x00, 0x00, 0x00, 
  0x14, 0x00, 0x20, 0x00, 0x1c, 0x00, 0x18, 0x00, 0x14, 0x00, 0x10, 0x00, 
  0x0c, 0x00, 0x00, 0x00, 0x08, 0x00, 0x04, 0x00, 0x14, 0x00, 0x00, 0x00, 
  0x1c, 0x00, 0x00, 0x00, 0x88, 0x00, 0x00, 0x00, 0xe0, 0x00, 0x00, 0x00, 
  0x8c, 0x0c, 0x00, 0x00, 0x9c, 0x0c, 0x00, 0x00, 0x4c, 0x2f, 0x00, 0x00, 
  0x03, 0x00, 0x00, 0x00, 0x01, 0x00, 0x00, 0x00, 0x04, 0x00, 0x00, 0x00, 
  0x32, 0xf1, 0xff, 0xff, 0x0c, 0x00, 0x00, 0x00, 0x1c, 0x00, 0x00, 0x00, 
  0x40, 0x00, 0x00, 0x00, 0x0f, 0x00, 0x00, 0x00, 0x73, 0x65, 0x72, 0x76, 
  0x69, 0x6e, 0x67, 0x5f, 0x64, 0x65, 0x66, 0x61, 0x75, 0x6c, 0x74, 0x00, 
  0x01, 0x00, 0x00, 0x00, 0x04, 0x00, 0x00, 0x00, 0x94, 0xff, 0xff, 0xff, 
  0x1e, 0x00, 0x00, 0x00, 0x04, 0x00, 0x00, 0x00, 0x0d, 0x00, 0x00, 0x00, 
  0x71, 0x75, 0x61, 0x6e, 0x74, 0x5f, 0x66, 0x6c, 0x61, 0x74, 0x74, 0x65, 
  0x6e, 0x00, 0x00, 0x00, 0x01, 0x00, 0x00, 0x00, 0x04, 0x00, 0x00, 0x00, 
  0x02, 0xf4, 0xff, 0xff, 0x04, 0x00, 0x00, 0x00, 0x07, 0x00, 0x00, 0x00, 
  0x69, 0x6e, 0x70, 0x75, 0x74, 0x5f, 0x31, 0x00, 0x02, 0x00, 0x00, 0x00, 
  0x34, 0x00, 0x00, 0x00, 0x04, 0x00, 0x00, 0x00, 0xdc, 0xff, 0xff, 0xff, 
  0x21, 0x00, 0x00, 0x00, 0x04, 0x00, 0x00, 0x00, 0x13, 0x00, 0x00, 0x00, 
  0x43, 0x4f, 0x4e, 0x56, 0x45, 0x52, 0x53, 0x49, 0x4f, 0x4e, 0x5f, 0x4d, 
  0x45, 0x54, 0x41, 0x44, 0x41, 0x54, 0x41, 0x00, 0x08, 0x00, 0x0c, 0x00, 
  0x08, 0x00, 0x04, 0x00, 0x08, 0x00, 0x00, 0x00, 0x20, 0x00, 0x00, 0x00, 
  0x04, 0x00, 0x00, 0x00, 0x13, 0x00, 0x00, 0x00, 0x6d, 0x69, 0x6e, 0x5f, 
  0x72, 0x75, 0x6e, 0x74, 0x69, 0x6d, 0x65, 0x5f, 0x76, 0x65, 0x72, 0x73, 
  0x69, 0x6f, 0x6e, 0x00, 0x22, 0x00, 0x00, 0x00, 0xa8, 0x0b, 0x00, 0x00, 
  0xa0, 0x0b, 0x00, 0x00, 0x88, 0x0b, 0x00, 0x00, 0x60, 0x0b, 0x00, 0x00, 
  0xd0, 0x0a, 0x00, 0x00, 0xc0, 0x08, 0x00, 0x00, 0x90, 0x08, 0x00, 0x00, 
  0x60, 0x08, 0x00, 0x00, 0xd0, 0x07, 0x00, 0x00, 0xc8, 0x07, 0x00, 0x00, 
  0xb8, 0x05, 0x00, 0x00, 0x98, 0x05, 0x00, 0x00, 0x78, 0x05, 0x00, 0x00, 
  0x70, 0x05, 0x00, 0x00, 0x60, 0x01, 0x00, 0x00, 0x10, 0x01, 0x00, 0x00, 
  0x08, 0x01, 0x00, 0x00, 0x00, 0x01, 0x00, 0x00, 0xf8, 0x00, 0x00, 0x00, 
  0xf0, 0x00, 0x00, 0x00, 0xe8, 0x00, 0x00, 0x00, 0xe0, 0x00, 0x00, 0x00, 
  0xd8, 0x00, 0x00, 0x00, 0xd0, 0x00, 0x00, 0x00, 0xc8, 0x00, 0x00, 0x00, 
  0xc0, 0x00, 0x00, 0x00, 0xb8, 0x00, 0x00, 0x00, 0xb0, 0x00, 0x00, 0x00, 
  0xa8, 0x00, 0x00, 0x00, 0xa0, 0x00, 0x00, 0x00, 0x98, 0x00, 0x00, 0x00, 
  0x90, 0x00, 0x00, 0x00, 0x70, 0x00, 0x00, 0x00, 0x04, 0x00, 0x00, 0x00, 
  0xfe, 0xf4, 0xff, 0xff, 0x04, 0x00, 0x00, 0x00, 0x5c, 0x00, 0x00, 0x00, 
  0x0c, 0x00, 0x00, 0x00, 0x08, 0x00, 0x0e, 0x00, 0x08, 0x00, 0x04, 0x00, 
  0x08, 0x00, 0x00, 0x00, 0x10, 0x00, 0x00, 0x00, 0x2c, 0x00, 0x00, 0x00, 
  0x00, 0x00, 0x06, 0x00, 0x08, 0x00, 0x04, 0x00, 0x06, 0x00, 0x00, 0x00, 
  0x04, 0x00, 0x00, 0x00, 0x02, 0x00, 0x00, 0x00, 0xeb, 0x03, 0x00, 0x00, 
  0xd0, 0x07, 0x00, 0x00, 0x00, 0x00, 0x0a, 0x00, 0x10, 0x00, 0x0c, 0x00, 
  0x08, 0x00, 0x04, 0x00, 0x0a, 0x00, 0x00, 0x00, 0x02, 0x00, 0x00, 0x00, 
  0x02, 0x00, 0x00, 0x00, 0x04, 0x00, 0x00, 0x00, 0x06, 0x00, 0x00, 0x00, 
  0x32, 0x2e, 0x31, 0x34, 0x2e, 0x31, 0x00, 0x00, 0x66, 0xf5, 0xff, 0xff, 
  0x04, 0x00, 0x00, 0x00, 0x10, 0x00, 0x00, 0x00, 0x31, 0x2e, 0x31, 0x35, 
  0x2e, 0x30, 0x00, 0x00, 0x00, 0x00, 0x00, 0x00, 0x00, 0x00, 0x00, 0x00, 
  0x80, 0xd3, 0xff, 0xff, 0x84, 0xd3, 0xff, 0xff, 0x88, 0xd3, 0xff, 0xff, 
  0x8c, 0xd3, 0xff, 0xff, 0x90, 0xd3, 0xff, 0xff, 0x94, 0xd3, 0xff, 0xff, 
  0x98, 0xd3, 0xff, 0xff, 0x9c, 0xd3, 0xff, 0xff, 0xa0, 0xd3, 0xff, 0xff, 
  0xa4, 0xd3, 0xff, 0xff, 0xa8, 0xd3, 0xff, 0xff, 0xac, 0xd3, 0xff, 0xff, 
  0xb0, 0xd3, 0xff, 0xff, 0xb4, 0xd3, 0xff, 0xff, 0xb8, 0xd3, 0xff, 0xff, 
  0xbc, 0xd3, 0xff, 0xff, 0xc2, 0xf5, 0xff, 0xff, 0x04, 0x00, 0x00, 0x00, 
  0x40, 0x00, 0x00, 0x00, 0x00, 0x00, 0x00, 0x00, 0x00, 0x00, 0x00, 0x00, 
  0x00, 0x00, 0x00, 0x00, 0x00, 0x00, 0x00, 0x00, 0x00, 0x00, 0x00, 0x00, 
  0x00, 0x00, 0x00, 0x00, 0x00, 0x00, 0x00, 0x00, 0x00, 0x00, 0x00, 0x00, 
  0x00, 0x00, 0x00, 0x00, 0x00, 0x00, 0x00, 0x00, 0x00, 0x00, 0x00, 0x00, 
  0x00, 0x00, 0x00, 0x00, 0x00, 0x00, 0x00, 0x00, 0x00, 0x00, 0x00, 0x00, 
  0x00, 0x00, 0x00, 0x00, 0x00, 0x00, 0x00, 0x00, 0x0e, 0xf6, 0xff, 0xff, 
  0x04, 0x00, 0x00, 0x00, 0x00, 0x04, 0x00, 0x00, 0xa6, 0xc5, 0xc4, 0x13, 
  0xb0, 0xe6, 0x2b, 0xd2, 0xf1, 0x00, 0xbb, 0xf4, 0x2e, 0x1a, 0x31, 0x1d, 
  0xc5, 0x7f, 0xe7, 0x31, 0x0d, 0x4b, 0x0c, 0x73, 0x01, 0x35, 0x7a, 0x26, 
  0x78, 0x1c, 0x18, 0x48, 0x49, 0x55, 0x24, 0xbf, 0x6c, 0x22, 0xe3, 0x3e, 
  0xf7, 0xfb, 0xdb, 0x4c, 0xa9, 0xc3, 0x10, 0xe2, 0xb3, 0x4e, 0x9a, 0x94, 
  0x32, 0x2b, 0xc5, 0xc2, 0x34, 0x05, 0xdf, 0xbd, 0x24, 0xfc, 0x08, 0x1c, 
  0x1a, 0x5a, 0xb8, 0x03, 0x81, 0xf9, 0xfc, 0x0d, 0xe6, 0x17, 0x54, 0x2f, 
  0x43, 0x96, 0xe2, 0xd6, 0xc9, 0x0a, 0x05, 0x09, 0x18, 0x72, 0x0c, 0xc6, 
  0x09, 0xae, 0xcc, 0xa9, 0x67, 0x5b, 0x59, 0xc7, 0xea, 0xab, 0x01, 0x10, 
  0x1e, 0xf8, 0x39, 0xa8, 0x13, 0x3f, 0xe5, 0x0d, 0xd0, 0x51, 0x03, 0xbc, 
  0xba, 0xe9, 0x33, 0x21, 0x15, 0x40, 0xbc, 0x0a, 0xa2, 0x28, 0xc4, 0xbc, 
  0xd2, 0x45, 0x6c, 0x07, 0xd1, 0x1e, 0x5f, 0x1c, 0xf3, 0x5f, 0x15, 0xca, 
  0x41, 0x3f, 0x34, 0xcb, 0xaf, 0x0f, 0xdc, 0x27, 0x49, 0x6c, 0x62, 0x26, 
  0xb9, 0x1f, 0x12, 0xa3, 0x9a, 0x39, 0x3b, 0x42, 0x5a, 0x14, 0x7f, 0xf2, 
  0x02, 0x17, 0x12, 0xb5, 0xb8, 0x34, 0x1d, 0x13, 0x30, 0x7f, 0x6b, 0xf6, 
  0xc4, 0x31, 0xd8, 0xe0, 0x1d, 0x19, 0xbd, 0xeb, 0x34, 0x15, 0x0c, 0x3b, 
  0xe1, 0x35, 0xce, 0xdc, 0x10, 0xcd, 0xef, 0xdf, 0xd8, 0xcc, 0x2a, 0xd5, 
  0x71, 0x7e, 0xfb, 0x27, 0xe6, 0x48, 0x4c, 0x81, 0xf1, 0xe5, 0xfa, 0x51, 
  0xfc, 0x54, 0x33, 0x08, 0x52, 0x67, 0xb6, 0x49, 0x38, 0xaa, 0xb8, 0x38, 
  0x09, 0xe5, 0x53, 0x61, 0x2e, 0xc2, 0x45, 0x62, 0xc6, 0x09, 0xed, 0x35, 
  0xba, 0x2f, 0x67, 0xe7, 0xc6, 0xf6, 0x27, 0x38, 0xef, 0x3d, 0x1f, 0xa1, 
  0x03, 0x22, 0x30, 0x15, 0xd8, 0xf2, 0x18, 0xd4, 0xf1, 0xf2, 0x23, 0x1b, 
  0x2f, 0x9b, 0xdc, 0x1e, 0x54, 0xec, 0xfa, 0x40, 0xfd, 0x25, 0x0d, 0x81, 
  0xa6, 0x16, 0xdd, 0x50, 0xf1, 0x4f, 0x0f, 0xcc, 0xe6, 0x67, 0x0f, 0xdb, 
  0x31, 0xc5, 0xa1, 0x16, 0xc6, 0x55, 0x04, 0x29, 0xb1, 0xb1, 0x69, 0x7d, 
  0xf9, 0xb4, 0x13, 0xf6, 0xd9, 0x06, 0xff, 0x25, 0xda, 0xe1, 0xc7, 0x08, 
  0x63, 0x2d, 0x2d, 0x04, 0x14, 0xb6, 0x03, 0xf1, 0xab, 0xfb, 0xe9, 0x27, 
  0x12, 0x2a, 0xf6, 0x3d, 0x04, 0xf0, 0x09, 0x46, 0x1e, 0x9b, 0xa8, 0x4c, 
  0x18, 0x5e, 0x0f, 0xeb, 0xb4, 0x3d, 0xc9, 0xac, 0x10, 0x32, 0x37, 0x06, 
  0x31, 0xae, 0x47, 0xc4, 0x2b, 0x3a, 0x15, 0x83, 0x40, 0xad, 0x8c, 0x30, 
  0x7f, 0x30, 0xba, 0xd0, 0x1a, 0x45, 0x02, 0xee, 0xd2, 0xc0, 0x03, 0x21, 
  0xe9, 0x07, 0xd1, 0x1d, 0xda, 0x46, 0xce, 0x99, 0x2f, 0x3a, 0x52, 0x9b, 
  0xd4, 0x34, 0xec, 0x2a, 0xca, 0x0e, 0xb1, 0x20, 0x9e, 0x50, 0xb6, 0x44, 
  0x9a, 0xd0, 0xd9, 0xda, 0x01, 0xfb, 0xd6, 0xaf, 0xff, 0x01, 0xfa, 0x81, 
  0xde, 0xfa, 0xd2, 0xfe, 0xdb, 0xc4, 0x4d, 0xcd, 0x17, 0xad, 0x4b, 0xed, 
  0xab, 0x4e, 0xfe, 0x2b, 0xf6, 0x1a, 0xe2, 0x45, 0x42, 0x15, 0xe9, 0x33, 
  0xf5, 0x18, 0x58, 0xbe, 0xf9, 0x4e, 0xf9, 0xf7, 0xd0, 0x42, 0x40, 0xb9, 
  0xc7, 0x34, 0x9f, 0x29, 0xfe, 0xbf, 0x17, 0x3b, 0xa5, 0x08, 0x38, 0xbb, 
  0x20, 0xff, 0xbf, 0xe0, 0x05, 0x43, 0x84, 0x0a, 0x0a, 0x4a, 0x66, 0xfb, 
  0xc9, 0xd5, 0xf7, 0x69, 0x25, 0xc6, 0xc1, 0xa2, 0x03, 0x6d, 0x14, 0xe2, 
  0xea, 0xed, 0xee, 0x37, 0x69, 0xeb, 0xec, 0x99, 0xf0, 0x0b, 0x64, 0xbd, 
  0xce, 0x55, 0xae, 0x55, 0x1f, 0xc2, 0x07, 0x2c, 0x13, 0xbc, 0xa2, 0x1e, 
  0x72, 0xc3, 0x4c, 0xb8, 0xa6, 0x1b, 0x52, 0x1f, 0xf4, 0xe6, 0x18, 0x2d, 
  0x81, 0x1e, 0xf1, 0x16, 0xdd, 0xe2, 0x0a, 0x21, 0xc4, 0x11, 0x37, 0x48, 
  0xea, 0x30, 0xe7, 0xf0, 0xf9, 0x32, 0x3f, 0xcd, 0xe2, 0x12, 0x5c, 0x9a, 
  0xf8, 0x81, 0xda, 0xfb, 0x11, 0x0b, 0xe0, 0xd7, 0x5e, 0xca, 0x54, 0xb8, 
  0x54, 0xdb, 0x3c, 0xca, 0x0c, 0x4c, 0x40, 0xfc, 0xf7, 0x82, 0xea, 0x2d, 
  0xeb, 0xe5, 0xfb, 0xd4, 0x12, 0xd2, 0xec, 0x3e, 0xca, 0xd5, 0x32, 0x0b, 
  0x01, 0xfd, 0x53, 0x11, 0x10, 0x23, 0xbe, 0xba, 0x4f, 0xe3, 0x70, 0xe5, 
  0xc9, 0xe1, 0x4e, 0xa2, 0xd7, 0x54, 0xe5, 0xb2, 0x27, 0xc2, 0xbd, 0x06, 
  0x27, 0x6e, 0xcc, 0x13, 0x39, 0x30, 0x15, 0x2f, 0xd2, 0x02, 0x16, 0x0d, 
  0x07, 0xe8, 0xe8, 0xc1, 0x0d, 0xa9, 0x09, 0xf0, 0x23, 0x48, 0xdc, 0xc8, 
  0x51, 0x6d, 0xac, 0xd0, 0x7f, 0xb7, 0x45, 0x5f, 0xa3, 0xd0, 0xc9, 0xcb, 
  0x29, 0x14, 0x35, 0xa5, 0xdb, 0x25, 0x15, 0x27, 0x95, 0x68, 0x4e, 0xcf, 
  0xd9, 0xea, 0x58, 0xdb, 0x25, 0xe8, 0xe3, 0xcf, 0xa7, 0xa8, 0xb3, 0xa9, 
  0xe0, 0xf4, 0x02, 0x17, 0x35, 0x25, 0x4a, 0xe8, 0x25, 0xa6, 0xf9, 0xdd, 
  0x87, 0x81, 0xeb, 0xdb, 0xd7, 0x17, 0x41, 0x41, 0x22, 0x47, 0xcf, 0x21, 
  0xde, 0xe9, 0x99, 0x05, 0xec, 0x9b, 0x03, 0xf4, 0xd4, 0x58, 0x0a, 0x1d, 
  0x69, 0xea, 0xf8, 0x13, 0xe4, 0xd7, 0x12, 0x0c, 0x20, 0xd8, 0xd0, 0x49, 
  0xe3, 0x36, 0x58, 0x51, 0xdd, 0xfa, 0xd3, 0x7f, 0x21, 0xaa, 0xa8, 0x68, 
  0x28, 0xc4, 0x19, 0xf5, 0xba, 0x32, 0x1d, 0x3a, 0xc3, 0x87, 0x5e, 0x0b, 
  0x3f, 0xbf, 0x2b, 0xa5, 0x5b, 0xd4, 0xd1, 0x5a, 0x06, 0xc6, 0xff, 0x3c, 
  0xc0, 0xe2, 0x27, 0x56, 0xf1, 0xca, 0xe6, 0xff, 0x2b, 0x08, 0xee, 0xd6, 
  0x10, 0x34, 0xf2, 0xe9, 0xf3, 0x05, 0x1d, 0xee, 0x08, 0x04, 0x03, 0x04, 
  0xdc, 0x1d, 0x07, 0x03, 0xfe, 0x14, 0xf1, 0x03, 0x9f, 0x0b, 0xe8, 0x40, 
  0xed, 0xdc, 0xd7, 0x2a, 0x31, 0xbb, 0xee, 0xfb, 0x20, 0x04, 0xd0, 0x3a, 
  0xd5, 0x23, 0xf7, 0x23, 0x05, 0x2d, 0x0c, 0xdb, 0x03, 0x09, 0x2a, 0x4a, 
  0x0f, 0xee, 0x67, 0x1a, 0xc9, 0xf4, 0x78, 0x16, 0x1e, 0xff, 0x18, 0x07, 
  0x21, 0x09, 0x7f, 0xf5, 0x1d, 0xee, 0x24, 0x2f, 0x15, 0xe3, 0x58, 0x04, 
  0x32, 0x02, 0xc8, 0x2c, 0x15, 0x22, 0x0f, 0x06, 0x2d, 0xcd, 0xbf, 0x4f, 
  0xd5, 0x16, 0xe9, 0x0b, 0x41, 0x12, 0xb6, 0xb0, 0x45, 0xf2, 0x39, 0x99, 
  0x74, 0x02, 0xab, 0xeb, 0x3d, 0xb9, 0x34, 0x23, 0x88, 0x5b, 0xdc, 0x16, 
  0xe8, 0x1a, 0xb3, 0x21, 0xc6, 0x64, 0xe7, 0x25, 0xd0, 0x82, 0x14, 0x64, 
  0x4a, 0xc9, 0x85, 0x3e, 0x4e, 0x81, 0x02, 0x48, 0x47, 0xa6, 0xe2, 0x06, 
  0x3f, 0x9b, 0x25, 0x29, 0xc9, 0x3b, 0xdf, 0xe8, 0xfd, 0xf7, 0x4a, 0xeb, 
  0xb6, 0x22, 0x3c, 0xd2, 0xe6, 0x10, 0x49, 0x08, 0x02, 0xc8, 0x02, 0xf5, 
  0x3b, 0xc8, 0xd4, 0xa9, 0x09, 0xdd, 0x01, 0x40, 0xd9, 0x3f, 0x4e, 0x39, 
  0xfa, 0x51, 0x9c, 0x0b, 0x05, 0x17, 0xad, 0x2c, 0xec, 0x94, 0xa8, 0x2c, 
  0x49, 0x39, 0xfc, 0x4d, 0xb4, 0x69, 0xef, 0x37, 0xbc, 0xd0, 0xa0, 0xce, 
  0x60, 0xb8, 0xf8, 0x2b, 0xed, 0xf7, 0x7f, 0xf4, 0xe3, 0x48, 0x21, 0xf9, 
  0xd8, 0xc2, 0xa3, 0x4b, 0xd9, 0xbf, 0xc4, 0x6d, 0xdd, 0x1d, 0xc0, 0xf6, 
  0x0e, 0x9b, 0xd1, 0xb2, 0x94, 0xbf, 0xf5, 0xa8, 0xe6, 0x1a, 0xbe, 0x44, 
  0x22, 0x0b, 0x2c, 0x32, 0x12, 0xe2, 0xe2, 0xf1, 0xcd, 0x00, 0xfe, 0x24, 
  0xef, 0x0c, 0xc8, 0x55, 0xf3, 0x3f, 0x2f, 0x0e, 0xf6, 0x0a, 0x30, 0xd9, 
  0x4b, 0xef, 0xd0, 0x41, 0xb5, 0x10, 0xce, 0x10, 0xed, 0xd3, 0x18, 0x23, 
  0xe2, 0xf9, 0x35, 0xc7, 0x19, 0xaf, 0xe8, 0x13, 0x81, 0x22, 0xb4, 0xe9, 
  0x18, 0xd8, 0xff, 0xff, 0x1e, 0xfa, 0xff, 0xff, 0x04, 0x00, 0x00, 0x00, 
  0x10, 0x00, 0x00, 0x00, 0xcd, 0x0a, 0xd3, 0xe7, 0x05, 0x2b, 0xe9, 0x2f, 
  0x10, 0x15, 0xc5, 0x7f, 0xe5, 0x67, 0xed, 0xe0, 0x3a, 0xfa, 0xff, 0xff, 
  0x04, 0x00, 0x00, 0x00, 0x10, 0x00, 0x00, 0x00, 0xe3, 0x7f, 0x09, 0x30, 
  0x1e, 0xa1, 0x32, 0x80, 0x13, 0x08, 0xef, 0x78, 0x4a, 0xdd, 0x37, 0xfd, 
  0x56, 0xfa, 0xff, 0xff, 0x04, 0x00, 0x00, 0x00, 0x00, 0x02, 0x00, 0x00, 
  0xd9, 0x08, 0xa8, 0xf0, 0xea, 0x13, 0xe1, 0x09, 0x81, 0xa5, 0x00, 0x81, 
  0x1b, 0x35, 0xf1, 0x69, 0x05, 0x34, 0x9d, 0xc5, 0xeb, 0x90, 0x21, 0x38, 
  0xad, 0x8e, 0x49, 0x30, 0xbd, 0xd1, 0xd9, 0xc6, 0xf7, 0xe2, 0xae, 0xba, 
  0x81, 0xdd, 0xd2, 0x64, 0x1f, 0xb4, 0xfd, 0x39, 0xcf, 0x28, 0xf6, 0x81, 
  0x2f, 0xcc, 0xba, 0x81, 0x1f, 0x50, 0x39, 0x55, 0xee, 0xb4, 0xe9, 0xb3, 
  0xed, 0xf0, 0x57, 0x24, 0x20, 0x3f, 0x78, 0x2c, 0xed, 0xc9, 0x59, 0x22, 
  0x18, 0x35, 0x57, 0x6b, 0x1b, 0x85, 0xdf, 0xf5, 0x7f, 0x7f, 0xb6, 0x5b, 
  0x05, 0xce, 0xfa, 0xe0, 0x10, 0x0a, 0x8f, 0xc0, 0x13, 0xdc, 0xcd, 0xdb, 
  0x29, 0xf9, 0x45, 0x37, 0x40, 0x3f, 0x81, 0xe8, 0x0e, 0x45, 0x62, 0xc7, 
  0x42, 0xd5, 0x08, 0xb7, 0x49, 0xd0, 0xca, 0x42, 0x68, 0xbe, 0x7f, 0xc2, 
  0xff, 0xd7, 0xb2, 0x41, 0xfe, 0xe2, 0xf2, 0x35, 0xfc, 0xd8, 0xd7, 0x68, 
  0x61, 0x41, 0xc7, 0x52, 0xa0, 0x3c, 0xeb, 0xf5, 0x2d, 0xa5, 0x0d, 0xc8, 
  0xda, 0x0b, 0x35, 0xb3, 0x5b, 0x11, 0x03, 0x0b, 0xba, 0x65, 0xde, 0x0a, 
  0x7f, 0xc4, 0x34, 0x0b, 0xbc, 0xb8, 0x7f, 0x75, 0xa2, 0xbf, 0x3e, 0xba, 
  0x29, 0xe9, 0xd7, 0x0b, 0xe3, 0x1b, 0xe3, 0x5d, 0x28, 0x11, 0xf3, 0xf0, 
  0xa8, 0x6e, 0x21, 0xdc, 0x85, 0x95, 0x81, 0xd2, 0x9b, 0x05, 0xd4, 0x1b, 
  0xfb, 0x99, 0xa6, 0x50, 0xc7, 0xfe, 0x11, 0x82, 0xf9, 0xfb, 0x3c, 0x0f, 
  0x21, 0xa3, 0xc6, 0x62, 0xc2, 0xb2, 0x4a, 0x45, 0xa1, 0x48, 0x5a, 0x3d, 
  0xf0, 0xac, 0xf9, 0xd0, 0x08, 0xcf, 0xf6, 0x61, 0x24, 0x41, 0x34, 0xf1, 
  0x29, 0x7f, 0xc9, 0x01, 0x5b, 0xee, 0xdf, 0xfb, 0x81, 0xcf, 0xce, 0x2c, 
  0xb8, 0x99, 0x06, 0xe0, 0xf1, 0xda, 0x3d, 0x81, 0xfe, 0x9f, 0x00, 0x04, 
  0xb1, 0xf5, 0x6d, 0x28, 0x4e, 0xdd, 0x63, 0x81, 0xe5, 0x09, 0x59, 0x28, 
  0x22, 0xd0, 0x4c, 0x65, 0x28, 0xb7, 0xd4, 0x04, 0xab, 0x99, 0xf0, 0xf0, 
  0x1e, 0xec, 0xfa, 0x13, 0xfe, 0x4e, 0xf6, 0x8d, 0x39, 0x56, 0xd7, 0xc4, 
  0x1e, 0x0c, 0x38, 0x0d, 0xc5, 0x91, 0x99, 0xac, 0x27, 0xc6, 0xd1, 0xc1, 
  0xc8, 0xe5, 0xf6, 0x8d, 0xc8, 0xc6, 0xc6, 0x6c, 0x29, 0xbb, 0x27, 0x67, 
  0x25, 0xf6, 0x2f, 0xbc, 0xa5, 0x19, 0xe7, 0x1f, 0xf1, 0x10, 0x3a, 0x7f, 
  0xc4, 0xf6, 0x9c, 0x9a, 0x58, 0x1d, 0xb4, 0x03, 0xf1, 0x06, 0x1c, 0x12, 
  0x5b, 0xb2, 0x62, 0xf5, 0x81, 0x92, 0x1c, 0x21, 0x2a, 0x8e, 0x2d, 0x26, 
  0x66, 0x7f, 0x7f, 0xb7, 0xe9, 0xc9, 0x2f, 0x22, 0x8b, 0x1b, 0xf1, 0x3d, 
  0xf6, 0x22, 0xc0, 0xcd, 0x20, 0x81, 0xc0, 0x1f, 0x36, 0xc3, 0x26, 0x59, 
  0x4e, 0xc7, 0x46, 0x95, 0x18, 0x75, 0xe9, 0x7f, 0x98, 0x2b, 0x06, 0x00, 
  0xec, 0x02, 0xc4, 0x49, 0x3e, 0x97, 0xd5, 0x94, 0xa8, 0x16, 0xb3, 0xe3, 
  0x6e, 0xfa, 0x08, 0x19, 0xb0, 0xd2, 0x33, 0x18, 0x2f, 0x81, 0xe1, 0x02, 
  0xd3, 0x46, 0x41, 0xbd, 0xaf, 0x65, 0x93, 0x10, 0xd5, 0x0d, 0xac, 0x0d, 
  0x23, 0xf0, 0xf1, 0x52, 0x81, 0x81, 0xc8, 0xd0, 0xf3, 0xd8, 0x8e, 0xb6, 
  0xb6, 0xa5, 0x5f, 0xb1, 0x00, 0xd0, 0x3a, 0x41, 0x49, 0x14, 0x18, 0xf6, 
  0x98, 0x5a, 0xe4, 0x24, 0x53, 0xb8, 0xce, 0x22, 0x3e, 0xf1, 0x09, 0x12, 
  0x11, 0x01, 0xa9, 0x64, 0x24, 0x47, 0xe4, 0xcc, 0x2a, 0xb1, 0x81, 0xee, 
  0x06, 0x40, 0x49, 0xf8, 0x7f, 0x44, 0x42, 0x27, 0x5b, 0x96, 0x27, 0x81, 
  0x81, 0x7f, 0x31, 0x40, 0xd5, 0xc7, 0xc7, 0x81, 0x2b, 0x4b, 0x7f, 0x77, 
  0xd6, 0xdb, 0x7f, 0x3f, 0xc6, 0x35, 0xc6, 0xdd, 0x1a, 0x32, 0xcc, 0xb3, 
  0x0f, 0x7f, 0xbc, 0x18, 0xf5, 0xdf, 0x0a, 0x27, 0x60, 0xda, 0xff, 0xff, 
  0x66, 0xfc, 0xff, 0xff, 0x04, 0x00, 0x00, 0x00, 0x80, 0x00, 0x00, 0x00, 
  0x00, 0x00, 0x00, 0x00, 0x00, 0x00, 0x00, 0x00, 0x00, 0x00, 0x00, 0x00, 
  0x00, 0x00, 0x00, 0x00, 0x00, 0x00, 0x00, 0x00, 0x00, 0x00, 0x00, 0x00, 
  0x00, 0x00, 0x00, 0x00, 0x00, 0x00, 0x00, 0x00, 0x00, 0x00, 0x00, 0x00, 
  0x00, 0x00, 0x00, 0x00, 0x00, 0x00, 0x00, 0x00, 0x00, 0x00, 0x00, 0x00, 
  0x00, 0x00, 0x00, 0x00, 0x00, 0x00, 0x00, 0x00, 0x00, 0x00, 0x00, 0x00, 
  0x00, 0x00, 0x00, 0x00, 0x00, 0x00, 0x00, 0x00, 0x00, 0x00, 0x00, 0x00, 
  0x00, 0x00, 0x00, 0x00, 0x00, 0x00, 0x00, 0x00, 0x00, 0x00, 0x00, 0x00, 
  0x00, 0x00, 0x00, 0x00, 0x00, 0x00, 0x00, 0x00, 0x00, 0x00, 0x00, 0x00, 
  0x00, 0x00, 0x00, 0x00, 0x00, 0x00, 0x00, 0x00, 0x00, 0x00, 0x00, 0x00, 
  0x00, 0x00, 0x00, 0x00, 0x00, 0x00, 0x00, 0x00, 0x00, 0x00, 0x00, 0x00, 
  0x00, 0x00, 0x00, 0x00, 0x00, 0x00, 0x00, 0x00, 0xf2, 0xfc, 0xff, 0xff, 
  0x04, 0x00, 0x00, 0x00, 0x20, 0x00, 0x00, 0x00, 0xf8, 0x2e, 0x13, 0x4d, 
  0xfe, 0x41, 0x1d, 0x10, 0x0f, 0x04, 0x1c, 0x31, 0x06, 0x1a, 0x37, 0x24, 
  0xcf, 0xdb, 0x2c, 0x4e, 0x37, 0xe8, 0xf8, 0x06, 0x20, 0x04, 0x06, 0x19, 
  0xd3, 0x1a, 0x7f, 0x19, 0x1e, 0xfd, 0xff, 0xff, 0x04, 0x00, 0x00, 0x00, 
  0x20, 0x00, 0x00, 0x00, 0x43, 0xcd, 0x56, 0x42, 0x36, 0xf3, 0x3a, 0x32, 
  0x76, 0xdd, 0x38, 0x80, 0x3c, 0xec, 0xa6, 0x30, 0x4c, 0x2b, 0x30, 0x65, 
  0x34, 0x68, 0x3f, 0x51, 0xfe, 0xf4, 0x77, 0xb2, 0x07, 0xf1, 0x4d, 0x12, 
  0x4a, 0xfd, 0xff, 0xff, 0x04, 0x00, 0x00, 0x00, 0x00, 0x02, 0x00, 0x00, 
  0x81, 0xa7, 0x38, 0x5d, 0x06, 0x70, 0x70, 0x6f, 0x18, 0x58, 0x02, 0x0a, 
  0x63, 0x00, 0x63, 0x5a, 0xcf, 0xd0, 0x84, 0x81, 0x00, 0xab, 0xc6, 0xe8, 
  0x7f, 0x19, 0xa4, 0x61, 0x11, 0x8f, 0x60, 0x7f, 0xb1, 0x81, 0x7d, 0x60, 
  0x63, 0x40, 0xf0, 0x65, 0xe2, 0x42, 0x51, 0x56, 0x5e, 0xe3, 0x12, 0x0d, 
  0x00, 0xae, 0x89, 0x84, 0x4a, 0x1b, 0xa1, 0x20, 0x72, 0x50, 0xb6, 0x01, 
  0x4d, 0xfa, 0x12, 0x44, 0xd6, 0xf5, 0x7f, 0x38, 0x9f, 0x2f, 0x7f, 0x65, 
  0xd9, 0x11, 0x74, 0x51, 0x0b, 0x5f, 0x63, 0x5d, 0xdd, 0x81, 0xb7, 0x25, 
  0x3f, 0x81, 0xe3, 0xd5, 0x3e, 0xf7, 0x10, 0x2c, 0x60, 0xe4, 0xff, 0x6b, 
  0xc6, 0xc9, 0x53, 0x61, 0x60, 0x03, 0x35, 0x62, 0x50, 0xf7, 0x6c, 0x78, 
  0x7f, 0x29, 0x39, 0x7f, 0x81, 0x8d, 0x81, 0xab, 0x16, 0xfa, 0xa4, 0x1c, 
  0x0c, 0x61, 0xcf, 0x06, 0x54, 0x92, 0xeb, 0x5a, 0xb3, 0xa3, 0x4a, 0x6a, 
  0x1d, 0x61, 0x2e, 0x7e, 0x4b, 0xf4, 0x50, 0x59, 0x69, 0x15, 0x6b, 0xfd, 
  0x8e, 0xc8, 0xdf, 0x92, 0x2d, 0xa3, 0x83, 0x84, 0xf2, 0x53, 0x81, 0x7f, 
  0x67, 0xe8, 0x3e, 0x76, 0x9b, 0xac, 0x1f, 0x5c, 0x1a, 0x7f, 0x3c, 0x7f, 
  0x3c, 0x58, 0xdc, 0x7f, 0x66, 0x3d, 0x7f, 0x65, 0x81, 0x9f, 0x9e, 0x30, 
  0x38, 0xd5, 0x81, 0xb0, 0xe6, 0x5c, 0xa7, 0x5f, 0x4b, 0xcb, 0x3a, 0x3b, 
  0xb8, 0xc1, 0x73, 0x7f, 0x06, 0x73, 0x0f, 0x62, 0x44, 0x4f, 0x46, 0x75, 
  0x53, 0x19, 0x71, 0x1a, 0xc8, 0x82, 0xcd, 0xdf, 0xfe, 0x28, 0xf1, 0xd1, 
  0x00, 0x64, 0x10, 0x57, 0x4e, 0xc1, 0x26, 0x51, 0x17, 0x84, 0x62, 0x4c, 
  0xbd, 0x31, 0xd7, 0xe9, 0x05, 0x23, 0x12, 0x52, 0x68, 0xdc, 0x54, 0x5b, 
  0xf4, 0xe3, 0xc7, 0xdb, 0x38, 0xf3, 0xc8, 0x81, 0x52, 0x1a, 0xc7, 0x67, 
  0x72, 0x81, 0x6d, 0x5a, 0xb6, 0xa9, 0x38, 0x75, 0x86, 0xdf, 0x05, 0x1e, 
  0xe5, 0x7f, 0xca, 0x1c, 0x28, 0x2e, 0x22, 0x51, 0xa6, 0x22, 0x91, 0x0d, 
  0x3e, 0x2e, 0x99, 0xc3, 0x48, 0x40, 0x1c, 0x78, 0x27, 0x8d, 0xd1, 0x3e, 
  0xa8, 0x92, 0x38, 0x7b, 0x40, 0x61, 0x22, 0x00, 0x16, 0x67, 0x02, 0x07, 
  0x0d, 0x7f, 0x5a, 0xcf, 0x1b, 0x82, 0xce, 0xe8, 0x45, 0xcf, 0x0d, 0xc3, 
  0x2d, 0x10, 0xaa, 0x4f, 0x18, 0x0a, 0x20, 0x48, 0x0a, 0xd8, 0x71, 0x09, 
  0x8a, 0xd5, 0x26, 0x36, 0x24, 0x7f, 0x2c, 0x33, 0x14, 0x1e, 0x72, 0x9b, 
  0x28, 0xe7, 0xfe, 0xf3, 0x2b, 0x14, 0x15, 0x9f, 0xe2, 0x59, 0xc0, 0x45, 
  0xfb, 0xd3, 0x7f, 0x52, 0xd3, 0xf9, 0x0a, 0x18, 0x7f, 0x29, 0xcb, 0x4e, 
  0x0f, 0xd0, 0x35, 0x52, 0x5a, 0xcc, 0x56, 0xe3, 0xf1, 0x24, 0xba, 0x9a, 
  0x15, 0xb1, 0x98, 0xa7, 0x3a, 0x3e, 0xec, 0x05, 0x7f, 0x95, 0x01, 0x3d, 
  0x18, 0xa9, 0x3c, 0x09, 0x06, 0xe3, 0x15, 0x63, 0x21, 0x73, 0x5d, 0x42, 
  0xf5, 0xd0, 0x00, 0x87, 0x08, 0x02, 0x12, 0xcc, 0x04, 0x6a, 0x9b, 0xa9, 
  0x52, 0x0d, 0x9e, 0xf7, 0xeb, 0xdd, 0xf0, 0x21, 0xac, 0xa3, 0xeb, 0x2d, 
  0xa3, 0xc0, 0x0e, 0x5d, 0x7f, 0xc3, 0x0b, 0x3d, 0x2a, 0x62, 0x2a, 0x19, 
  0x2d, 0x87, 0xc9, 0xb2, 0x55, 0x3e, 0x88, 0x9e, 0xe3, 0x05, 0x11, 0x33, 
  0x19, 0x3f, 0x5b, 0x15, 0x1d, 0x17, 0x36, 0x65, 0xcb, 0x50, 0xfd, 0xdc, 
  0x30, 0xcf, 0x7f, 0x04, 0x1f, 0x60, 0x46, 0x94, 0x31, 0x2b, 0xc5, 0xac, 
  0x3a, 0x1f, 0x86, 0x08, 0x09, 0x7f, 0xc0, 0x0a, 0x5c, 0xce, 0xa5, 0x1d, 
  0x1b, 0xb7, 0x2c, 0x01, 0x04, 0x14, 0x44, 0x5a, 0x7c, 0x6a, 0x0e, 0x2f, 
  0xfc, 0xe6, 0x51, 0x3d, 0xef, 0xef, 0xb4, 0xfe, 0x7f, 0x59, 0xce, 0xef, 
  0xef, 0x77, 0xa6, 0xdb, 0x26, 0xea, 0xf1, 0x37, 0x56, 0xff, 0xff, 0xff, 
  0x04, 0x00, 0x00, 0x00, 0x80, 0x00, 0x00, 0x00, 0x9e, 0x30, 0x9c, 0xb0, 
  0xcd, 0x2c, 0xfa, 0xcd, 0xb3, 0x39, 0xc8, 0x81, 0x5a, 0xb5, 0xc5, 0xea, 
  0xc1, 0x96, 0x8f, 0xcf, 0xb4, 0xb3, 0x89, 0x53, 0xb0, 0xa9, 0x35, 0xdb, 
  0xc9, 0xb8, 0xab, 0xbc, 0x89, 0xc2, 0xfc, 0xf7, 0x07, 0xc5, 0x3d, 0x0c, 
  0xd3, 0xdc, 0xd2, 0x9a, 0x5f, 0x5e, 0x2c, 0xc1, 0x93, 0x8d, 0x81, 0xd8, 
  0xe0, 0xa4, 0x26, 0x77, 0xf1, 0xc4, 0x37, 0x90, 0xf0, 0x1e, 0x03, 0x5e, 
  0x44, 0x0d, 0x16, 0x0d, 0xd0, 0x63, 0x7c, 0x5d, 0xc7, 0xe7, 0xd3, 0x3e, 
  0xfa, 0x4a, 0x87, 0x2e, 0xf7, 0x42, 0xfe, 0xca, 0xf0, 0xb4, 0x12, 0xb4, 
  0x6c, 0xdf, 0x62, 0x7f, 0xa5, 0x6e, 0x54, 0xc8, 0x23, 0x0f, 0x70, 0x54, 
  0x38, 0x09, 0x35, 0x43, 0x7a, 0xac, 0x8e, 0x2b, 0xe7, 0x43, 0xd9, 0xd1, 
  0x0b, 0x64, 0x06, 0xaa, 0x7f, 0xce, 0x76, 0xcf, 0x74, 0x38, 0x96, 0xfb, 
  0x8e, 0x44, 0xf0, 0xbf, 0xe2, 0xff, 0xff, 0xff, 0x04, 0x00, 0x00, 0x00, 
  0x10, 0x00, 0x00, 0x00, 0x75, 0x0d, 0x00, 0x00, 0xff, 0xfe, 0xff, 0xff, 
  0x6c, 0xfe, 0xff, 0xff, 0x6e, 0xf8, 0xff, 0xff, 0x00, 0x00, 0x06, 0x00, 
  0x08, 0x00, 0x04, 0x00, 0x06, 0x00, 0x00, 0x00, 0x04, 0x00, 0x00, 0x00, 
  0x08, 0x00, 0x00, 0x00, 0xff, 0xff, 0xff, 0xff, 0x10, 0x00, 0x00, 0x00, 
  0x18, 0xde, 0xff, 0xff, 0x1c, 0xde, 0xff, 0xff, 0x0f, 0x00, 0x00, 0x00, 
  0x4d, 0x4c, 0x49, 0x52, 0x20, 0x43, 0x6f, 0x6e, 0x76, 0x65, 0x72, 0x74, 
  0x65, 0x64, 0x2e, 0x00, 0x01, 0x00, 0x00, 0x00, 0x14, 0x00, 0x00, 0x00, 
  0x00, 0x00, 0x0e, 0x00, 0x18, 0x00, 0x14, 0x00, 0x10, 0x00, 0x0c, 0x00, 
  0x08, 0x00, 0x04, 0x00, 0x0e, 0x00, 0x00, 0x00, 0x14, 0x00, 0x00, 0x00, 
  0x1c, 0x00, 0x00, 0x00, 0xd0, 0x03, 0x00, 0x00, 0xd4, 0x03, 0x00, 0x00, 
  0xd8, 0x03, 0x00, 0x00, 0x04, 0x00, 0x00, 0x00, 0x6d, 0x61, 0x69, 0x6e, 
  0x00, 0x00, 0x00, 0x00, 0x11, 0x00, 0x00, 0x00, 0x98, 0x03, 0x00, 0x00, 
  0x4c, 0x03, 0x00, 0x00, 0x08, 0x03, 0x00, 0x00, 0xd4, 0x02, 0x00, 0x00, 
  0x80, 0x02, 0x00, 0x00, 0x4c, 0x02, 0x00, 0x00, 0x18, 0x02, 0x00, 0x00, 
  0xf4, 0x01, 0x00, 0x00, 0x94, 0x01, 0x00, 0x00, 0x74, 0x01, 0x00, 0x00, 
  0x24, 0x01, 0x00, 0x00, 0xd4, 0x00, 0x00, 0x00, 0xb0, 0x00, 0x00, 0x00, 
  0x6c, 0x00, 0x00, 0x00, 0x4c, 0x00, 0x00, 0x00, 0x24, 0x00, 0x00, 0x00, 
  0x04, 0x00, 0x00, 0x00, 0xb6, 0xfc, 0xff, 0xff, 0x08, 0x00, 0x00, 0x00, 
  0x0c, 0x00, 0x00, 0x00, 0x01, 0x00, 0x00, 0x00, 0x1e, 0x00, 0x00, 0x00, 
  0x01, 0x00, 0x00, 0x00, 0x1d, 0x00, 0x00, 0x00, 0x5a, 0xfe, 0xff, 0xff, 
  0x0c, 0x00, 0x00, 0x00, 0x10, 0x00, 0x00, 0x00, 0x07, 0x00, 0x00, 0x00, 
  0x01, 0x00, 0x00, 0x00, 0x1d, 0x00, 0x00, 0x00, 0x02, 0x00, 0x00, 0x00, 
  0x1c, 0x00, 0x00, 0x00, 0x01, 0x00, 0x00, 0x00, 0xf6, 0xfc, 0xff, 0xff, 
  0x08, 0x00, 0x00, 0x00, 0x0c, 0x00, 0x00, 0x00, 0x01, 0x00, 0x00, 0x00, 
  0x1c, 0x00, 0x00, 0x00, 0x01, 0x00, 0x00, 0x00, 0x1b, 0x00, 0x00, 0x00, 
  0x5e, 0xfd, 0xff, 0xff, 0x14, 0x00, 0x00, 0x00, 0x00, 0x00, 0x00, 0x05, 
  0x24, 0x00, 0x00, 0x00, 0x28, 0x00, 0x00, 0x00, 0x06, 0x00, 0x00, 0x00, 
  0xea, 0xfe, 0xff, 0xff, 0x01, 0x00, 0x00, 0x00, 0x08, 0x00, 0x00, 0x00, 
  0x01, 0x00, 0x00, 0x00, 0x08, 0x00, 0x00, 0x00, 0x00, 0x00, 0x00, 0x01, 
  0x01, 0x00, 0x00, 0x00, 0x1b, 0x00, 0x00, 0x00, 0x01, 0x00, 0x00, 0x00, 
  0x1a, 0x00, 0x00, 0x00, 0xda, 0xfe, 0xff, 0xff, 0x0c, 0x00, 0x00, 0x00, 
  0x10, 0x00, 0x00, 0x00, 0x05, 0x00, 0x00, 0x00, 0x01, 0x00, 0x00, 0x00, 
  0x1a, 0x00, 0x00, 0x00, 0x01, 0x00, 0x00, 0x00, 0x19, 0x00, 0x00, 0x00, 
  0xbe, 0xfd, 0xff, 0xff, 0x20, 0x00, 0x00, 0x00, 0x00, 0x00, 0x00, 0x01, 
  0x28, 0x00, 0x00, 0x00, 0x2c, 0x00, 0x00, 0x00, 0x01, 0x00, 0x00, 0x00, 
  0x00, 0x00, 0x0a, 0x00, 0x10, 0x00, 0x0f, 0x00, 0x08, 0x00, 0x04, 0x00, 
  0x0a, 0x00, 0x00, 0x00, 0x01, 0x00, 0x00, 0x00, 0x01, 0x00, 0x00, 0x00, 
  0x00, 0x00, 0x00, 0x01, 0x01, 0x00, 0x00, 0x00, 0x19, 0x00, 0x00, 0x00, 
  0x03, 0x00, 0x00, 0x00, 0x18, 0x00, 0x00, 0x00, 0x03, 0x00, 0x00, 0x00, 
  0x02, 0x00, 0x00, 0x00, 0x0a, 0xfe, 0xff, 0xff, 0x20, 0x00, 0x00, 0x00, 
  0x00, 0x00, 0x00, 0x02, 0x28, 0x00, 0x00, 0x00, 0x2c, 0x00, 0x00, 0x00, 
  0x04, 0x00, 0x00, 0x00, 0x0c, 0x00, 0x10, 0x00, 0x00, 0x00, 0x0c, 0x00, 
  0x08, 0x00, 0x04, 0x00, 0x0c, 0x00, 0x00, 0x00, 0x01, 0x00, 0x00, 0x00, 
  0x01, 0x00, 0x00, 0x00, 0x01, 0x00, 0x00, 0x00, 0x01, 0x00, 0x00, 0x00, 
  0x18, 0x00, 0x00, 0x00, 0x03, 0x00, 0x00, 0x00, 0x17, 0x00, 0x00, 0x00, 
  0x04, 0x00, 0x00, 0x00, 0x08, 0x00, 0x00, 0x00, 0x0a, 0xfe, 0xff, 0xff, 
  0x08, 0x00, 0x00, 0x00, 0x0c, 0x00, 0x00, 0x00, 0x01, 0x00, 0x00, 0x00, 
  0x17, 0x00, 0x00, 0x00, 0x01, 0x00, 0x00, 0x00, 0x16, 0x00, 0x00, 0x00, 
  0x72, 0xfe, 0xff, 0xff, 0x24, 0x00, 0x00, 0x00, 0x00, 0x00, 0x00, 0x05, 
  0x34, 0x00, 0x00, 0x00, 0x38, 0x00, 0x00, 0x00, 0x06, 0x00, 0x00, 0x00, 
  0x00, 0x00, 0x0e, 0x00, 0x18, 0x00, 0x17, 0x00, 0x10, 0x00, 0x0c, 0x00, 
  0x08, 0x00, 0x04, 0x00, 0x0e, 0x00, 0x00, 0x00, 0x01, 0x00, 0x00, 0x00, 
  0x04, 0x00, 0x00, 0x00, 0x01, 0x00, 0x00, 0x00, 0x04, 0x00, 0x00, 0x00, 
  0x00, 0x00, 0x00, 0x01, 0x01, 0x00, 0x00, 0x00, 0x16, 0x00, 0x00, 0x00, 
  0x01, 0x00, 0x00, 0x00, 0x15, 0x00, 0x00, 0x00, 0x00, 0x00, 0x0a, 0x00, 
  0x10, 0x00, 0x0c, 0x00, 0x08, 0x00, 0x04, 0x00, 0x0a, 0x00, 0x00, 0x00, 
  0x0c, 0x00, 0x00, 0x00, 0x10, 0x00, 0x00, 0x00, 0x05, 0x00, 0x00, 0x00, 
  0x01, 0x00, 0x00, 0x00, 0x15, 0x00, 0x00, 0x00, 0x01, 0x00, 0x00, 0x00, 
  0x14, 0x00, 0x00, 0x00, 0xee, 0xfe, 0xff, 0xff, 0x14, 0x00, 0x00, 0x00, 
  0x00, 0x00, 0x00, 0x0b, 0x10, 0x00, 0x00, 0x00, 0x14, 0x00, 0x00, 0x00, 
  0x03, 0x00, 0x00, 0x00, 0xbc, 0xe0, 0xff, 0xff, 0x01, 0x00, 0x00, 0x00, 
  0x14, 0x00, 0x00, 0x00, 0x02, 0x00, 0x00, 0x00, 0x13, 0x00, 0x00, 0x00, 
  0x05, 0x00, 0x00, 0x00, 0x1e, 0xff, 0xff, 0xff, 0x14, 0x00, 0x00, 0x00, 
  0x00, 0x00, 0x00, 0x15, 0x10, 0x00, 0x00, 0x00, 0x14, 0x00, 0x00, 0x00, 
  0x02, 0x00, 0x00, 0x00, 0xec, 0xe0, 0xff, 0xff, 0x01, 0x00, 0x00, 0x00, 
  0x13, 0x00, 0x00, 0x00, 0x02, 0x00, 0x00, 0x00, 0x12, 0x00, 0x00, 0x00, 
  0x06, 0x00, 0x00, 0x00, 0x4e, 0xff, 0xff, 0xff, 0x20, 0x00, 0x00, 0x00, 
  0x00, 0x00, 0x00, 0x02, 0x2c, 0x00, 0x00, 0x00, 0x30, 0x00, 0x00, 0x00, 
  0x04, 0x00, 0x00, 0x00, 0x0c, 0x00, 0x14, 0x00, 0x13, 0x00, 0x0c, 0x00, 
  0x08, 0x00, 0x04, 0x00, 0x0c, 0x00, 0x00, 0x00, 0x02, 0x00, 0x00, 0x00, 
  0x01, 0x00, 0x00, 0x00, 0x01, 0x00, 0x00, 0x00, 0x00, 0x00, 0x00, 0x01, 
  0x01, 0x00, 0x00, 0x00, 0x12, 0x00, 0x00, 0x00, 0x03, 0x00, 0x00, 0x00, 
  0x11, 0x00, 0x00, 0x00, 0x09, 0x00, 0x00, 0x00, 0x07, 0x00, 0x00, 0x00, 
  0x9e, 0xff, 0xff, 0xff, 0x14, 0x00, 0x00, 0x00, 0x00, 0x00, 0x00, 0x0b, 
  0x10, 0x00, 0x00, 0x00, 0x14, 0x00, 0x00, 0x00, 0x03, 0x00, 0x00, 0x00, 
  0x6c, 0xe1, 0xff, 0xff, 0x01, 0x00, 0x00, 0x00, 0x11, 0x00, 0x00, 0x00, 
  0x02, 0x00, 0x00, 0x00, 0x10, 0x00, 0x00, 0x00, 0x0a, 0x00, 0x00, 0x00, 
  0xce, 0xff, 0xff, 0xff, 0x14, 0x00, 0x00, 0x00, 0x00, 0x00, 0x00, 0x15, 
  0x10, 0x00, 0x00, 0x00, 0x14, 0x00, 0x00, 0x00, 0x02, 0x00, 0x00, 0x00, 
  0x9c, 0xe1, 0xff, 0xff, 0x01, 0x00, 0x00, 0x00, 0x10, 0x00, 0x00, 0x00, 
  0x02, 0x00, 0x00, 0x00, 0x0f, 0x00, 0x00, 0x00, 0x0b, 0x00, 0x00, 0x00, 
  0x00, 0x00, 0x0e, 0x00, 0x18, 0x00, 0x14, 0x00, 0x10, 0x00, 0x0c, 0x00, 
  0x0b, 0x00, 0x04, 0x00, 0x0e, 0x00, 0x00, 0x00, 0x14, 0x00, 0x00, 0x00, 
  0x00, 0x00, 0x00, 0x01, 0x18, 0x00, 0x00, 0x00, 0x1c, 0x00, 0x00, 0x00, 
  0x01, 0x00, 0x00, 0x00, 0xda, 0xff, 0xff, 0xff, 0x01, 0x00, 0x00, 0x00, 
  0x01, 0x00, 0x00, 0x00, 0x01, 0x00, 0x00, 0x00, 0x0f, 0x00, 0x00, 0x00, 
  0x03, 0x00, 0x00, 0x00, 0x0c, 0x00, 0x00, 0x00, 0x0d, 0x00, 0x00, 0x00, 
  0x0e, 0x00, 0x00, 0x00, 0x00, 0x00, 0x0a, 0x00, 0x0c, 0x00, 0x00, 0x00, 
  0x08, 0x00, 0x04, 0x00, 0x0a, 0x00, 0x00, 0x00, 0x08, 0x00, 0x00, 0x00, 
  0x0c, 0x00, 0x00, 0x00, 0x01, 0x00, 0x00, 0x00, 0x0c, 0x00, 0x00, 0x00, 
  0x01, 0x00, 0x00, 0x00, 0x00, 0x00, 0x00, 0x00, 0x01, 0x00, 0x00, 0x00, 
  0x1e, 0x00, 0x00, 0x00, 0x01, 0x00, 0x00, 0x00, 0x00, 0x00, 0x00, 0x00, 
  0x1f, 0x00, 0x00, 0x00, 0x18, 0x1e, 0x00, 0x00, 0xa4, 0x1d, 0x00, 0x00, 
  0xdc, 0x1c, 0x00, 0x00, 0x28, 0x1c, 0x00, 0x00, 0x04, 0x1a, 0x00, 0x00, 
  0x78, 0x19, 0x00, 0x00, 0xec, 0x18, 0x00, 0x00, 0xe8, 0x16, 0x00, 0x00, 
  0xe4, 0x14, 0x00, 0x00, 0x84, 0x12, 0x00, 0x00, 0xfc, 0x11, 0x00, 0x00, 
  0x78, 0x11, 0x00, 0x00, 0x04, 0x10, 0x00, 0x00, 0x80, 0x0e, 0x00, 0x00, 
  0x54, 0x0d, 0x00, 0x00, 0xb8, 0x0c, 0x00, 0x00, 0x0c, 0x0c, 0x00, 0x00, 
  0x60, 0x0b, 0x00, 0x00, 0xbc, 0x0a, 0x00, 0x00, 0x10, 0x0a, 0x00, 0x00, 
  0x64, 0x09, 0x00, 0x00, 0xe8, 0x07, 0x00, 0x00, 0x44, 0x07, 0x00, 0x00, 
  0xb8, 0x05, 0x00, 0x00, 0x04, 0x05, 0x00, 0x00, 0x20, 0x04, 0x00, 0x00, 
  0xb4, 0x02, 0x00, 0x00, 0x10, 0x02, 0x00, 0x00, 0x64, 0x01, 0x00, 0x00, 
  0x80, 0x00, 0x00, 0x00, 0x04, 0x00, 0x00, 0x00, 0x7a, 0xe2, 0xff, 0xff, 
  0x00, 0x00, 0x00, 0x01, 0x18, 0x00, 0x00, 0x00, 0x20, 0x00, 0x00, 0x00, 
  0x3c, 0x00, 0x00, 0x00, 0x1f, 0x00, 0x00, 0x00, 0x00, 0x00, 0x00, 0x03, 
  0x50, 0x00, 0x00, 0x00, 0x02, 0x00, 0x00, 0x00, 0xff, 0xff, 0xff, 0xff, 
  0x10, 0x00, 0x00, 0x00, 0x5c, 0xe2, 0xff, 0xff, 0x08, 0x00, 0x00, 0x00, 
  0x10, 0x00, 0x00, 0x00, 0x01, 0x00, 0x00, 0x00, 0x32, 0x00, 0x00, 0x00, 
  0x00, 0x00, 0x00, 0x00, 0x01, 0x00, 0x00, 0x00, 0xd3, 0xae, 0xf5, 0x3c, 
  0x19, 0x00, 0x00, 0x00, 0x53, 0x74, 0x61, 0x74, 0x65, 0x66, 0x75, 0x6c, 
  0x50, 0x61, 0x72, 0x74, 0x69, 0x74, 0x69, 0x6f, 0x6e, 0x65, 0x64, 0x43, 
  0x61, 0x6c, 0x6c, 0x3a, 0x30, 0x00, 0x00, 0x00, 0x02, 0x00, 0x00, 0x00, 
  0x01, 0x00, 0x00, 0x00, 0x10, 0x00, 0x00, 0x00, 0xf2, 0xe2, 0xff, 0xff, 
  0x00, 0x00, 0x00, 0x01, 0x18, 0x00, 0x00, 0x00, 0x20, 0x00, 0x00, 0x00, 
  0x40, 0x00, 0x00, 0x00, 0x1e, 0x00, 0x00, 0x00, 0x00, 0x00, 0x00, 0x09, 
  0xb8, 0x00, 0x00, 0x00, 0x02, 0x00, 0x00, 0x00, 0xff, 0xff, 0xff, 0xff, 
  0x10, 0x00, 0x00, 0x00, 0xd4, 0xe2, 0xff, 0xff, 0x08, 0x00, 0x00, 0x00, 
  0x14, 0x00, 0x00, 0x00, 0x01, 0x00, 0x00, 0x00, 0xb2, 0xff, 0xff, 0xff, 
  0xff, 0xff, 0xff, 0xff, 0x00, 0x00, 0x00, 0x00, 0x01, 0x00, 0x00, 0x00, 
  0xd3, 0xae, 0xf5, 0x3c, 0x7d, 0x00, 0x00, 0x00, 0x45, 0x45, 0x47, 0x4e, 
  0x65, 0x74, 0x5f, 0x46, 0x75, 0x6e, 0x63, 0x74, 0x69, 0x6f, 0x6e, 0x61, 
  0x6c, 0x2f, 0x71, 0x75, 0x61, 0x6e, 0x74, 0x5f, 0x66, 0x6c, 0x61, 0x74, 
  0x74, 0x65, 0x6e, 0x2f, 0x52, 0x65, 0x73, 0x68, 0x61, 0x70, 0x65, 0x3b, 
  0x45, 0x45, 0x47, 0x4e, 0x65, 0x74, 0x5f, 0x46, 0x75, 0x6e, 0x63, 0x74, 
  0x69, 0x6f, 0x6e, 0x61, 0x6c, 0x2f, 0x71, 0x75, 0x61, 0x6e, 0x74, 0x5f, 
  0x61, 0x76, 0x65, 0x72, 0x61, 0x67, 0x65, 0x5f, 0x70, 0x6f, 0x6f, 0x6c, 
  0x69, 0x6e, 0x67, 0x32, 0x64, 0x5f, 0x31, 0x2f, 0x4d, 0x6f, 0x76, 0x69, 
  0x6e, 0x67, 0x41, 0x76, 0x67, 0x51, 0x75, 0x61, 0x6e, 0x74, 0x69, 0x7a, 
  0x65, 0x2f, 0x46, 0x61, 0x6b, 0x65, 0x51, 0x75, 0x61, 0x6e, 0x74, 0x57, 
  0x69, 0x74, 0x68, 0x4d, 0x69, 0x6e, 0x4d, 0x61, 0x78, 0x56, 0x61, 0x72, 
  0x73, 0x00, 0x00, 0x00, 0x02, 0x00, 0x00, 0x00, 0x01, 0x00, 0x00, 0x00, 
  0x10, 0x00, 0x00, 0x00, 0xd2, 0xe3, 0xff, 0xff, 0x00, 0x00, 0x00, 0x01, 
  0x18, 0x00, 0x00, 0x00, 0x28, 0x00, 0x00, 0x00, 0x48, 0x00, 0x00, 0x00, 
  0x1d, 0x00, 0x00, 0x00, 0x00, 0x00, 0x00, 0x09, 0x78, 0x00, 0x00, 0x00, 
  0x04, 0x00, 0x00, 0x00, 0xff, 0xff, 0xff, 0xff, 0x01, 0x00, 0x00, 0x00, 
  0x04, 0x00, 0x00, 0x00, 0x04, 0x00, 0x00, 0x00, 0xbc, 0xe3, 0xff, 0xff, 
  0x08, 0x00, 0x00, 0x00, 0x14, 0x00, 0x00, 0x00, 0x01, 0x00, 0x00, 0x00, 
  0xb2, 0xff, 0xff, 0xff, 0xff, 0xff, 0xff, 0xff, 0x00, 0x00, 0x00, 0x00, 
  0x01, 0x00, 0x00, 0x00, 0xd3, 0xae, 0xf5, 0x3c, 0x34, 0x00, 0x00, 0x00, 
  0x45, 0x45, 0x47, 0x4e, 0x65, 0x74, 0x5f, 0x46, 0x75, 0x6e, 0x63, 0x74, 
  0x69, 0x6f, 0x6e, 0x61, 0x6c, 0x2f, 0x71, 0x75, 0x61, 0x6e, 0x74, 0x5f, 
  0x61, 0x76, 0x65, 0x72, 0x61, 0x67, 0x65, 0x5f, 0x70, 0x6f, 0x6f, 0x6c, 
  0x69, 0x6e, 0x67, 0x32, 0x64, 0x5f, 0x31, 0x2f, 0x41, 0x76, 0x67, 0x50, 
  0x6f, 0x6f, 0x6c, 0x31, 0x00, 0x00, 0x00, 0x00, 0x04, 0x00, 0x00, 0x00, 
  0x01, 0x00, 0x00, 0x00, 0x01, 0x00, 0x00, 0x00, 0x04, 0x00, 0x00, 0x00, 
  0x04, 0x00, 0x00, 0x00, 0x7a, 0xe4, 0xff, 0xff, 0x00, 0x00, 0x00, 0x01, 
  0x18, 0x00, 0x00, 0x00, 0x28, 0x00, 0x00, 0x00, 0x44, 0x00, 0x00, 0x00, 
  0x1c, 0x00, 0x00, 0x00, 0x00, 0x00, 0x00, 0x09, 0x70, 0x00, 0x00, 0x00, 
  0x04, 0x00, 0x00, 0x00, 0xff, 0xff, 0xff, 0xff, 0x01, 0x00, 0x00, 0x00, 
  0x04, 0x00, 0x00, 0x00, 0x04, 0x00, 0x00, 0x00, 0x64, 0xe4, 0xff, 0xff, 
  0x08, 0x00, 0x00, 0x00, 0x10, 0x00, 0x00, 0x00, 0x01, 0x00, 0x00, 0x00, 
  0xa7, 0xff, 0xff, 0xff, 0xff, 0xff, 0xff, 0xff, 0x01, 0x00, 0x00, 0x00, 
  0xa6, 0x5c, 0x1e, 0x3d, 0x33, 0x00, 0x00, 0x00, 0x45, 0x45, 0x47, 0x4e, 
  0x65, 0x74, 0x5f, 0x46, 0x75, 0x6e, 0x63, 0x74, 0x69, 0x6f, 0x6e, 0x61, 
  0x6c, 0x2f, 0x71, 0x75, 0x61, 0x6e, 0x74, 0x5f, 0x61, 0x76, 0x65, 0x72, 
  0x61, 0x67, 0x65, 0x5f, 0x70, 0x6f, 0x6f, 0x6c, 0x69, 0x6e, 0x67, 0x32, 
  0x64, 0x5f, 0x31, 0x2f, 0x41, 0x76, 0x67, 0x50, 0x6f, 0x6f, 0x6c, 0x00, 
  0x04, 0x00, 0x00, 0x00, 0x01, 0x00, 0x00, 0x00, 0x01, 0x00, 0x00, 0x00, 
  0x04, 0x00, 0x00, 0x00, 0x04, 0x00, 0x00, 0x00, 0x1a, 0xe5, 0xff, 0xff, 
  0x00, 0x00, 0x00, 0x01, 0x18, 0x00, 0x00, 0x00, 0x28, 0x00, 0x00, 0x00, 
  0x48, 0x00, 0x00, 0x00, 0x1b, 0x00, 0x00, 0x00, 0x00, 0x00, 0x00, 0x09, 
  0x38, 0x01, 0x00, 0x00, 0x04, 0x00, 0x00, 0x00, 0xff, 0xff, 0xff, 0xff, 
  0x01, 0x00, 0x00, 0x00, 0x20, 0x00, 0x00, 0x00, 0x04, 0x00, 0x00, 0x00, 
  0x04, 0xe5, 0xff, 0xff, 0x08, 0x00, 0x00, 0x00, 0x14, 0x00, 0x00, 0x00, 
  0x01, 0x00, 0x00, 0x00, 0xa7, 0xff, 0xff, 0xff, 0xff, 0xff, 0xff, 0xff, 
  0x00, 0x00, 0x00, 0x00, 0x01, 0x00, 0x00, 0x00, 0xa6, 0x5c, 0x1e, 0x3d, 
  0xf5, 0x00, 0x00, 0x00, 0x45, 0x45, 0x47, 0x4e, 0x65, 0x74, 0x5f, 0x46, 
  0x75, 0x6e, 0x63, 0x74, 0x69, 0x6f, 0x6e, 0x61, 0x6c, 0x2f, 0x71, 0x75, 
  0x61, 0x6e, 0x74, 0x5f, 0x73, 0x65, 0x70, 0x5f, 0x68, 0x73, 0x77, 0x69, 
  0x73, 0x68, 0x2f, 0x6d, 0x75, 0x6c, 0x5f, 0x31, 0x3b, 0x45, 0x45, 0x47, 
  0x4e, 0x65, 0x74, 0x5f, 0x46, 0x75, 0x6e, 0x63, 0x74, 0x69, 0x6f, 0x6e, 
  0x61, 0x6c, 0x2f, 0x71, 0x75, 0x61, 0x6e, 0x74, 0x5f, 0x73, 0x65, 0x70, 
  0x5f, 0x68, 0x73, 0x77, 0x69, 0x73, 0x68, 0x2f, 0x43, 0x61, 0x73, 0x74, 
  0x2f, 0x78, 0x3b, 0x45, 0x45, 0x47, 0x4e, 0x65, 0x74, 0x5f, 0x46, 0x75, 
  0x6e, 0x63, 0x74, 0x69, 0x6f, 0x6e, 0x61, 0x6c, 0x2f, 0x71, 0x75, 0x61, 
  0x6e, 0x74, 0x5f, 0x73, 0x65, 0x70, 0x5f, 0x68, 0x73, 0x77, 0x69, 0x73, 
  0x68, 0x2f, 0x52, 0x65, 0x6c, 0x75, 0x36, 0x3b, 0x45, 0x45, 0x47, 0x4e, 
  0x65, 0x74, 0x5f, 0x46, 0x75, 0x6e, 0x63, 0x74, 0x69, 0x6f, 0x6e, 0x61, 
  0x6c, 0x2f, 0x71, 0x75, 0x61, 0x6e, 0x74, 0x5f, 0x73, 0x65, 0x70, 0x5f, 
  0x68, 0x73, 0x77, 0x69, 0x73, 0x68, 0x2f, 0x61, 0x64, 0x64, 0x3b, 0x45, 
  0x45, 0x47, 0x4e, 0x65, 0x74, 0x5f, 0x46, 0x75, 0x6e, 0x63, 0x74, 0x69, 
  0x6f, 0x6e, 0x61, 0x6c, 0x2f, 0x71, 0x75, 0x61, 0x6e, 0x74, 0x5f, 0x73, 
  0x65, 0x70, 0x5f, 0x68, 0x73, 0x77, 0x69, 0x73, 0x68, 0x2f, 0x6d, 0x75, 
  0x6c, 0x3b, 0x45, 0x45, 0x47, 0x4e, 0x65, 0x74, 0x5f, 0x46, 0x75, 0x6e, 
  0x63, 0x74, 0x69, 0x6f, 0x6e, 0x61, 0x6c, 0x2f, 0x71, 0x75, 0x61, 0x6e, 
  0x74, 0x5f, 0x73, 0x65, 0x70, 0x5f, 0x68, 0x73, 0x77, 0x69, 0x73, 0x68, 
  0x2f, 0x43, 0x61, 0x73, 0x74, 0x5f, 0x31, 0x2f, 0x78, 0x00, 0x00, 0x00, 
  0x04, 0x00, 0x00, 0x00, 0x01, 0x00, 0x00, 0x00, 0x01, 0x00, 0x00, 0x00, 
  0x20, 0x00, 0x00, 0x00, 0x04, 0x00, 0x00, 0x00, 0x82, 0xe6, 0xff, 0xff, 
  0x00, 0x00, 0x00, 0x01, 0x18, 0x00, 0x00, 0x00, 0x28, 0x00, 0x00, 0x00, 
  0x48, 0x00, 0x00, 0x00, 0x1a, 0x00, 0x00, 0x00, 0x00, 0x00, 0x00, 0x09, 
  0xb0, 0x00, 0x00, 0x00, 0x04, 0x00, 0x00, 0x00, 0xff, 0xff, 0xff, 0xff, 
  0x01, 0x00, 0x00, 0x00, 0x20, 0x00, 0x00, 0x00, 0x04, 0x00, 0x00, 0x00, 
  0x6c, 0xe6, 0xff, 0xff, 0x08, 0x00, 0x00, 0x00, 0x14, 0x00, 0x00, 0x00, 
  0x01, 0x00, 0x00, 0x00, 0xf0, 0xff, 0xff, 0xff, 0xff, 0xff, 0xff, 0xff, 
  0x00, 0x00, 0x00, 0x00, 0x01, 0x00, 0x00, 0x00, 0xa0, 0xad, 0xf2, 0x3c, 
  0x6c, 0x00, 0x00, 0x00, 0x45, 0x45, 0x47, 0x4e, 0x65, 0x74, 0x5f, 0x46, 
  0x75, 0x6e, 0x63, 0x74, 0x69, 0x6f, 0x6e, 0x61, 0x6c, 0x2f, 0x62, 0x61, 
  0x74, 0x63, 0x68, 0x5f, 0x6e, 0x6f, 0x72, 0x6d, 0x61, 0x6c, 0x69, 0x7a, 
  0x61, 0x74, 0x69, 0x6f, 0x6e, 0x5f, 0x32, 0x2f, 0x46, 0x75, 0x73, 0x65, 
  0x64, 0x42, 0x61, 0x74, 0x63, 0x68, 0x4e, 0x6f, 0x72, 0x6d, 0x56, 0x33, 
  0x3b, 0x45, 0x45, 0x47, 0x4e, 0x65, 0x74, 0x5f, 0x46, 0x75, 0x6e, 0x63, 
  0x74, 0x69, 0x6f, 0x6e, 0x61, 0x6c, 0x2f, 0x73, 0x65, 0x70, 0x61, 0x72, 
  0x61, 0x62, 0x6c, 0x65, 0x5f, 0x63, 0x6f, 0x6e, 0x76, 0x32, 0x64, 0x2f, 
  0x73, 0x65, 0x70, 0x61, 0x72, 0x61, 0x62, 0x6c, 0x65, 0x5f, 0x63, 0x6f, 
  0x6e, 0x76, 0x32, 0x64, 0x00, 0x00, 0x00, 0x00, 0x04, 0x00, 0x00, 0x00, 
  0x01, 0x00, 0x00, 0x00, 0x01, 0x00, 0x00, 0x00, 0x20, 0x00, 0x00, 0x00, 
  0x04, 0x00, 0x00, 0x00, 0x62, 0xe7, 0xff, 0xff, 0x00, 0x00, 0x00, 0x01, 
  0x18, 0x00, 0x00, 0x00, 0x28, 0x00, 0x00, 0x00, 0x48, 0x00, 0x00, 0x00, 
  0x19, 0x00, 0x00, 0x00, 0x00, 0x00, 0x00, 0x09, 0x80, 0x00, 0x00, 0x00, 
  0x04, 0x00, 0x00, 0x00, 0xff, 0xff, 0xff, 0xff, 0x01, 0x00, 0x00, 0x00, 
  0x20, 0x00, 0x00, 0x00, 0x20, 0x00, 0x00, 0x00, 0x4c, 0xe7, 0xff, 0xff, 
  0x08, 0x00, 0x00, 0x00, 0x14, 0x00, 0x00, 0x00, 0x01, 0x00, 0x00, 0x00, 
  0xea, 0xff, 0xff, 0xff, 0xff, 0xff, 0xff, 0xff, 0x00, 0x00, 0x00, 0x00, 
  0x01, 0x00, 0x00, 0x00, 0x66, 0x78, 0xb7, 0x3c, 0x3f, 0x00, 0x00, 0x00, 
  0x45, 0x45, 0x47, 0x4e, 0x65, 0x74, 0x5f, 0x46, 0x75, 0x6e, 0x63, 0x74, 
  0x69, 0x6f, 0x6e, 0x61, 0x6c, 0x2f, 0x73, 0x65, 0x70, 0x61, 0x72, 0x61, 
  0x62, 0x6c, 0x65, 0x5f, 0x63, 0x6f, 0x6e, 0x76, 0x32, 0x64, 0x2f, 0x73, 
  0x65, 0x70, 0x61, 0x72, 0x61, 0x62, 0x6c, 0x65, 0x5f, 0x63, 0x6f, 0x6e, 
  0x76, 0x32, 0x64, 0x2f, 0x64, 0x65, 0x70, 0x74, 0x68, 0x77, 0x69, 0x73, 
  0x65, 0x32, 0x31, 0x00, 0x04, 0x00, 0x00, 0x00, 0x01, 0x00, 0x00, 0x00, 
  0x01, 0x00, 0x00, 0x00, 0x20, 0x00, 0x00, 0x00, 0x20, 0x00, 0x00, 0x00, 
  0x12, 0xe8, 0xff, 0xff, 0x00, 0x00, 0x00, 0x01, 0x18, 0x00, 0x00, 0x00, 
  0x28, 0x00, 0x00, 0x00, 0x44, 0x00, 0x00, 0x00, 0x18, 0x00, 0x00, 0x00, 
  0x00, 0x00, 0x00, 0x09, 0x58, 0x01, 0x00, 0x00, 0x04, 0x00, 0x00, 0x00, 
  0xff, 0xff, 0xff, 0xff, 0x01, 0x00, 0x00, 0x00, 0x20, 0x00, 0x00, 0x00, 
  0x20, 0x00, 0x00, 0x00, 0xfc, 0xe7, 0xff, 0xff, 0x08, 0x00, 0x00, 0x00, 
  0x10, 0x00, 0x00, 0x00, 0x01, 0x00, 0x00, 0x00, 0xac, 0xff, 0xff, 0xff, 
  0xff, 0xff, 0xff, 0xff, 0x01, 0x00, 0x00, 0x00, 0xa7, 0x88, 0x0c, 0x3d, 
  0x1b, 0x01, 0x00, 0x00, 0x45, 0x45, 0x47, 0x4e, 0x65, 0x74, 0x5f, 0x46, 
  0x75, 0x6e, 0x63, 0x74, 0x69, 0x6f, 0x6e, 0x61, 0x6c, 0x2f, 0x71, 0x75, 
  0x61, 0x6e, 0x74, 0x5f, 0x61, 0x76, 0x65, 0x72, 0x61, 0x67, 0x65, 0x5f, 
  0x70, 0x6f, 0x6f, 0x6c, 0x69, 0x6e, 0x67, 0x32, 0x64, 0x2f, 0x4d, 0x6f, 
  0x76, 0x69, 0x6e, 0x67, 0x41, 0x76, 0x67, 0x51, 0x75, 0x61, 0x6e, 0x74, 
  0x69, 0x7a, 0x65, 0x2f, 0x46, 0x61, 0x6b, 0x65, 0x51, 0x75, 0x61, 0x6e, 
  0x74, 0x57, 0x69, 0x74, 0x68, 0x4d, 0x69, 0x6e, 0x4d, 0x61, 0x78, 0x56, 
  0x61, 0x72, 0x73, 0x3b, 0x45, 0x45, 0x47, 0x4e, 0x65, 0x74, 0x5f, 0x46, 
  0x75, 0x6e, 0x63, 0x74, 0x69, 0x6f, 0x6e, 0x61, 0x6c, 0x2f, 0x71, 0x75, 
  0x61, 0x6e, 0x74, 0x5f, 0x61, 0x76, 0x65, 0x72, 0x61, 0x67, 0x65, 0x5f, 
  0x70, 0x6f, 0x6f, 0x6c, 0x69, 0x6e, 0x67, 0x32, 0x64, 0x2f, 0x4d, 0x6f, 
  0x76, 0x69, 0x6e, 0x67, 0x41, 0x76, 0x67, 0x51, 0x75, 0x61, 0x6e, 0x74, 
  0x69, 0x7a, 0x65, 0x2f, 0x46, 0x61, 0x6b, 0x65, 0x51, 0x75, 0x61, 0x6e, 
  0x74, 0x57, 0x69, 0x74, 0x68, 0x4d, 0x69, 0x6e, 0x4d, 0x61, 0x78, 0x56, 
  0x61, 0x72, 0x73, 0x2f, 0x52, 0x65, 0x61, 0x64, 0x56, 0x61, 0x72, 0x69, 
  0x61, 0x62, 0x6c, 0x65, 0x4f, 0x70, 0x3b, 0x45, 0x45, 0x47, 0x4e, 0x65, 
  0x74, 0x5f, 0x46, 0x75, 0x6e, 0x63, 0x74, 0x69, 0x6f, 0x6e, 0x61, 0x6c, 
  0x2f, 0x71, 0x75, 0x61, 0x6e, 0x74, 0x5f, 0x61, 0x76, 0x65, 0x72, 0x61, 
  0x67, 0x65, 0x5f, 0x70, 0x6f, 0x6f, 0x6c, 0x69, 0x6e, 0x67, 0x32, 0x64, 
  0x2f, 0x4d, 0x6f, 0x76, 0x69, 0x6e, 0x67, 0x41, 0x76, 0x67, 0x51, 0x75, 
  0x61, 0x6e, 0x74, 0x69, 0x7a, 0x65, 0x2f, 0x46, 0x61, 0x6b, 0x65, 0x51, 
  0x75, 0x61, 0x6e, 0x74, 0x57, 0x69, 0x74, 0x68, 0x4d, 0x69, 0x6e, 0x4d, 
  0x61, 0x78, 0x56, 0x61, 0x72, 0x73, 0x2f, 0x52, 0x65, 0x61, 0x64, 0x56, 
  0x61, 0x72, 0x69, 0x61, 0x62, 0x6c, 0x65, 0x4f, 0x70, 0x5f, 0x31, 0x00, 
  0x04, 0x00, 0x00, 0x00, 0x01, 0x00, 0x00, 0x00, 0x01, 0x00, 0x00, 0x00, 
  0x20, 0x00, 0x00, 0x00, 0x20, 0x00, 0x00, 0x00, 0x9a, 0xe9, 0xff, 0xff, 
  0x00, 0x00, 0x00, 0x01, 0x18, 0x00, 0x00, 0x00, 0x28, 0x00, 0x00, 0x00, 
  0x44, 0x00, 0x00, 0x00, 0x17, 0x00, 0x00, 0x00, 0x00, 0x00, 0x00, 0x09, 
  0x70, 0x00, 0x00, 0x00, 0x04, 0x00, 0x00, 0x00, 0xff, 0xff, 0xff, 0xff, 
  0x01, 0x00, 0x00, 0x00, 0x20, 0x00, 0x00, 0x00, 0x20, 0x00, 0x00, 0x00, 
  0x84, 0xe9, 0xff, 0xff, 0x08, 0x00, 0x00, 0x00, 0x10, 0x00, 0x00, 0x00, 
  0x01, 0x00, 0x00, 0x00, 0xa0, 0xff, 0xff, 0xff, 0xff, 0xff, 0xff, 0xff, 
  0x01, 0x00, 0x00, 0x00, 0x48, 0x14, 0x43, 0x3d, 0x31, 0x00, 0x00, 0x00, 
  0x45, 0x45, 0x47, 0x4e, 0x65, 0x74, 0x5f, 0x46, 0x75, 0x6e, 0x63, 0x74, 
  0x69, 0x6f, 0x6e, 0x61, 0x6c, 0x2f, 0x71, 0x75, 0x61, 0x6e, 0x74, 0x5f, 
  0x61, 0x76, 0x65, 0x72, 0x61, 0x67, 0x65, 0x5f, 0x70, 0x6f, 0x6f, 0x6c, 
  0x69, 0x6e, 0x67, 0x32, 0x64, 0x2f, 0x41, 0x76, 0x67, 0x50, 0x6f, 0x6f, 
  0x6c, 0x00, 0x00, 0x00, 0x04, 0x00, 0x00, 0x00, 0x01, 0x00, 0x00, 0x00, 
  0x01, 0x00, 0x00, 0x00, 0x20, 0x00, 0x00, 0x00, 0x20, 0x00, 0x00, 0x00, 
  0x3a, 0xea, 0xff, 0xff, 0x00, 0x00, 0x00, 0x01, 0x18, 0x00, 0x00, 0x00, 
  0x28, 0x00, 0x00, 0x00, 0x48, 0x00, 0x00, 0x00, 0x16, 0x00, 0x00, 0x00, 
  0x00, 0x00, 0x00, 0x09, 0x48, 0x01, 0x00, 0x00, 0x04, 0x00, 0x00, 0x00, 
  0xff, 0xff, 0xff, 0xff, 0x01, 0x00, 0x00, 0x00, 0x80, 0x00, 0x00, 0x00, 
  0x20, 0x00, 0x00, 0x00, 0x24, 0xea, 0xff, 0xff, 0x08, 0x00, 0x00, 0x00, 
  0x14, 0x00, 0x00, 0x00, 0x01, 0x00, 0x00, 0x00, 0xa0, 0xff, 0xff, 0xff, 
  0xff, 0xff, 0xff, 0xff, 0x00, 0x00, 0x00, 0x00, 0x01, 0x00, 0x00, 0x00, 
  0x48, 0x14, 0x43, 0x3d, 0x05, 0x01, 0x00, 0x00, 0x45, 0x45, 0x47, 0x4e, 
  0x65, 0x74, 0x5f, 0x46, 0x75, 0x6e, 0x63, 0x74, 0x69, 0x6f, 0x6e, 0x61, 
  0x6c, 0x2f, 0x71, 0x75, 0x61, 0x6e, 0x74, 0x5f, 0x73, 0x70, 0x61, 0x74, 
  0x69, 0x61, 0x6c, 0x5f, 0x68, 0x73, 0x77, 0x69, 0x73, 0x68, 0x2f, 0x6d, 
  0x75, 0x6c, 0x5f, 0x31, 0x3b, 0x45, 0x45, 0x47, 0x4e, 0x65, 0x74, 0x5f, 
  0x46, 0x75, 0x6e, 0x63, 0x74, 0x69, 0x6f, 0x6e, 0x61, 0x6c, 0x2f, 0x71, 
  0x75, 0x61, 0x6e, 0x74, 0x5f, 0x73, 0x65, 0x70, 0x5f, 0x68, 0x73, 0x77, 
  0x69, 0x73, 0x68, 0x2f, 0x43, 0x61, 0x73, 0x74, 0x2f, 0x78, 0x3b, 0x45, 
  0x45, 0x47, 0x4e, 0x65, 0x74, 0x5f, 0x46, 0x75, 0x6e, 0x63, 0x74, 0x69, 
  0x6f, 0x6e, 0x61, 0x6c, 0x2f, 0x71, 0x75, 0x61, 0x6e, 0x74, 0x5f, 0x73, 
  0x70, 0x61, 0x74, 0x69, 0x61, 0x6c, 0x5f, 0x68, 0x73, 0x77, 0x69, 0x73, 
  0x68, 0x2f, 0x52, 0x65, 0x6c, 0x75, 0x36, 0x3b, 0x45, 0x45, 0x47, 0x4e, 
  0x65, 0x74, 0x5f, 0x46, 0x75, 0x6e, 0x63, 0x74, 0x69, 0x6f, 0x6e, 0x61, 
  0x6c, 0x2f, 0x71, 0x75, 0x61, 0x6e, 0x74, 0x5f, 0x73, 0x70, 0x61, 0x74, 
  0x69, 0x61, 0x6c, 0x5f, 0x68, 0x73, 0x77, 0x69, 0x73, 0x68, 0x2f, 0x61, 
  0x64, 0x64, 0x3b, 0x45, 0x45, 0x47, 0x4e, 0x65, 0x74, 0x5f, 0x46, 0x75, 
  0x6e, 0x63, 0x74, 0x69, 0x6f, 0x6e, 0x61, 0x6c, 0x2f, 0x71, 0x75, 0x61, 
  0x6e, 0x74, 0x5f, 0x73, 0x70, 0x61, 0x74, 0x69, 0x61, 0x6c, 0x5f, 0x68, 
  0x73, 0x77, 0x69, 0x73, 0x68, 0x2f, 0x6d, 0x75, 0x6c, 0x3b, 0x45, 0x45, 
  0x47, 0x4e, 0x65, 0x74, 0x5f, 0x46, 0x75, 0x6e, 0x63, 0x74, 0x69, 0x6f, 
  0x6e, 0x61, 0x6c, 0x2f, 0x71, 0x75, 0x61, 0x6e, 0x74, 0x5f, 0x73, 0x65, 
  0x70, 0x5f, 0x68, 0x73, 0x77, 0x69, 0x73, 0x68, 0x2f, 0x43, 0x61, 0x73, 
  0x74, 0x5f, 0x31, 0x2f, 0x78, 0x00, 0x00, 0x00, 0x04, 0x00, 0x00, 0x00, 
  0x01, 0x00, 0x00, 0x00, 0x01, 0x00, 0x00, 0x00, 0x80, 0x00, 0x00, 0x00, 
  0x20, 0x00, 0x00, 0x00, 0xb2, 0xeb, 0xff, 0xff, 0x00, 0x00, 0x00, 0x01, 
  0x18, 0x00, 0x00, 0x00, 0x28, 0x00, 0x00, 0x00, 0x44, 0x00, 0x00, 0x00, 
  0x15, 0x00, 0x00, 0x00, 0x00, 0x00, 0x00, 0x09, 0x78, 0x00, 0x00, 0x00, 
  0x04, 0x00, 0x00, 0x00, 0xff, 0xff, 0xff, 0xff, 0x01, 0x00, 0x00, 0x00, 
  0x80, 0x00, 0x00, 0x00, 0x20, 0x00, 0x00, 0x00, 0x9c, 0xeb, 0xff, 0xff, 
  0x08, 0x00, 0x00, 0x00, 0x10, 0x00, 0x00, 0x00, 0x01, 0x00, 0x00, 0x00, 
  0xff, 0xff, 0xff, 0xff, 0xff, 0xff, 0xff, 0xff, 0x01, 0x00, 0x00, 0x00, 
  0x0b, 0x98, 0x66, 0x3d, 0x39, 0x00, 0x00, 0x00, 0x45, 0x45, 0x47, 0x4e, 
  0x65, 0x74, 0x5f, 0x46, 0x75, 0x6e, 0x63, 0x74, 0x69, 0x6f, 0x6e, 0x61, 
  0x6c, 0x2f, 0x62, 0x61, 0x74, 0x63, 0x68, 0x5f, 0x6e, 0x6f, 0x72, 0x6d, 
  0x61, 0x6c, 0x69, 0x7a, 0x61, 0x74, 0x69, 0x6f, 0x6e, 0x5f, 0x31, 0x2f, 
  0x46, 0x75, 0x73, 0x65, 0x64, 0x42, 0x61, 0x74, 0x63, 0x68, 0x4e, 0x6f, 
  0x72, 0x6d, 0x56, 0x33, 0x33, 0x00, 0x00, 0x00, 0x04, 0x00, 0x00, 0x00, 
  0x01, 0x00, 0x00, 0x00, 0x01, 0x00, 0x00, 0x00, 0x80, 0x00, 0x00, 0x00, 
  0x20, 0x00, 0x00, 0x00, 0x5a, 0xec, 0xff, 0xff, 0x00, 0x00, 0x00, 0x01, 
  0x18, 0x00, 0x00, 0x00, 0x28, 0x00, 0x00, 0x00, 0x44, 0x00, 0x00, 0x00, 
  0x14, 0x00, 0x00, 0x00, 0x00, 0x00, 0x00, 0x09, 0x78, 0x00, 0x00, 0x00, 
  0x04, 0x00, 0x00, 0x00, 0xff, 0xff, 0xff, 0xff, 0x01, 0x00, 0x00, 0x00, 
  0x80, 0x00, 0x00, 0x00, 0x20, 0x00, 0x00, 0x00, 0x44, 0xec, 0xff, 0xff, 
  0x08, 0x00, 0x00, 0x00, 0x10, 0x00, 0x00, 0x00, 0x01, 0x00, 0x00, 0x00, 
  0xfe, 0xff, 0xff, 0xff, 0xff, 0xff, 0xff, 0xff, 0x01, 0x00, 0x00, 0x00, 
  0x43, 0x37, 0x67, 0x3d, 0x39, 0x00, 0x00, 0x00, 0x45, 0x45, 0x47, 0x4e, 
  0x65, 0x74, 0x5f, 0x46, 0x75, 0x6e, 0x63, 0x74, 0x69, 0x6f, 0x6e, 0x61, 
  0x6c, 0x2f, 0x62, 0x61, 0x74, 0x63, 0x68, 0x5f, 0x6e, 0x6f, 0x72, 0x6d, 
  0x61, 0x6c, 0x69, 0x7a, 0x61, 0x74, 0x69, 0x6f, 0x6e, 0x5f, 0x31, 0x2f, 
  0x46, 0x75, 0x73, 0x65, 0x64, 0x42, 0x61, 0x74, 0x63, 0x68, 0x4e, 0x6f, 
  0x72, 0x6d, 0x56, 0x33, 0x32, 0x00, 0x00, 0x00, 0x04, 0x00, 0x00, 0x00, 
  0x01, 0x00, 0x00, 0x00, 0x01, 0x00, 0x00, 0x00, 0x80, 0x00, 0x00, 0x00, 
  0x20, 0x00, 0x00, 0x00, 0x02, 0xed, 0xff, 0xff, 0x00, 0x00, 0x00, 0x01, 
  0x18, 0x00, 0x00, 0x00, 0x28, 0x00, 0x00, 0x00, 0x44, 0x00, 0x00, 0x00, 
  0x13, 0x00, 0x00, 0x00, 0x00, 0x00, 0x00, 0x09, 0x70, 0x00, 0x00, 0x00, 
  0x04, 0x00, 0x00, 0x00, 0xff, 0xff, 0xff, 0xff, 0x01, 0x00, 0x00, 0x00, 
  0x80, 0x00, 0x00, 0x00, 0x20, 0x00, 0x00, 0x00, 0xec, 0xec, 0xff, 0xff, 
  0x08, 0x00, 0x00, 0x00, 0x10, 0x00, 0x00, 0x00, 0x01, 0x00, 0x00, 0x00, 
  0xff, 0xff, 0xff, 0xff, 0xff, 0xff, 0xff, 0xff, 0x01, 0x00, 0x00, 0x00, 
  0xb8, 0xbd, 0x19, 0x3d, 0x32, 0x00, 0x00, 0x00, 0x45, 0x45, 0x47, 0x4e, 
  0x65, 0x74, 0x5f, 0x46, 0x75, 0x6e, 0x63, 0x74, 0x69, 0x6f, 0x6e, 0x61, 
  0x6c, 0x2f, 0x71, 0x75, 0x61, 0x6e, 0x74, 0x5f, 0x64, 0x65, 0x70, 0x74, 
  0x68, 0x77, 0x69, 0x73, 0x65, 0x5f, 0x63, 0x6f, 0x6e, 0x76, 0x32, 0x64, 
  0x2f, 0x64, 0x65, 0x70, 0x74, 0x68, 0x77, 0x69, 0x73, 0x65, 0x00, 0x00, 
  0x04, 0x00, 0x00, 0x00, 0x01, 0x00, 0x00, 0x00, 0x01, 0x00, 0x00, 0x00, 
  0x80, 0x00, 0x00, 0x00, 0x20, 0x00, 0x00, 0x00, 0xa2, 0xed, 0xff, 0xff, 
  0x00, 0x00, 0x00, 0x01, 0x18, 0x00, 0x00, 0x00, 0x28, 0x00, 0x00, 0x00, 
  0x48, 0x00, 0x00, 0x00, 0x12, 0x00, 0x00, 0x00, 0x00, 0x00, 0x00, 0x09, 
  0x78, 0x00, 0x00, 0x00, 0x04, 0x00, 0x00, 0x00, 0xff, 0xff, 0xff, 0xff, 
  0x10, 0x00, 0x00, 0x00, 0x80, 0x00, 0x00, 0x00, 0x10, 0x00, 0x00, 0x00, 
  0x8c, 0xed, 0xff, 0xff, 0x08, 0x00, 0x00, 0x00, 0x14, 0x00, 0x00, 0x00, 
  0x01, 0x00, 0x00, 0x00, 0x08, 0x00, 0x00, 0x00, 0x00, 0x00, 0x00, 0x00, 
  0x00, 0x00, 0x00, 0x00, 0x01, 0x00, 0x00, 0x00, 0x08, 0x68, 0x90, 0x3d, 
  0x37, 0x00, 0x00, 0x00, 0x45, 0x45, 0x47, 0x4e, 0x65, 0x74, 0x5f, 0x46, 
  0x75, 0x6e, 0x63, 0x74, 0x69, 0x6f, 0x6e, 0x61, 0x6c, 0x2f, 0x62, 0x61, 
  0x74, 0x63, 0x68, 0x5f, 0x6e, 0x6f, 0x72, 0x6d, 0x61, 0x6c, 0x69, 0x7a, 
  0x61, 0x74, 0x69, 0x6f, 0x6e, 0x2f, 0x46, 0x75, 0x73, 0x65, 0x64, 0x42, 
  0x61, 0x74, 0x63, 0x68, 0x4e, 0x6f, 0x72, 0x6d, 0x56, 0x33, 0x33, 0x00, 
  0x04, 0x00, 0x00, 0x00, 0x01, 0x00, 0x00, 0x00, 0x10, 0x00, 0x00, 0x00, 
  0x80, 0x00, 0x00, 0x00, 0x10, 0x00, 0x00, 0x00, 0x4a, 0xee, 0xff, 0xff, 
  0x00, 0x00, 0x00, 0x01, 0x18, 0x00, 0x00, 0x00, 0x28, 0x00, 0x00, 0x00, 
  0x48, 0x00, 0x00, 0x00, 0x11, 0x00, 0x00, 0x00, 0x00, 0x00, 0x00, 0x09, 
  0x78, 0x00, 0x00, 0x00, 0x04, 0x00, 0x00, 0x00, 0xff, 0xff, 0xff, 0xff, 
  0x10, 0x00, 0x00, 0x00, 0x80, 0x00, 0x00, 0x00, 0x10, 0x00, 0x00, 0x00, 
  0x34, 0xee, 0xff, 0xff, 0x08, 0x00, 0x00, 0x00, 0x14, 0x00, 0x00, 0x00, 
  0x01, 0x00, 0x00, 0x00, 0x08, 0x00, 0x00, 0x00, 0x00, 0x00, 0x00, 0x00, 
  0x00, 0x00, 0x00, 0x00, 0x01, 0x00, 0x00, 0x00, 0x92, 0x71, 0x90, 0x3d, 
  0x37, 0x00, 0x00, 0x00, 0x45, 0x45, 0x47, 0x4e, 0x65, 0x74, 0x5f, 0x46, 
  0x75, 0x6e, 0x63, 0x74, 0x69, 0x6f, 0x6e, 0x61, 0x6c, 0x2f, 0x62, 0x61, 
  0x74, 0x63, 0x68, 0x5f, 0x6e, 0x6f, 0x72, 0x6d, 0x61, 0x6c, 0x69, 0x7a, 
  0x61, 0x74, 0x69, 0x6f, 0x6e, 0x2f, 0x46, 0x75, 0x73, 0x65, 0x64, 0x42, 
  0x61, 0x74, 0x63, 0x68, 0x4e, 0x6f, 0x72, 0x6d, 0x56, 0x33, 0x32, 0x00, 
  0x04, 0x00, 0x00, 0x00, 0x01, 0x00, 0x00, 0x00, 0x10, 0x00, 0x00, 0x00, 
  0x80, 0x00, 0x00, 0x00, 0x10, 0x00, 0x00, 0x00, 0xf2, 0xee, 0xff, 0xff, 
  0x00, 0x00, 0x00, 0x01, 0x18, 0x00, 0x00, 0x00, 0x28, 0x00, 0x00, 0x00, 
  0x48, 0x00, 0x00, 0x00, 0x10, 0x00, 0x00, 0x00, 0x00, 0x00, 0x00, 0x09, 
  0x68, 0x00, 0x00, 0x00, 0x04, 0x00, 0x00, 0x00, 0xff, 0xff, 0xff, 0xff, 
  0x10, 0x00, 0x00, 0x00, 0x80, 0x00, 0x00, 0x00, 0x10, 0x00, 0x00, 0x00, 
  0xdc, 0xee, 0xff, 0xff, 0x08, 0x00, 0x00, 0x00, 0x14, 0x00, 0x00, 0x00, 
  0x01, 0x00, 0x00, 0x00, 0xff, 0xff, 0xff, 0xff, 0xff, 0xff, 0xff, 0xff, 
  0x00, 0x00, 0x00, 0x00, 0x01, 0x00, 0x00, 0x00, 0x8d, 0x76, 0xc4, 0x3c, 
  0x26, 0x00, 0x00, 0x00, 0x45, 0x45, 0x47, 0x4e, 0x65, 0x74, 0x5f, 0x46, 
  0x75, 0x6e, 0x63, 0x74, 0x69, 0x6f, 0x6e, 0x61, 0x6c, 0x2f, 0x71, 0x75, 
  0x61, 0x6e, 0x74, 0x5f, 0x63, 0x6f, 0x6e, 0x76, 0x32, 0x64, 0x2f, 0x43, 
  0x6f, 0x6e, 0x76, 0x32, 0x44, 0x31, 0x00, 0x00, 0x04, 0x00, 0x00, 0x00, 
  0x01, 0x00, 0x00, 0x00, 0x10, 0x00, 0x00, 0x00, 0x80, 0x00, 0x00, 0x00, 
  0x10, 0x00, 0x00, 0x00, 0xfa, 0xef, 0xff, 0xff, 0x00, 0x00, 0x00, 0x01, 
  0x14, 0x00, 0x00, 0x00, 0xe8, 0x00, 0x00, 0x00, 0x0f, 0x00, 0x00, 0x00, 
  0x00, 0x00, 0x00, 0x02, 0x08, 0x01, 0x00, 0x00, 0x5c, 0xef, 0xff, 0xff, 
  0x08, 0x00, 0x00, 0x00, 0x8c, 0x00, 0x00, 0x00, 0x10, 0x00, 0x00, 0x00, 
  0x00, 0x00, 0x00, 0x00, 0x00, 0x00, 0x00, 0x00, 0x00, 0x00, 0x00, 0x00, 
  0x00, 0x00, 0x00, 0x00, 0x00, 0x00, 0x00, 0x00, 0x00, 0x00, 0x00, 0x00, 
  0x00, 0x00, 0x00, 0x00, 0x00, 0x00, 0x00, 0x00, 0x00, 0x00, 0x00, 0x00, 
  0x00, 0x00, 0x00, 0x00, 0x00, 0x00, 0x00, 0x00, 0x00, 0x00, 0x00, 0x00, 
  0x00, 0x00, 0x00, 0x00, 0x00, 0x00, 0x00, 0x00, 0x00, 0x00, 0x00, 0x00, 
  0x00, 0x00, 0x00, 0x00, 0x00, 0x00, 0x00, 0x00, 0x00, 0x00, 0x00, 0x00, 
  0x00, 0x00, 0x00, 0x00, 0x00, 0x00, 0x00, 0x00, 0x00, 0x00, 0x00, 0x00, 
  0x00, 0x00, 0x00, 0x00, 0x00, 0x00, 0x00, 0x00, 0x00, 0x00, 0x00, 0x00, 
  0x00, 0x00, 0x00, 0x00, 0x00, 0x00, 0x00, 0x00, 0x00, 0x00, 0x00, 0x00, 
  0x00, 0x00, 0x00, 0x00, 0x00, 0x00, 0x00, 0x00, 0x00, 0x00, 0x00, 0x00, 
  0x00, 0x00, 0x00, 0x00, 0x00, 0x00, 0x00, 0x00, 0x00, 0x00, 0x00, 0x00, 
  0x10, 0x00, 0x00, 0x00, 0x9c, 0xac, 0x7a, 0x38, 0x74, 0x37, 0x90, 0x38, 
  0x8f, 0xd2, 0x8c, 0x38, 0x80, 0x16, 0x8a, 0x38, 0x71, 0x26, 0x81, 0x38, 
  0xea, 0x36, 0x82, 0x38, 0xfd, 0x60, 0x86, 0x38, 0x5b, 0xf0, 0x78, 0x38, 
  0xa6, 0x88, 0x92, 0x38, 0x89, 0x43, 0x84, 0x38, 0xe0, 0xe3, 0x93, 0x38, 
  0xe5, 0x50, 0x82, 0x38, 0x07, 0x2c, 0xa9, 0x38, 0x38, 0x0f, 0x71, 0x38, 
  0x76, 0xac, 0x8c, 0x38, 0x79, 0x2e, 0x9f, 0x38, 0x25, 0x00, 0x00, 0x00, 
  0x45, 0x45, 0x47, 0x4e, 0x65, 0x74, 0x5f, 0x46, 0x75, 0x6e, 0x63, 0x74, 
  0x69, 0x6f, 0x6e, 0x61, 0x6c, 0x2f, 0x71, 0x75, 0x61, 0x6e, 0x74, 0x5f, 
  0x63, 0x6f, 0x6e, 0x76, 0x32, 0x64, 0x2f, 0x43, 0x6f, 0x6e, 0x76, 0x32, 
  0x44, 0x00, 0x00, 0x00, 0x01, 0x00, 0x00, 0x00, 0x10, 0x00, 0x00, 0x00, 
  0x22, 0xf1, 0xff, 0xff, 0x00, 0x00, 0x00, 0x01, 0x14, 0x00, 0x00, 0x00, 
  0xe4, 0x00, 0x00, 0x00, 0x0e, 0x00, 0x00, 0x00, 0x00, 0x00, 0x00, 0x09, 
  0x54, 0x01, 0x00, 0x00, 0x84, 0xf0, 0xff, 0xff, 0x08, 0x00, 0x00, 0x00, 
  0x88, 0x00, 0x00, 0x00, 0x10, 0x00, 0x00, 0x00, 0x00, 0x00, 0x00, 0x00, 
  0x00, 0x00, 0x00, 0x00, 0x00, 0x00, 0x00, 0x00, 0x00, 0x00, 0x00, 0x00, 
  0x00, 0x00, 0x00, 0x00, 0x00, 0x00, 0x00, 0x00, 0x00, 0x00, 0x00, 0x00, 
  0x00, 0x00, 0x00, 0x00, 0x00, 0x00, 0x00, 0x00, 0x00, 0x00, 0x00, 0x00, 
  0x00, 0x00, 0x00, 0x00, 0x00, 0x00, 0x00, 0x00, 0x00, 0x00, 0x00, 0x00, 
  0x00, 0x00, 0x00, 0x00, 0x00, 0x00, 0x00, 0x00, 0x00, 0x00, 0x00, 0x00, 
  0x00, 0x00, 0x00, 0x00, 0x00, 0x00, 0x00, 0x00, 0x00, 0x00, 0x00, 0x00, 
  0x00, 0x00, 0x00, 0x00, 0x00, 0x00, 0x00, 0x00, 0x00, 0x00, 0x00, 0x00, 
  0x00, 0x00, 0x00, 0x00, 0x00, 0x00, 0x00, 0x00, 0x00, 0x00, 0x00, 0x00, 
  0x00, 0x00, 0x00, 0x00, 0x00, 0x00, 0x00, 0x00, 0x00, 0x00, 0x00, 0x00, 
  0x00, 0x00, 0x00, 0x00, 0x00, 0x00, 0x00, 0x00, 0x00, 0x00, 0x00, 0x00, 
  0x00, 0x00, 0x00, 0x00, 0x10, 0x00, 0x00, 0x00, 0x1f, 0x71, 0x34, 0x3a, 
  0x2d, 0x9f, 0x4f, 0x3a, 0x46, 0xbc, 0x4a, 0x3a, 0x6e, 0xcc, 0x46, 0x3a, 
  0x6c, 0xee, 0x39, 0x3a, 0xaf, 0x76, 0x3b, 0x3a, 0x76, 0x75, 0x41, 0x3a, 
  0x57, 0x31, 0x33, 0x3a, 0x2c, 0xf5, 0x52, 0x3a, 0xf6, 0x69, 0x3e, 0x3a, 
  0x0e, 0xe9, 0x54, 0x3a, 0x17, 0x9c, 0x3b, 0x3a, 0x80, 0x8c, 0x73, 0x3a, 
  0x5a, 0x85, 0x2d, 0x3a, 0x6d, 0x85, 0x4a, 0x3a, 0x83, 0x2a, 0x65, 0x3a, 
  0x75, 0x00, 0x00, 0x00, 0x45, 0x45, 0x47, 0x4e, 0x65, 0x74, 0x5f, 0x46, 
  0x75, 0x6e, 0x63, 0x74, 0x69, 0x6f, 0x6e, 0x61, 0x6c, 0x2f, 0x71, 0x75, 
  0x61, 0x6e, 0x74, 0x5f, 0x63, 0x6f, 0x6e, 0x76, 0x32, 0x64, 0x2f, 0x43, 
  0x6f, 0x6e, 0x76, 0x32, 0x44, 0x3b, 0x45, 0x45, 0x47, 0x4e, 0x65, 0x74, 
  0x5f, 0x46, 0x75, 0x6e, 0x63, 0x74, 0x69, 0x6f, 0x6e, 0x61, 0x6c, 0x2f, 
  0x71, 0x75, 0x61, 0x6e, 0x74, 0x5f, 0x63, 0x6f, 0x6e, 0x76, 0x32, 0x64, 
  0x2f, 0x4c, 0x61, 0x73, 0x74, 0x56, 0x61, 0x6c, 0x75, 0x65, 0x51, 0x75, 
  0x61, 0x6e, 0x74, 0x2f, 0x46, 0x61, 0x6b, 0x65, 0x51, 0x75, 0x61, 0x6e, 
  0x74, 0x57, 0x69, 0x74, 0x68, 0x4d, 0x69, 0x6e, 0x4d, 0x61, 0x78, 0x56, 
  0x61, 0x72, 0x73, 0x50, 0x65, 0x72, 0x43, 0x68, 0x61, 0x6e, 0x6e, 0x65, 
  0x6c, 0x00, 0x00, 0x00, 0x04, 0x00, 0x00, 0x00, 0x10, 0x00, 0x00, 0x00, 
  0x01, 0x00, 0x00, 0x00, 0x40, 0x00, 0x00, 0x00, 0x01, 0x00, 0x00, 0x00, 
  0x32, 0xf2, 0xff, 0xff, 0x00, 0x00, 0x00, 0x01, 0x18, 0x00, 0x00, 0x00, 
  0x28, 0x00, 0x00, 0x00, 0x44, 0x00, 0x00, 0x00, 0x0d, 0x00, 0x00, 0x00, 
  0x00, 0x00, 0x00, 0x09, 0x40, 0x01, 0x00, 0x00, 0x04, 0x00, 0x00, 0x00, 
  0xff, 0xff, 0xff, 0xff, 0x10, 0x00, 0x00, 0x00, 0x80, 0x00, 0x00, 0x00, 
  0x01, 0x00, 0x00, 0x00, 0x1c, 0xf2, 0xff, 0xff, 0x08, 0x00, 0x00, 0x00, 
  0x10, 0x00, 0x00, 0x00, 0x01, 0x00, 0x00, 0x00, 0x00, 0x00, 0x00, 0x00, 
  0x00, 0x00, 0x00, 0x00, 0x01, 0x00, 0x00, 0x00, 0x1a, 0xd2, 0xb1, 0x3d, 
  0x00, 0x01, 0x00, 0x00, 0x45, 0x45, 0x47, 0x4e, 0x65, 0x74, 0x5f, 0x46, 
  0x75, 0x6e, 0x63, 0x74, 0x69, 0x6f, 0x6e, 0x61, 0x6c, 0x2f, 0x71, 0x75, 
  0x61, 0x6e, 0x74, 0x69, 0x7a, 0x65, 0x5f, 0x6c, 0x61, 0x79, 0x65, 0x72, 
  0x2f, 0x41, 0x6c, 0x6c, 0x56, 0x61, 0x6c, 0x75, 0x65, 0x73, 0x51, 0x75, 
  0x61, 0x6e, 0x74, 0x69, 0x7a, 0x65, 0x2f, 0x46, 0x61, 0x6b, 0x65, 0x51, 
  0x75, 0x61, 0x6e, 0x74, 0x57, 0x69, 0x74, 0x68, 0x4d, 0x69, 0x6e, 0x4d, 
  0x61, 0x78, 0x56, 0x61, 0x72, 0x73, 0x3b, 0x45, 0x45, 0x47, 0x4e, 0x65, 
  0x74, 0x5f, 0x46, 0x75, 0x6e, 0x63, 0x74, 0x69, 0x6f, 0x6e, 0x61, 0x6c, 
  0x2f, 0x71, 0x75, 0x61, 0x6e, 0x74, 0x69, 0x7a, 0x65, 0x5f, 0x6c, 0x61, 
  0x79, 0x65, 0x72, 0x2f, 0x41, 0x6c, 0x6c, 0x56, 0x61, 0x6c, 0x75, 0x65, 
  0x73, 0x51, 0x75, 0x61, 0x6e, 0x74, 0x69, 0x7a, 0x65, 0x2f, 0x46, 0x61, 
  0x6b, 0x65, 0x51, 0x75, 0x61, 0x6e, 0x74, 0x57, 0x69, 0x74, 0x68, 0x4d, 
  0x69, 0x6e, 0x4d, 0x61, 0x78, 0x56, 0x61, 0x72, 0x73, 0x2f, 0x52, 0x65, 
  0x61, 0x64, 0x56, 0x61, 0x72, 0x69, 0x61, 0x62, 0x6c, 0x65, 0x4f, 0x70, 
  0x3b, 0x45, 0x45, 0x47, 0x4e, 0x65, 0x74, 0x5f, 0x46, 0x75, 0x6e, 0x63, 
  0x74, 0x69, 0x6f, 0x6e, 0x61, 0x6c, 0x2f, 0x71, 0x75, 0x61, 0x6e, 0x74, 
  0x69, 0x7a, 0x65, 0x5f, 0x6c, 0x61, 0x79, 0x65, 0x72, 0x2f, 0x41, 0x6c, 
  0x6c, 0x56, 0x61, 0x6c, 0x75, 0x65, 0x73, 0x51, 0x75, 0x61, 0x6e, 0x74, 
  0x69, 0x7a, 0x65, 0x2f, 0x46, 0x61, 0x6b, 0x65, 0x51, 0x75, 0x61, 0x6e, 
  0x74, 0x57, 0x69, 0x74, 0x68, 0x4d, 0x69, 0x6e, 0x4d, 0x61, 0x78, 0x56, 
  0x61, 0x72, 0x73, 0x2f, 0x52, 0x65, 0x61, 0x64, 0x56, 0x61, 0x72, 0x69, 
  0x61, 0x62, 0x6c, 0x65, 0x4f, 0x70, 0x5f, 0x31, 0x00, 0x00, 0x00, 0x00, 
  0x04, 0x00, 0x00, 0x00, 0x01, 0x00, 0x00, 0x00, 0x10, 0x00, 0x00, 0x00, 
  0x80, 0x00, 0x00, 0x00, 0x01, 0x00, 0x00, 0x00, 0x12, 0xf4, 0xff, 0xff, 
  0x00, 0x00, 0x00, 0x01, 0x14, 0x00, 0x00, 0x00, 0x30, 0x00, 0x00, 0x00, 
  0x0c, 0x00, 0x00, 0x00, 0x00, 0x00, 0x00, 0x09, 0x60, 0x00, 0x00, 0x00, 
  0x74, 0xf3, 0xff, 0xff, 0x08, 0x00, 0x00, 0x00, 0x10, 0x00, 0x00, 0x00, 
  0x01, 0x00, 0x00, 0x00, 0x80, 0xff, 0xff, 0xff, 0xff, 0xff, 0xff, 0xff, 
  0x01, 0x00, 0x00, 0x00, 0x53, 0x86, 0xe5, 0x3c, 0x36, 0x00, 0x00, 0x00, 
  0x45, 0x45, 0x47, 0x4e, 0x65, 0x74, 0x5f, 0x46, 0x75, 0x6e, 0x63, 0x74, 
  0x69, 0x6f, 0x6e, 0x61, 0x6c, 0x2f, 0x62, 0x61, 0x74, 0x63, 0x68, 0x5f, 
  0x6e, 0x6f, 0x72, 0x6d, 0x61, 0x6c, 0x69, 0x7a, 0x61, 0x74, 0x69, 0x6f, 
  0x6e, 0x2f, 0x46, 0x75, 0x73, 0x65, 0x64, 0x42, 0x61, 0x74, 0x63, 0x68, 
  0x4e, 0x6f, 0x72, 0x6d, 0x56, 0x33, 0x00, 0x00, 0x01, 0x00, 0x00, 0x00, 
  0x10, 0x00, 0x00, 0x00, 0x92, 0xf4, 0xff, 0xff, 0x00, 0x00, 0x00, 0x01, 
  0x14, 0x00, 0x00, 0x00, 0x34, 0x00, 0x00, 0x00, 0x0b, 0x00, 0x00, 0x00, 
  0x00, 0x00, 0x00, 0x09, 0x64, 0x00, 0x00, 0x00, 0xf4, 0xf3, 0xff, 0xff, 
  0x08, 0x00, 0x00, 0x00, 0x14, 0x00, 0x00, 0x00, 0x01, 0x00, 0x00, 0x00, 
  0x20, 0x00, 0x00, 0x00, 0x00, 0x00, 0x00, 0x00, 0x00, 0x00, 0x00, 0x00, 
  0x01, 0x00, 0x00, 0x00, 0x8c, 0x53, 0xfa, 0x37, 0x37, 0x00, 0x00, 0x00, 
  0x45, 0x45, 0x47, 0x4e, 0x65, 0x74, 0x5f, 0x46, 0x75, 0x6e, 0x63, 0x74, 
  0x69, 0x6f, 0x6e, 0x61, 0x6c, 0x2f, 0x62, 0x61, 0x74, 0x63, 0x68, 0x5f, 
  0x6e, 0x6f, 0x72, 0x6d, 0x61, 0x6c, 0x69, 0x7a, 0x61, 0x74, 0x69, 0x6f, 
  0x6e, 0x2f, 0x46, 0x75, 0x73, 0x65, 0x64, 0x42, 0x61, 0x74, 0x63, 0x68, 
  0x4e, 0x6f, 0x72, 0x6d, 0x56, 0x33, 0x31, 0x00, 0x01, 0x00, 0x00, 0x00, 
  0x10, 0x00, 0x00, 0x00, 0x16, 0xf5, 0xff, 0xff, 0x00, 0x00, 0x00, 0x01, 
  0x14, 0x00, 0x00, 0x00, 0xa8, 0x01, 0x00, 0x00, 0x0a, 0x00, 0x00, 0x00, 
  0x00, 0x00, 0x00, 0x09, 0x30, 0x02, 0x00, 0x00, 0x92, 0xf8, 0xff, 0xff, 
  0x03, 0x00, 0x00, 0x00, 0x08, 0x00, 0x00, 0x00, 0x08, 0x01, 0x00, 0x00, 
  0x20, 0x00, 0x00, 0x00, 0x00, 0x00, 0x00, 0x00, 0x00, 0x00, 0x00, 0x00, 
  0x00, 0x00, 0x00, 0x00, 0x00, 0x00, 0x00, 0x00, 0x00, 0x00, 0x00, 0x00, 
  0x00, 0x00, 0x00, 0x00, 0x00, 0x00, 0x00, 0x00, 0x00, 0x00, 0x00, 0x00, 
  0x00, 0x00, 0x00, 0x00, 0x00, 0x00, 0x00, 0x00, 0x00, 0x00, 0x00, 0x00, 
  0x00, 0x00, 0x00, 0x00, 0x00, 0x00, 0x00, 0x00, 0x00, 0x00, 0x00, 0x00, 
  0x00, 0x00, 0x00, 0x00, 0x00, 0x00, 0x00, 0x00, 0x00, 0x00, 0x00, 0x00, 
  0x00, 0x00, 0x00, 0x00, 0x00, 0x00, 0x00, 0x00, 0x00, 0x00, 0x00, 0x00, 
  0x00, 0x00, 0x00, 0x00, 0x00, 0x00, 0x00, 0x00, 0x00, 0x00, 0x00, 0x00, 
  0x00, 0x00, 0x00, 0x00, 0x00, 0x00, 0x00, 0x00, 0x00, 0x00, 0x00, 0x00, 
  0x00, 0x00, 0x00, 0x00, 0x00, 0x00, 0x00, 0x00, 0x00, 0x00, 0x00, 0x00, 
  0x00, 0x00, 0x00, 0x00, 0x00, 0x00, 0x00, 0x00, 0x00, 0x00, 0x00, 0x00, 
  0x00, 0x00, 0x00, 0x00, 0x00, 0x00, 0x00, 0x00, 0x00, 0x00, 0x00, 0x00, 
  0x00, 0x00, 0x00, 0x00, 0x00, 0x00, 0x00, 0x00, 0x00, 0x00, 0x00, 0x00, 
  0x00, 0x00, 0x00, 0x00, 0x00, 0x00, 0x00, 0x00, 0x00, 0x00, 0x00, 0x00, 
  0x00, 0x00, 0x00, 0x00, 0x00, 0x00, 0x00, 0x00, 0x00, 0x00, 0x00, 0x00, 
  0x00, 0x00, 0x00, 0x00, 0x00, 0x00, 0x00, 0x00, 0x00, 0x00, 0x00, 0x00, 
  0x00, 0x00, 0x00, 0x00, 0x00, 0x00, 0x00, 0x00, 0x00, 0x00, 0x00, 0x00, 
  0x00, 0x00, 0x00, 0x00, 0x00, 0x00, 0x00, 0x00, 0x00, 0x00, 0x00, 0x00, 
  0x00, 0x00, 0x00, 0x00, 0x00, 0x00, 0x00, 0x00, 0x00, 0x00, 0x00, 0x00, 
  0x00, 0x00, 0x00, 0x00, 0x00, 0x00, 0x00, 0x00, 0x00, 0x00, 0x00, 0x00, 
  0x00, 0x00, 0x00, 0x00, 0x00, 0x00, 0x00, 0x00, 0x00, 0x00, 0x00, 0x00, 
  0x00, 0x00, 0x00, 0x00, 0x00, 0x00, 0x00, 0x00, 0x20, 0x00, 0x00, 0x00, 
  0x2b, 0x95, 0xf1, 0x3a, 0xf8, 0xdf, 0xd0, 0x3a, 0xf3, 0x59, 0x81, 0x3a, 
  0x0d, 0x49, 0x80, 0x3a, 0x96, 0x2d, 0x98, 0x3a, 0x44, 0x45, 0xb3, 0x3a, 
  0xc5, 0xc3, 0x8c, 0x3a, 0x54, 0xcc, 0x8b, 0x3a, 0x51, 0x4c, 0xa9, 0x3a, 
  0xda, 0xf0, 0xcb, 0x3a, 0x51, 0x4c, 0xa9, 0x3a, 0xa3, 0xf4, 0x98, 0x3a, 
  0x42, 0x1a, 0xad, 0x3a, 0x7b, 0x60, 0x92, 0x3a, 0xf4, 0x1f, 0xc0, 0x3a, 
  0x6c, 0xd9, 0xb9, 0x3a, 0x03, 0x52, 0xbc, 0x3a, 0xc2, 0xe3, 0x9d, 0x3a, 
  0x60, 0x7e, 0xa5, 0x3a, 0x25, 0x56, 0xae, 0x3a, 0xe5, 0xed, 0xc3, 0x3a, 
  0xea, 0x77, 0xa4, 0x3a, 0x70, 0xb0, 0xa1, 0x3a, 0x9e, 0x12, 0xc2, 0x3a, 
  0xd5, 0xbb, 0xc7, 0x3a, 0x7b, 0x60, 0x92, 0x3a, 0x49, 0x33, 0xab, 0x3a, 
  0x12, 0x0c, 0xab, 0x3a, 0x87, 0xfb, 0x9b, 0x3a, 0x08, 0x67, 0xa9, 0x3a, 
  0x39, 0x01, 0xaf, 0x3a, 0x1b, 0xb1, 0xac, 0x3a, 0x8c, 0x00, 0x00, 0x00, 
  0x45, 0x45, 0x47, 0x4e, 0x65, 0x74, 0x5f, 0x46, 0x75, 0x6e, 0x63, 0x74, 
  0x69, 0x6f, 0x6e, 0x61, 0x6c, 0x2f, 0x71, 0x75, 0x61, 0x6e, 0x74, 0x5f, 
  0x64, 0x65, 0x70, 0x74, 0x68, 0x77, 0x69, 0x73, 0x65, 0x5f, 0x63, 0x6f, 
  0x6e, 0x76, 0x32, 0x64, 0x2f, 0x64, 0x65, 0x70, 0x74, 0x68, 0x77, 0x69, 
  0x73, 0x65, 0x3b, 0x45, 0x45, 0x47, 0x4e, 0x65, 0x74, 0x5f, 0x46, 0x75, 
  0x6e, 0x63, 0x74, 0x69, 0x6f, 0x6e, 0x61, 0x6c, 0x2f, 0x71, 0x75, 0x61, 
  0x6e, 0x74, 0x5f, 0x64, 0x65, 0x70, 0x74, 0x68, 0x77, 0x69, 0x73, 0x65, 
  0x5f, 0x63, 0x6f, 0x6e, 0x76, 0x32, 0x64, 0x2f, 0x4c, 0x61, 0x73, 0x74, 
  0x56, 0x61, 0x6c, 0x75, 0x65, 0x51, 0x75, 0x61, 0x6e, 0x74, 0x2f, 0x46, 
  0x61, 0x6b, 0x65, 0x51, 0x75, 0x61, 0x6e, 0x74, 0x57, 0x69, 0x74, 0x68, 
  0x4d, 0x69, 0x6e, 0x4d, 0x61, 0x78, 0x56, 0x61, 0x72, 0x73, 0x50, 0x65, 
  0x72, 0x43, 0x68, 0x61, 0x6e, 0x6e, 0x65, 0x6c, 0x00, 0x00, 0x00, 0x00, 
  0x04, 0x00, 0x00, 0x00, 0x01, 0x00, 0x00, 0x00, 0x10, 0x00, 0x00, 0x00, 
  0x01, 0x00, 0x00, 0x00, 0x20, 0x00, 0x00, 0x00, 0x72, 0xf7, 0xff, 0xff, 
  0x00, 0x00, 0x00, 0x01, 0x14, 0x00, 0x00, 0x00, 0xa8, 0x01, 0x00, 0x00, 
  0x08, 0x00, 0x00, 0x00, 0x00, 0x00, 0x00, 0x02, 0xe0, 0x01, 0x00, 0x00, 
  0xd4, 0xf6, 0xff, 0xff, 0x08, 0x00, 0x00, 0x00, 0x0c, 0x01, 0x00, 0x00, 
  0x20, 0x00, 0x00, 0x00, 0x00, 0x00, 0x00, 0x00, 0x00, 0x00, 0x00, 0x00, 
  0x00, 0x00, 0x00, 0x00, 0x00, 0x00, 0x00, 0x00, 0x00, 0x00, 0x00, 0x00, 
  0x00, 0x00, 0x00, 0x00, 0x00, 0x00, 0x00, 0x00, 0x00, 0x00, 0x00, 0x00, 
  0x00, 0x00, 0x00, 0x00, 0x00, 0x00, 0x00, 0x00, 0x00, 0x00, 0x00, 0x00, 
  0x00, 0x00, 0x00, 0x00, 0x00, 0x00, 0x00, 0x00, 0x00, 0x00, 0x00, 0x00, 
  0x00, 0x00, 0x00, 0x00, 0x00, 0x00, 0x00, 0x00, 0x00, 0x00, 0x00, 0x00, 
  0x00, 0x00, 0x00, 0x00, 0x00, 0x00, 0x00, 0x00, 0x00, 0x00, 0x00, 0x00, 
  0x00, 0x00, 0x00, 0x00, 0x00, 0x00, 0x00, 0x00, 0x00, 0x00, 0x00, 0x00, 
  0x00, 0x00, 0x00, 0x00, 0x00, 0x00, 0x00, 0x00, 0x00, 0x00, 0x00, 0x00, 
  0x00, 0x00, 0x00, 0x00, 0x00, 0x00, 0x00, 0x00, 0x00, 0x00, 0x00, 0x00, 
  0x00, 0x00, 0x00, 0x00, 0x00, 0x00, 0x00, 0x00, 0x00, 0x00, 0x00, 0x00, 
  0x00, 0x00, 0x00, 0x00, 0x00, 0x00, 0x00, 0x00, 0x00, 0x00, 0x00, 0x00, 
  0x00, 0x00, 0x00, 0x00, 0x00, 0x00, 0x00, 0x00, 0x00, 0x00, 0x00, 0x00, 
  0x00, 0x00, 0x00, 0x00, 0x00, 0x00, 0x00, 0x00, 0x00, 0x00, 0x00, 0x00, 
  0x00, 0x00, 0x00, 0x00, 0x00, 0x00, 0x00, 0x00, 0x00, 0x00, 0x00, 0x00, 
  0x00, 0x00, 0x00, 0x00, 0x00, 0x00, 0x00, 0x00, 0x00, 0x00, 0x00, 0x00, 
  0x00, 0x00, 0x00, 0x00, 0x00, 0x00, 0x00, 0x00, 0x00, 0x00, 0x00, 0x00, 
  0x00, 0x00, 0x00, 0x00, 0x00, 0x00, 0x00, 0x00, 0x00, 0x00, 0x00, 0x00, 
  0x00, 0x00, 0x00, 0x00, 0x00, 0x00, 0x00, 0x00, 0x00, 0x00, 0x00, 0x00, 
  0x00, 0x00, 0x00, 0x00, 0x00, 0x00, 0x00, 0x00, 0x00, 0x00, 0x00, 0x00, 
  0x00, 0x00, 0x00, 0x00, 0x00, 0x00, 0x00, 0x00, 0x00, 0x00, 0x00, 0x00, 
  0x00, 0x00, 0x00, 0x00, 0x00, 0x00, 0x00, 0x00, 0x00, 0x00, 0x00, 0x00, 
  0x20, 0x00, 0x00, 0x00, 0x52, 0x22, 0xb7, 0x37, 0xe4, 0x0e, 0xfc, 0x37, 
  0x94, 0x17, 0xcc, 0x37, 0xaf, 0x46, 0xfb, 0x37, 0x5e, 0x80, 0x56, 0x37, 
  0x19, 0x63, 0xc3, 0x37, 0xb4, 0xe4, 0x8b, 0x37, 0x98, 0xc5, 0x99, 0x37, 
  0x99, 0x70, 0xa8, 0x37, 0x40, 0x60, 0x77, 0x37, 0x0b, 0xc3, 0x4d, 0x37, 
  0x1f, 0x41, 0x06, 0x38, 0x98, 0x39, 0xdd, 0x37, 0xdf, 0x70, 0x27, 0x37, 
  0x6f, 0x2e, 0xea, 0x37, 0x5f, 0xf2, 0x8f, 0x37, 0xeb, 0x20, 0xb3, 0x37, 
  0x69, 0xf1, 0x6e, 0x37, 0x9c, 0x9e, 0xe5, 0x37, 0xea, 0xce, 0x72, 0x37, 
  0xf0, 0xd8, 0xca, 0x37, 0xac, 0xe2, 0x23, 0x37, 0x08, 0xec, 0xa9, 0x37, 
  0xc7, 0x79, 0xe1, 0x37, 0xb9, 0x34, 0xe9, 0x37, 0x5c, 0x2d, 0xc4, 0x37, 
  0x2e, 0x06, 0x9e, 0x37, 0x5a, 0xbe, 0xdb, 0x37, 0x3e, 0x50, 0x74, 0x37, 
  0x6b, 0x94, 0x5a, 0x37, 0xc6, 0xa2, 0x9a, 0x37, 0x96, 0x30, 0xc9, 0x37, 
  0x3e, 0x00, 0x00, 0x00, 0x45, 0x45, 0x47, 0x4e, 0x65, 0x74, 0x5f, 0x46, 
  0x75, 0x6e, 0x63, 0x74, 0x69, 0x6f, 0x6e, 0x61, 0x6c, 0x2f, 0x73, 0x65, 
  0x70, 0x61, 0x72, 0x61, 0x62, 0x6c, 0x65, 0x5f, 0x63, 0x6f, 0x6e, 0x76, 
  0x32, 0x64, 0x2f, 0x73, 0x65, 0x70, 0x61, 0x72, 0x61, 0x62, 0x6c, 0x65, 
  0x5f, 0x63, 0x6f, 0x6e, 0x76, 0x32, 0x64, 0x2f, 0x64, 0x65, 0x70, 0x74, 
  0x68, 0x77, 0x69, 0x73, 0x65, 0x32, 0x00, 0x00, 0x01, 0x00, 0x00, 0x00, 
  0x20, 0x00, 0x00, 0x00, 0x72, 0xf9, 0xff, 0xff, 0x00, 0x00, 0x00, 0x01, 
  0x14, 0x00, 0x00, 0x00, 0xa8, 0x01, 0x00, 0x00, 0x08, 0x00, 0x00, 0x00, 
  0x00, 0x00, 0x00, 0x02, 0xe0, 0x01, 0x00, 0x00, 0xd4, 0xf8, 0xff, 0xff, 
  0x08, 0x00, 0x00, 0x00, 0x0c, 0x01, 0x00, 0x00, 0x20, 0x00, 0x00, 0x00, 
  0x00, 0x00, 0x00, 0x00, 0x00, 0x00, 0x00, 0x00, 0x00, 0x00, 0x00, 0x00, 
  0x00, 0x00, 0x00, 0x00, 0x00, 0x00, 0x00, 0x00, 0x00, 0x00, 0x00, 0x00, 
  0x00, 0x00, 0x00, 0x00, 0x00, 0x00, 0x00, 0x00, 0x00, 0x00, 0x00, 0x00, 
  0x00, 0x00, 0x00, 0x00, 0x00, 0x00, 0x00, 0x00, 0x00, 0x00, 0x00, 0x00, 
  0x00, 0x00, 0x00, 0x00, 0x00, 0x00, 0x00, 0x00, 0x00, 0x00, 0x00, 0x00, 
  0x00, 0x00, 0x00, 0x00, 0x00, 0x00, 0x00, 0x00, 0x00, 0x00, 0x00, 0x00, 
  0x00, 0x00, 0x00, 0x00, 0x00, 0x00, 0x00, 0x00, 0x00, 0x00, 0x00, 0x00, 
  0x00, 0x00, 0x00, 0x00, 0x00, 0x00, 0x00, 0x00, 0x00, 0x00, 0x00, 0x00, 
  0x00, 0x00, 0x00, 0x00, 0x00, 0x00, 0x00, 0x00, 0x00, 0x00, 0x00, 0x00, 
  0x00, 0x00, 0x00, 0x00, 0x00, 0x00, 0x00, 0x00, 0x00, 0x00, 0x00, 0x00, 
  0x00, 0x00, 0x00, 0x00, 0x00, 0x00, 0x00, 0x00, 0x00, 0x00, 0x00, 0x00, 
  0x00, 0x00, 0x00, 0x00, 0x00, 0x00, 0x00, 0x00, 0x00, 0x00, 0x00, 0x00, 
  0x00, 0x00, 0x00, 0x00, 0x00, 0x00, 0x00, 0x00, 0x00, 0x00, 0x00, 0x00, 
  0x00, 0x00, 0x00, 0x00, 0x00, 0x00, 0x00, 0x00, 0x00, 0x00, 0x00, 0x00, 
  0x00, 0x00, 0x00, 0x00, 0x00, 0x00, 0x00, 0x00, 0x00, 0x00, 0x00, 0x00, 
  0x00, 0x00, 0x00, 0x00, 0x00, 0x00, 0x00, 0x00, 0x00, 0x00, 0x00, 0x00, 
  0x00, 0x00, 0x00, 0x00, 0x00, 0x00, 0x00, 0x00, 0x00, 0x00, 0x00, 0x00, 
  0x00, 0x00, 0x00, 0x00, 0x00, 0x00, 0x00, 0x00, 0x00, 0x00, 0x00, 0x00, 
  0x00, 0x00, 0x00, 0x00, 0x00, 0x00, 0x00, 0x00, 0x00, 0x00, 0x00, 0x00, 
  0x00, 0x00, 0x00, 0x00, 0x00, 0x00, 0x00, 0x00, 0x00, 0x00, 0x00, 0x00, 
  0x00, 0x00, 0x00, 0x00, 0x00, 0x00, 0x00, 0x00, 0x00, 0x00, 0x00, 0x00, 
  0x00, 0x00, 0x00, 0x00, 0x00, 0x00, 0x00, 0x00, 0x20, 0x00, 0x00, 0x00, 
  0x14, 0x46, 0x08, 0x39, 0xba, 0xa5, 0xeb, 0x38, 0x53, 0xee, 0x91, 0x38, 
  0x72, 0xba, 0x90, 0x38, 0xf7, 0xae, 0xab, 0x38, 0xa0, 0x3f, 0xca, 0x38, 
  0xa5, 0xce, 0x9e, 0x38, 0x7d, 0xb7, 0x9d, 0x38, 0x74, 0xff, 0xbe, 0x38, 
  0xb6, 0x14, 0xe6, 0x38, 0x74, 0xff, 0xbe, 0x38, 0x88, 0x8f, 0xac, 0x38, 
  0x3a, 0x4a, 0xc3, 0x38, 0x82, 0x23, 0xa5, 0x38, 0x18, 0xc0, 0xd8, 0x38, 
  0xa6, 0xab, 0xd1, 0x38, 0x52, 0x75, 0xd4, 0x38, 0x8d, 0x20, 0xb2, 0x38, 
  0xad, 0xb4, 0xba, 0x38, 0x9b, 0xae, 0xc4, 0x38, 0xdf, 0x0a, 0xdd, 0x38, 
  0x93, 0x8c, 0xb9, 0x38, 0xe7, 0x69, 0xb6, 0x38, 0xad, 0xf2, 0xda, 0x38, 
  0xa5, 0x55, 0xe1, 0x38, 0x82, 0x23, 0xa5, 0x38, 0xd6, 0x24, 0xc1, 0x38, 
  0x99, 0xf8, 0xc0, 0x38, 0xbe, 0xf9, 0xaf, 0x38, 0x97, 0x1d, 0xbf, 0x38, 
  0x9c, 0x6f, 0xc5, 0x38, 0x99, 0xd3, 0xc2, 0x38, 0x3d, 0x00, 0x00, 0x00, 
  0x45, 0x45, 0x47, 0x4e, 0x65, 0x74, 0x5f, 0x46, 0x75, 0x6e, 0x63, 0x74, 
  0x69, 0x6f, 0x6e, 0x61, 0x6c, 0x2f, 0x73, 0x65, 0x70, 0x61, 0x72, 0x61, 
  0x62, 0x6c, 0x65, 0x5f, 0x63, 0x6f, 0x6e, 0x76, 0x32, 0x64, 0x2f, 0x73, 
  0x65, 0x70, 0x61, 0x72, 0x61, 0x62, 0x6c, 0x65, 0x5f, 0x63, 0x6f, 0x6e, 
  0x76, 0x32, 0x64, 0x2f, 0x64, 0x65, 0x70, 0x74, 0x68, 0x77, 0x69, 0x73, 
  0x65, 0x00, 0x00, 0x00, 0x01, 0x00, 0x00, 0x00, 0x20, 0x00, 0x00, 0x00, 
  0x72, 0xfb, 0xff, 0xff, 0x00, 0x00, 0x00, 0x01, 0x14, 0x00, 0x00, 0x00, 
  0x34, 0x00, 0x00, 0x00, 0x07, 0x00, 0x00, 0x00, 0x00, 0x00, 0x00, 0x09, 
  0x68, 0x00, 0x00, 0x00, 0xd4, 0xfa, 0xff, 0xff, 0x08, 0x00, 0x00, 0x00, 
  0x14, 0x00, 0x00, 0x00, 0x01, 0x00, 0x00, 0x00, 0x80, 0xff, 0xff, 0xff, 
  0xff, 0xff, 0xff, 0xff, 0x00, 0x00, 0x00, 0x00, 0x01, 0x00, 0x00, 0x00, 
  0xb8, 0xf1, 0xb3, 0x3c, 0x38, 0x00, 0x00, 0x00, 0x45, 0x45, 0x47, 0x4e, 
  0x65, 0x74, 0x5f, 0x46, 0x75, 0x6e, 0x63, 0x74, 0x69, 0x6f, 0x6e, 0x61, 
  0x6c, 0x2f, 0x62, 0x61, 0x74, 0x63, 0x68, 0x5f, 0x6e, 0x6f, 0x72, 0x6d, 
  0x61, 0x6c, 0x69, 0x7a, 0x61, 0x74, 0x69, 0x6f, 0x6e, 0x5f, 0x31, 0x2f, 
  0x46, 0x75, 0x73, 0x65, 0x64, 0x42, 0x61, 0x74, 0x63, 0x68, 0x4e, 0x6f, 
  0x72, 0x6d, 0x56, 0x33, 0x00, 0x00, 0x00, 0x00, 0x01, 0x00, 0x00, 0x00, 
  0x20, 0x00, 0x00, 0x00, 0xfa, 0xfb, 0xff, 0xff, 0x00, 0x00, 0x00, 0x01, 
  0x14, 0x00, 0x00, 0x00, 0x34, 0x00, 0x00, 0x00, 0x06, 0x00, 0x00, 0x00, 
  0x00, 0x00, 0x00, 0x09, 0x68, 0x00, 0x00, 0x00, 0x5c, 0xfb, 0xff, 0xff, 
  0x08, 0x00, 0x00, 0x00, 0x14, 0x00, 0x00, 0x00, 0x01, 0x00, 0x00, 0x00, 
  0x7f, 0x00, 0x00, 0x00, 0x00, 0x00, 0x00, 0x00, 0x00, 0x00, 0x00, 0x00, 
  0x01, 0x00, 0x00, 0x00, 0x3e, 0x64, 0x25, 0x3a, 0x39, 0x00, 0x00, 0x00, 
  0x45, 0x45, 0x47, 0x4e, 0x65, 0x74, 0x5f, 0x46, 0x75, 0x6e, 0x63, 0x74, 
  0x69, 0x6f, 0x6e, 0x61, 0x6c, 0x2f, 0x62, 0x61, 0x74, 0x63, 0x68, 0x5f, 
  0x6e, 0x6f, 0x72, 0x6d, 0x61, 0x6c, 0x69, 0x7a, 0x61, 0x74, 0x69, 0x6f, 
  0x6e, 0x5f, 0x31, 0x2f, 0x46, 0x75, 0x73, 0x65, 0x64, 0x42, 0x61, 0x74, 
  0x63, 0x68, 0x4e, 0x6f, 0x72, 0x6d, 0x56, 0x33, 0x31, 0x00, 0x00, 0x00, 
  0x01, 0x00, 0x00, 0x00, 0x20, 0x00, 0x00, 0x00, 0x82, 0xfc, 0xff, 0xff, 
  0x00, 0x00, 0x00, 0x01, 0x28, 0x00, 0x00, 0x00, 0xbc, 0x01, 0x00, 0x00, 
  0x05, 0x00, 0x00, 0x00, 0x00, 0x00, 0x00, 0x09, 0xf4, 0x01, 0x00, 0x00, 
  0x00, 0x00, 0x12, 0x00, 0x10, 0x00, 0x00, 0x00, 0x00, 0x00, 0x0c, 0x00, 
  0x08, 0x00, 0x00, 0x00, 0x00, 0x00, 0x04, 0x00, 0x12, 0x00, 0x00, 0x00, 
  0x03, 0x00, 0x00, 0x00, 0x08, 0x00, 0x00, 0x00, 0x08, 0x01, 0x00, 0x00, 
  0x20, 0x00, 0x00, 0x00, 0x00, 0x00, 0x00, 0x00, 0x00, 0x00, 0x00, 0x00, 
  0x00, 0x00, 0x00, 0x00, 0x00, 0x00, 0x00, 0x00, 0x00, 0x00, 0x00, 0x00, 
  0x00, 0x00, 0x00, 0x00, 0x00, 0x00, 0x00, 0x00, 0x00, 0x00, 0x00, 0x00, 
  0x00, 0x00, 0x00, 0x00, 0x00, 0x00, 0x00, 0x00, 0x00, 0x00, 0x00, 0x00, 
  0x00, 0x00, 0x00, 0x00, 0x00, 0x00, 0x00, 0x00, 0x00, 0x00, 0x00, 0x00, 
  0x00, 0x00, 0x00, 0x00, 0x00, 0x00, 0x00, 0x00, 0x00, 0x00, 0x00, 0x00, 
  0x00, 0x00, 0x00, 0x00, 0x00, 0x00, 0x00, 0x00, 0x00, 0x00, 0x00, 0x00, 
  0x00, 0x00, 0x00, 0x00, 0x00, 0x00, 0x00, 0x00, 0x00, 0x00, 0x00, 0x00, 
  0x00, 0x00, 0x00, 0x00, 0x00, 0x00, 0x00, 0x00, 0x00, 0x00, 0x00, 0x00, 
  0x00, 0x00, 0x00, 0x00, 0x00, 0x00, 0x00, 0x00, 0x00, 0x00, 0x00, 0x00, 
  0x00, 0x00, 0x00, 0x00, 0x00, 0x00, 0x00, 0x00, 0x00, 0x00, 0x00, 0x00, 
  0x00, 0x00, 0x00, 0x00, 0x00, 0x00, 0x00, 0x00, 0x00, 0x00, 0x00, 0x00, 
  0x00, 0x00, 0x00, 0x00, 0x00, 0x00, 0x00, 0x00, 0x00, 0x00, 0x00, 0x00, 
  0x00, 0x00, 0x00, 0x00, 0x00, 0x00, 0x00, 0x00, 0x00, 0x00, 0x00, 0x00, 
  0x00, 0x00, 0x00, 0x00, 0x00, 0x00, 0x00, 0x00, 0x00, 0x00, 0x00, 0x00, 
  0x00, 0x00, 0x00, 0x00, 0x00, 0x00, 0x00, 0x00, 0x00, 0x00, 0x00, 0x00, 
  0x00, 0x00, 0x00, 0x00, 0x00, 0x00, 0x00, 0x00, 0x00, 0x00, 0x00, 0x00, 
  0x00, 0x00, 0x00, 0x00, 0x00, 0x00, 0x00, 0x00, 0x00, 0x00, 0x00, 0x00, 
  0x00, 0x00, 0x00, 0x00, 0x00, 0x00, 0x00, 0x00, 0x00, 0x00, 0x00, 0x00, 
  0x00, 0x00, 0x00, 0x00, 0x00, 0x00, 0x00, 0x00, 0x00, 0x00, 0x00, 0x00, 
  0x00, 0x00, 0x00, 0x00, 0x00, 0x00, 0x00, 0x00, 0x00, 0x00, 0x00, 0x00, 
  0x00, 0x00, 0x00, 0x00, 0x00, 0x00, 0x00, 0x00, 0x20, 0x00, 0x00, 0x00, 
  0x2a, 0xea, 0x65, 0x3a, 0xfa, 0x38, 0x9e, 0x3a, 0xfa, 0x1c, 0x80, 0x3a, 
  0x4d, 0xbb, 0x9d, 0x3a, 0xb9, 0xa5, 0x06, 0x3a, 0x38, 0x4c, 0x75, 0x3a, 
  0xdf, 0xa0, 0x2f, 0x3a, 0x55, 0x0d, 0x41, 0x3a, 0x88, 0x77, 0x53, 0x3a, 
  0x90, 0x48, 0x1b, 0x3a, 0x4e, 0x29, 0x01, 0x3a, 0x89, 0x8c, 0xa8, 0x3a, 
  0x2d, 0xde, 0x8a, 0x3a, 0x7b, 0x36, 0xd2, 0x39, 0x3b, 0x00, 0x93, 0x3a, 
  0x9b, 0xb7, 0x34, 0x3a, 0xd5, 0xe2, 0x60, 0x3a, 0x69, 0xfd, 0x15, 0x3a, 
  0x29, 0x23, 0x90, 0x3a, 0x8b, 0x6a, 0x18, 0x3a, 0xea, 0xa9, 0x7e, 0x3a, 
  0xc6, 0xbf, 0xcd, 0x39, 0xe3, 0x53, 0x55, 0x3a, 0x41, 0x89, 0x8d, 0x3a, 
  0x7b, 0x63, 0x92, 0x3a, 0x25, 0x4a, 0x76, 0x3a, 0xfe, 0x63, 0x46, 0x3a, 
  0x1e, 0xf0, 0x89, 0x3a, 0x6c, 0x5c, 0x19, 0x3a, 0x19, 0x35, 0x09, 0x3a, 
  0x03, 0x23, 0x42, 0x3a, 0x2a, 0x95, 0x7c, 0x3a, 0x3e, 0x00, 0x00, 0x00, 
  0x45, 0x45, 0x47, 0x4e, 0x65, 0x74, 0x5f, 0x46, 0x75, 0x6e, 0x63, 0x74, 
  0x69, 0x6f, 0x6e, 0x61, 0x6c, 0x2f, 0x73, 0x65, 0x70, 0x61, 0x72, 0x61, 
  0x62, 0x6c, 0x65, 0x5f, 0x63, 0x6f, 0x6e, 0x76, 0x32, 0x64, 0x2f, 0x73, 
  0x65, 0x70, 0x61, 0x72, 0x61, 0x62, 0x6c, 0x65, 0x5f, 0x63, 0x6f, 0x6e, 
  0x76, 0x32, 0x64, 0x2f, 0x64, 0x65, 0x70, 0x74, 0x68, 0x77, 0x69, 0x73, 
  0x65, 0x31, 0x00, 0x00, 0x04, 0x00, 0x00, 0x00, 0x01, 0x00, 0x00, 0x00, 
  0x01, 0x00, 0x00, 0x00, 0x10, 0x00, 0x00, 0x00, 0x20, 0x00, 0x00, 0x00, 
  0xa2, 0xfe, 0xff, 0xff, 0x00, 0x00, 0x00, 0x01, 0x14, 0x00, 0x00, 0x00, 
  0x58, 0x00, 0x00, 0x00, 0x04, 0x00, 0x00, 0x00, 0x00, 0x00, 0x00, 0x09, 
  0x84, 0x00, 0x00, 0x00, 0x04, 0xfe, 0xff, 0xff, 0x08, 0x00, 0x00, 0x00, 
  0x2c, 0x00, 0x00, 0x00, 0x04, 0x00, 0x00, 0x00, 0x00, 0x00, 0x00, 0x00, 
  0x00, 0x00, 0x00, 0x00, 0x00, 0x00, 0x00, 0x00, 0x00, 0x00, 0x00, 0x00, 
  0x00, 0x00, 0x00, 0x00, 0x00, 0x00, 0x00, 0x00, 0x00, 0x00, 0x00, 0x00, 
  0x00, 0x00, 0x00, 0x00, 0x00, 0x00, 0x00, 0x00, 0x04, 0x00, 0x00, 0x00, 
  0x8f, 0xaa, 0x51, 0x3c, 0x87, 0x65, 0x57, 0x3c, 0x22, 0xd9, 0x8b, 0x3c, 
  0xd3, 0x13, 0x78, 0x3c, 0x33, 0x00, 0x00, 0x00, 0x45, 0x45, 0x47, 0x4e, 
  0x65, 0x74, 0x5f, 0x46, 0x75, 0x6e, 0x63, 0x74, 0x69, 0x6f, 0x6e, 0x61, 
  0x6c, 0x2f, 0x73, 0x65, 0x70, 0x61, 0x72, 0x61, 0x62, 0x6c, 0x65, 0x5f, 
  0x63, 0x6f, 0x6e, 0x76, 0x32, 0x64, 0x2f, 0x73, 0x65, 0x70, 0x61, 0x72, 
  0x61, 0x62, 0x6c, 0x65, 0x5f, 0x63, 0x6f, 0x6e, 0x76, 0x32, 0x64, 0x00, 
  0x04, 0x00, 0x00, 0x00, 0x04, 0x00, 0x00, 0x00, 0x01, 0x00, 0x00, 0x00, 
  0x01, 0x00, 0x00, 0x00, 0x20, 0x00, 0x00, 0x00, 0x52, 0xff, 0xff, 0xff, 
  0x00, 0x00, 0x00, 0x01, 0x14, 0x00, 0x00, 0x00, 0x58, 0x00, 0x00, 0x00, 
  0x03, 0x00, 0x00, 0x00, 0x00, 0x00, 0x00, 0x02, 0x8c, 0x00, 0x00, 0x00, 
  0xb4, 0xfe, 0xff, 0xff, 0x08, 0x00, 0x00, 0x00, 0x2c, 0x00, 0x00, 0x00, 
  0x04, 0x00, 0x00, 0x00, 0x00, 0x00, 0x00, 0x00, 0x00, 0x00, 0x00, 0x00, 
  0x00, 0x00, 0x00, 0x00, 0x00, 0x00, 0x00, 0x00, 0x00, 0x00, 0x00, 0x00, 
  0x00, 0x00, 0x00, 0x00, 0x00, 0x00, 0x00, 0x00, 0x00, 0x00, 0x00, 0x00, 
  0x00, 0x00, 0x00, 0x00, 0x04, 0x00, 0x00, 0x00, 0x88, 0x43, 0x96, 0x39, 
  0xe1, 0x5e, 0x9a, 0x39, 0xfa, 0x73, 0xc8, 0x39, 0xd8, 0xca, 0xb1, 0x39, 
  0x38, 0x00, 0x00, 0x00, 0x45, 0x45, 0x47, 0x4e, 0x65, 0x74, 0x5f, 0x46, 
  0x75, 0x6e, 0x63, 0x74, 0x69, 0x6f, 0x6e, 0x61, 0x6c, 0x2f, 0x62, 0x61, 
  0x74, 0x63, 0x68, 0x5f, 0x6e, 0x6f, 0x72, 0x6d, 0x61, 0x6c, 0x69, 0x7a, 
  0x61, 0x74, 0x69, 0x6f, 0x6e, 0x5f, 0x32, 0x2f, 0x46, 0x75, 0x73, 0x65, 
  0x64, 0x42, 0x61, 0x74, 0x63, 0x68, 0x4e, 0x6f, 0x72, 0x6d, 0x56, 0x33, 
  0x00, 0x00, 0x00, 0x00, 0x01, 0x00, 0x00, 0x00, 0x04, 0x00, 0x00, 0x00, 
  0x00, 0x00, 0x16, 0x00, 0x1c, 0x00, 0x18, 0x00, 0x17, 0x00, 0x10, 0x00, 
  0x0c, 0x00, 0x08, 0x00, 0x00, 0x00, 0x00, 0x00, 0x00, 0x00, 0x07, 0x00, 
  0x16, 0x00, 0x00, 0x00, 0x00, 0x00, 0x00, 0x01, 0x18, 0x00, 0x00, 0x00, 
  0x18, 0x00, 0x00, 0x00, 0x02, 0x00, 0x00, 0x00, 0x00, 0x00, 0x00, 0x02, 
  0x38, 0x00, 0x00, 0x00, 0x04, 0x00, 0x04, 0x00, 0x04, 0x00, 0x00, 0x00, 
  0x25, 0x00, 0x00, 0x00, 0x45, 0x45, 0x47, 0x4e, 0x65, 0x74, 0x5f, 0x46, 
  0x75, 0x6e, 0x63, 0x74, 0x69, 0x6f, 0x6e, 0x61, 0x6c, 0x2f, 0x71, 0x75, 
  0x61, 0x6e, 0x74, 0x5f, 0x66, 0x6c, 0x61, 0x74, 0x74, 0x65, 0x6e, 0x2f, 
  0x43, 0x6f, 0x6e, 0x73, 0x74, 0x00, 0x00, 0x00, 0x01, 0x00, 0x00, 0x00, 
  0x02, 0x00, 0x00, 0x00, 0x00, 0x00, 0x16, 0x00, 0x20, 0x00, 0x1c, 0x00, 
  0x1b, 0x00, 0x14, 0x00, 0x10, 0x00, 0x0c, 0x00, 0x00, 0x00, 0x00, 0x00, 
  0x08, 0x00, 0x07, 0x00, 0x16, 0x00, 0x00, 0x00, 0x00, 0x00, 0x00, 0x01, 
  0x18, 0x00, 0x00, 0x00, 0x34, 0x00, 0x00, 0x00, 0x50, 0x00, 0x00, 0x00, 
  0x01, 0x00, 0x00, 0x00, 0x00, 0x00, 0x00, 0x03, 0x64, 0x00, 0x00, 0x00, 
  0x04, 0x00, 0x00, 0x00, 0xff, 0xff, 0xff, 0xff, 0x10, 0x00, 0x00, 0x00, 
  0x80, 0x00, 0x00, 0x00, 0x01, 0x00, 0x00, 0x00, 0x0c, 0x00, 0x0c, 0x00, 
  0x00, 0x00, 0x00, 0x00, 0x08, 0x00, 0x04, 0x00, 0x0c, 0x00, 0x00, 0x00, 
  0x08, 0x00, 0x00, 0x00, 0x10, 0x00, 0x00, 0x00, 0x01, 0x00, 0x00, 0x00, 
  0x80, 0x00, 0x00, 0x00, 0x00, 0x00, 0x00, 0x00, 0x01, 0x00, 0x00, 0x00, 
  0x1a, 0xd2, 0xb1, 0x3d, 0x19, 0x00, 0x00, 0x00, 0x73, 0x65, 0x72, 0x76, 
  0x69, 0x6e, 0x67, 0x5f, 0x64, 0x65, 0x66, 0x61, 0x75, 0x6c, 0x74, 0x5f, 
  0x69, 0x6e, 0x70, 0x75, 0x74, 0x5f, 0x31, 0x3a, 0x30, 0x00, 0x00, 0x00, 
  0x04, 0x00, 0x00, 0x00, 0x01, 0x00, 0x00, 0x00, 0x10, 0x00, 0x00, 0x00, 
  0x80, 0x00, 0x00, 0x00, 0x01, 0x00, 0x00, 0x00, 0x08, 0x00, 0x00, 0x00, 
  0xac, 0x00, 0x00, 0x00, 0x8c, 0x00, 0x00, 0x00, 0x6c, 0x00, 0x00, 0x00, 
  0x60, 0x00, 0x00, 0x00, 0x44, 0x00, 0x00, 0x00, 0x28, 0x00, 0x00, 0x00, 
  0x14, 0x00, 0x00, 0x00, 0x04, 0x00, 0x00, 0x00, 0x80, 0xff, 0xff, 0xff, 
  0x16, 0x00, 0x00, 0x00, 0x00, 0x00, 0x00, 0x16, 0xa8, 0xff, 0xff, 0xff, 
  0x01, 0x00, 0x00, 0x00, 0x02, 0x00, 0x00, 0x00, 0x00, 0x00, 0x00, 0x01, 
  0x9c, 0xff, 0xff, 0xff, 0x75, 0x00, 0x00, 0x00, 0x00, 0x00, 0x00, 0x75, 
  0x0c, 0x00, 0x0e, 0x00, 0x0d, 0x00, 0x00, 0x00, 0x08, 0x00, 0x04, 0x00, 
  0x0c, 0x00, 0x00, 0x00, 0x04, 0x00, 0x00, 0x00, 0x03, 0x00, 0x00, 0x00, 
  0x00, 0x04, 0x0a, 0x00, 0x08, 0x00, 0x00, 0x00, 0x00, 0x00, 0x04, 0x00, 
  0x0a, 0x00, 0x00, 0x00, 0x02, 0x00, 0x00, 0x00, 0xf0, 0xff, 0xff, 0xff, 
  0x12, 0x00, 0x00, 0x00, 0x02, 0x00, 0x00, 0x00, 0x00, 0x00, 0x00, 0x12, 
  0x0c, 0x00, 0x10, 0x00, 0x0f, 0x00, 0x00, 0x00, 0x08, 0x00, 0x04, 0x00, 
  0x0c, 0x00, 0x00, 0x00, 0x03, 0x00, 0x00, 0x00, 0x03, 0x00, 0x00, 0x00, 
  0x00, 0x00, 0x00, 0x03, 0x0c, 0x00, 0x0c, 0x00, 0x0b, 0x00, 0x00, 0x00, 
  0x00, 0x00, 0x04, 0x00, 0x0c, 0x00, 0x00, 0x00, 0x72, 0x00, 0x00, 0x00, 
  0x00, 0x00, 0x00, 0x72, 
};
