alignas(16) const unsigned char eegnet[] = {
  0x20, 0x00, 0x00, 0x00, 0x54, 0x46, 0x4c, 0x33, 0x00, 0x00, 0x00, 0x00, 
  0x14, 0x00, 0x20, 0x00, 0x1c, 0x00, 0x18, 0x00, 0x14, 0x00, 0x10, 0x00, 
  0x0c, 0x00, 0x00, 0x00, 0x08, 0x00, 0x04, 0x00, 0x14, 0x00, 0x00, 0x00, 
  0x1c, 0x00, 0x00, 0x00, 0x88, 0x00, 0x00, 0x00, 0xe0, 0x00, 0x00, 0x00, 
  0x8c, 0x0c, 0x00, 0x00, 0x9c, 0x0c, 0x00, 0x00, 0x4c, 0x2f, 0x00, 0x00, 
  0x03, 0x00, 0x00, 0x00, 0x01, 0x00, 0x00, 0x00, 0x04, 0x00, 0x00, 0x00, 
  0x32, 0xf1, 0xff, 0xff, 0x0c, 0x00, 0x00, 0x00, 0x1c, 0x00, 0x00, 0x00, 
  0x40, 0x00, 0x00, 0x00, 0x0f, 0x00, 0x00, 0x00, 0x73, 0x65, 0x72, 0x76, 
  0x69, 0x6e, 0x67, 0x5f, 0x64, 0x65, 0x66, 0x61, 0x75, 0x6c, 0x74, 0x00, 
  0x01, 0x00, 0x00, 0x00, 0x04, 0x00, 0x00, 0x00, 0x94, 0xff, 0xff, 0xff, 
  0x1e, 0x00, 0x00, 0x00, 0x04, 0x00, 0x00, 0x00, 0x0d, 0x00, 0x00, 0x00, 
  0x71, 0x75, 0x61, 0x6e, 0x74, 0x5f, 0x66, 0x6c, 0x61, 0x74, 0x74, 0x65, 
  0x6e, 0x00, 0x00, 0x00, 0x01, 0x00, 0x00, 0x00, 0x04, 0x00, 0x00, 0x00, 
  0x02, 0xf4, 0xff, 0xff, 0x04, 0x00, 0x00, 0x00, 0x07, 0x00, 0x00, 0x00, 
  0x69, 0x6e, 0x70, 0x75, 0x74, 0x5f, 0x31, 0x00, 0x02, 0x00, 0x00, 0x00, 
  0x34, 0x00, 0x00, 0x00, 0x04, 0x00, 0x00, 0x00, 0xdc, 0xff, 0xff, 0xff, 
  0x21, 0x00, 0x00, 0x00, 0x04, 0x00, 0x00, 0x00, 0x13, 0x00, 0x00, 0x00, 
  0x43, 0x4f, 0x4e, 0x56, 0x45, 0x52, 0x53, 0x49, 0x4f, 0x4e, 0x5f, 0x4d, 
  0x45, 0x54, 0x41, 0x44, 0x41, 0x54, 0x41, 0x00, 0x08, 0x00, 0x0c, 0x00, 
  0x08, 0x00, 0x04, 0x00, 0x08, 0x00, 0x00, 0x00, 0x20, 0x00, 0x00, 0x00, 
  0x04, 0x00, 0x00, 0x00, 0x13, 0x00, 0x00, 0x00, 0x6d, 0x69, 0x6e, 0x5f, 
  0x72, 0x75, 0x6e, 0x74, 0x69, 0x6d, 0x65, 0x5f, 0x76, 0x65, 0x72, 0x73, 
  0x69, 0x6f, 0x6e, 0x00, 0x22, 0x00, 0x00, 0x00, 0xa8, 0x0b, 0x00, 0x00, 
  0xa0, 0x0b, 0x00, 0x00, 0x88, 0x0b, 0x00, 0x00, 0x60, 0x0b, 0x00, 0x00, 
  0xd0, 0x0a, 0x00, 0x00, 0xc0, 0x08, 0x00, 0x00, 0x90, 0x08, 0x00, 0x00, 
  0x60, 0x08, 0x00, 0x00, 0xd0, 0x07, 0x00, 0x00, 0xc8, 0x07, 0x00, 0x00, 
  0xb8, 0x05, 0x00, 0x00, 0x98, 0x05, 0x00, 0x00, 0x78, 0x05, 0x00, 0x00, 
  0x70, 0x05, 0x00, 0x00, 0x60, 0x01, 0x00, 0x00, 0x10, 0x01, 0x00, 0x00, 
  0x08, 0x01, 0x00, 0x00, 0x00, 0x01, 0x00, 0x00, 0xf8, 0x00, 0x00, 0x00, 
  0xf0, 0x00, 0x00, 0x00, 0xe8, 0x00, 0x00, 0x00, 0xe0, 0x00, 0x00, 0x00, 
  0xd8, 0x00, 0x00, 0x00, 0xd0, 0x00, 0x00, 0x00, 0xc8, 0x00, 0x00, 0x00, 
  0xc0, 0x00, 0x00, 0x00, 0xb8, 0x00, 0x00, 0x00, 0xb0, 0x00, 0x00, 0x00, 
  0xa8, 0x00, 0x00, 0x00, 0xa0, 0x00, 0x00, 0x00, 0x98, 0x00, 0x00, 0x00, 
  0x90, 0x00, 0x00, 0x00, 0x70, 0x00, 0x00, 0x00, 0x04, 0x00, 0x00, 0x00, 
  0xfe, 0xf4, 0xff, 0xff, 0x04, 0x00, 0x00, 0x00, 0x5c, 0x00, 0x00, 0x00, 
  0x0c, 0x00, 0x00, 0x00, 0x08, 0x00, 0x0e, 0x00, 0x08, 0x00, 0x04, 0x00, 
  0x08, 0x00, 0x00, 0x00, 0x10, 0x00, 0x00, 0x00, 0x2c, 0x00, 0x00, 0x00, 
  0x00, 0x00, 0x06, 0x00, 0x08, 0x00, 0x04, 0x00, 0x06, 0x00, 0x00, 0x00, 
  0x04, 0x00, 0x00, 0x00, 0x02, 0x00, 0x00, 0x00, 0xeb, 0x03, 0x00, 0x00, 
  0xd0, 0x07, 0x00, 0x00, 0x00, 0x00, 0x0a, 0x00, 0x10, 0x00, 0x0c, 0x00, 
  0x08, 0x00, 0x04, 0x00, 0x0a, 0x00, 0x00, 0x00, 0x02, 0x00, 0x00, 0x00, 
  0x02, 0x00, 0x00, 0x00, 0x04, 0x00, 0x00, 0x00, 0x06, 0x00, 0x00, 0x00, 
  0x32, 0x2e, 0x31, 0x34, 0x2e, 0x31, 0x00, 0x00, 0x66, 0xf5, 0xff, 0xff, 
  0x04, 0x00, 0x00, 0x00, 0x10, 0x00, 0x00, 0x00, 0x31, 0x2e, 0x31, 0x35, 
  0x2e, 0x30, 0x00, 0x00, 0x00, 0x00, 0x00, 0x00, 0x00, 0x00, 0x00, 0x00, 
  0x80, 0xd3, 0xff, 0xff, 0x84, 0xd3, 0xff, 0xff, 0x88, 0xd3, 0xff, 0xff, 
  0x8c, 0xd3, 0xff, 0xff, 0x90, 0xd3, 0xff, 0xff, 0x94, 0xd3, 0xff, 0xff, 
  0x98, 0xd3, 0xff, 0xff, 0x9c, 0xd3, 0xff, 0xff, 0xa0, 0xd3, 0xff, 0xff, 
  0xa4, 0xd3, 0xff, 0xff, 0xa8, 0xd3, 0xff, 0xff, 0xac, 0xd3, 0xff, 0xff, 
  0xb0, 0xd3, 0xff, 0xff, 0xb4, 0xd3, 0xff, 0xff, 0xb8, 0xd3, 0xff, 0xff, 
  0xbc, 0xd3, 0xff, 0xff, 0xc2, 0xf5, 0xff, 0xff, 0x04, 0x00, 0x00, 0x00, 
  0x40, 0x00, 0x00, 0x00, 0x00, 0x00, 0x00, 0x00, 0x00, 0x00, 0x00, 0x00, 
  0x00, 0x00, 0x00, 0x00, 0x00, 0x00, 0x00, 0x00, 0x00, 0x00, 0x00, 0x00, 
  0x00, 0x00, 0x00, 0x00, 0x00, 0x00, 0x00, 0x00, 0x00, 0x00, 0x00, 0x00, 
  0x00, 0x00, 0x00, 0x00, 0x00, 0x00, 0x00, 0x00, 0x00, 0x00, 0x00, 0x00, 
  0x00, 0x00, 0x00, 0x00, 0x00, 0x00, 0x00, 0x00, 0x00, 0x00, 0x00, 0x00, 
  0x00, 0x00, 0x00, 0x00, 0x00, 0x00, 0x00, 0x00, 0x0e, 0xf6, 0xff, 0xff, 
  0x04, 0x00, 0x00, 0x00, 0x00, 0x04, 0x00, 0x00, 0xaa, 0x07, 0x08, 0x27, 
  0x16, 0xf4, 0xd9, 0xe1, 0xf9, 0xdc, 0x39, 0x58, 0xfd, 0xae, 0xff, 0xfb, 
  0x16, 0xc4, 0x41, 0x3c, 0xf9, 0xbc, 0xdb, 0x24, 0xe0, 0x23, 0xf5, 0x0f, 
  0x25, 0xdf, 0xf5, 0xd1, 0x02, 0x7f, 0xd0, 0xee, 0xec, 0x29, 0x12, 0xd2, 
  0x4a, 0xd1, 0xc0, 0x06, 0x4c, 0x4f, 0xaa, 0xc2, 0xe1, 0x65, 0x16, 0xee, 
  0xda, 0x08, 0x16, 0x07, 0xea, 0x10, 0x23, 0xd9, 0x12, 0xd6, 0x49, 0xd1, 
  0x05, 0x01, 0x36, 0xf4, 0xaf, 0xf1, 0x20, 0x33, 0xce, 0x17, 0x42, 0xe3, 
  0x25, 0x7f, 0x05, 0xd4, 0x12, 0xff, 0xc2, 0xfb, 0x6f, 0xf5, 0xaa, 0x31, 
  0x3f, 0x2f, 0xaf, 0xf1, 0xf0, 0x24, 0x0a, 0x87, 0x23, 0xe2, 0x1c, 0x03, 
  0xf2, 0x0c, 0xb9, 0xcc, 0x3b, 0xca, 0xbb, 0xe6, 0xd6, 0x06, 0x12, 0x52, 
  0xc3, 0x0a, 0xb0, 0xe5, 0xc3, 0xa2, 0x4b, 0xf7, 0x17, 0x64, 0x35, 0xad, 
  0xe0, 0x16, 0xc4, 0xd3, 0xf2, 0xd5, 0x59, 0x3d, 0x24, 0xb4, 0x9f, 0xdd, 
  0x0b, 0x22, 0xeb, 0xc6, 0x59, 0x10, 0x11, 0x28, 0x81, 0xdf, 0xfb, 0x22, 
  0x66, 0x32, 0x21, 0x28, 0xc3, 0xfd, 0xdf, 0xcc, 0xe0, 0x0e, 0x29, 0x42, 
  0xca, 0x00, 0xbd, 0xbe, 0xd4, 0x1a, 0xf1, 0x3d, 0x3e, 0xf1, 0x1f, 0xb4, 
  0x1e, 0x09, 0x02, 0x2c, 0x2b, 0x13, 0x1a, 0xa9, 0xf7, 0x0c, 0x1b, 0xeb, 
  0xbf, 0x41, 0xc1, 0x61, 0xc7, 0xc1, 0xed, 0x24, 0x21, 0x8c, 0xb0, 0xf9, 
  0x55, 0x6d, 0x4c, 0xce, 0xa3, 0x31, 0xe0, 0x0c, 0x09, 0xcc, 0x3a, 0x4c, 
  0xef, 0x95, 0x07, 0x2b, 0x16, 0x07, 0x9f, 0x15, 0x94, 0x1e, 0x62, 0x7f, 
  0x07, 0xa6, 0xe1, 0xc9, 0x41, 0xe8, 0x20, 0x61, 0xee, 0xef, 0xa0, 0xe8, 
  0x35, 0xe7, 0xf5, 0xba, 0x12, 0x38, 0xed, 0x20, 0x20, 0x16, 0x07, 0xfb, 
  0xd9, 0xed, 0x49, 0x01, 0xd1, 0x35, 0x0e, 0xf8, 0xe6, 0xb1, 0x24, 0xc6, 
  0x3f, 0x11, 0xcc, 0x4d, 0x06, 0x88, 0x21, 0xb8, 0x49, 0x0e, 0x7f, 0x05, 
  0x08, 0xc6, 0xc5, 0x84, 0x4d, 0x24, 0xde, 0x3f, 0xda, 0xe2, 0x19, 0xd8, 
  0xb4, 0x0e, 0x0e, 0xf1, 0x2f, 0xd6, 0x3c, 0xf2, 0x5b, 0xa9, 0x0e, 0xd2, 
  0x14, 0x20, 0x49, 0x41, 0xef, 0x09, 0xc5, 0xfd, 0xdc, 0xe8, 0x05, 0x39, 
  0xdf, 0x25, 0x1e, 0xf2, 0xa6, 0x38, 0xa1, 0xf6, 0x1e, 0xef, 0x66, 0xdd, 
  0x38, 0x27, 0x95, 0x07, 0xdb, 0xbf, 0xf3, 0xe3, 0x18, 0xf3, 0xfa, 0x14, 
  0x1c, 0xcf, 0xfa, 0xe9, 0x25, 0xfb, 0x19, 0x0e, 0xf3, 0xfb, 0xe9, 0xee, 
  0xfb, 0xe0, 0xe9, 0xfe, 0x0b, 0xcc, 0xcf, 0xf8, 0x12, 0x03, 0xf7, 0x02, 
  0x33, 0xc8, 0xc3, 0xc0, 0x1c, 0x12, 0xe1, 0x14, 0xe0, 0xee, 0xdd, 0xe4, 
  0xf8, 0xe9, 0xdc, 0x0a, 0xfc, 0x23, 0xa6, 0xd0, 0xd3, 0xbc, 0x9b, 0xa8, 
  0xbe, 0xf2, 0xce, 0xb7, 0x81, 0xb7, 0x86, 0x9c, 0xd6, 0xa8, 0x0f, 0x3c, 
  0xd5, 0x2c, 0xd3, 0xf5, 0x4c, 0x06, 0xc7, 0x04, 0x2c, 0xb1, 0x19, 0xf6, 
  0xf4, 0x7f, 0x1f, 0xd2, 0x01, 0xfc, 0x02, 0x83, 0x04, 0xe5, 0x4f, 0x6c, 
  0x1e, 0xf7, 0xe8, 0xaf, 0x89, 0xe7, 0x19, 0x69, 0x10, 0x22, 0x0a, 0xe7, 
  0x99, 0x08, 0x06, 0x23, 0xe3, 0xdc, 0x11, 0x49, 0x14, 0x09, 0x1a, 0xe6, 
  0xf3, 0xd5, 0x23, 0xd6, 0xc7, 0x54, 0x55, 0x36, 0xa6, 0xb5, 0xfd, 0xca, 
  0x00, 0x42, 0x64, 0x0b, 0x0f, 0x01, 0xf9, 0xde, 0xb4, 0x16, 0xb3, 0x83, 
  0x31, 0xf3, 0xb4, 0x5a, 0x7f, 0x4b, 0x26, 0x29, 0xeb, 0x98, 0x93, 0xa8, 
  0xc2, 0x0b, 0x59, 0x3a, 0x78, 0xe6, 0x0a, 0x06, 0xea, 0x2b, 0x3e, 0xe4, 
  0xe6, 0xd8, 0x84, 0xc1, 0x1d, 0xc9, 0x43, 0x3f, 0x71, 0x48, 0x4c, 0xb2, 
  0x9d, 0xc4, 0xc7, 0xe8, 0x00, 0xe3, 0xfa, 0x50, 0x0a, 0xe7, 0x6a, 0xd6, 
  0x25, 0x06, 0x3f, 0xb0, 0x02, 0xed, 0x03, 0x0a, 0xf3, 0xfc, 0xdb, 0x1d, 
  0x3c, 0xac, 0xd8, 0x44, 0x21, 0xe3, 0xba, 0x04, 0x4c, 0x06, 0xd6, 0xdc, 
  0xe2, 0x68, 0x2c, 0x81, 0x00, 0x27, 0x1e, 0x09, 0xd8, 0xf4, 0xe7, 0x5e, 
  0xed, 0xb9, 0x13, 0x2a, 0xf5, 0x1b, 0xbb, 0x3a, 0x0f, 0xf0, 0xe9, 0x2c, 
  0x09, 0xc7, 0x34, 0xe8, 0x3d, 0xd8, 0x0c, 0xd2, 0x47, 0xfb, 0xf2, 0xf7, 
  0xfc, 0x0d, 0x1c, 0xfe, 0xc6, 0x42, 0xf0, 0xfb, 0x3f, 0xe1, 0xc2, 0xe0, 
  0x0c, 0xf4, 0x10, 0xf8, 0xd3, 0x50, 0xef, 0x2b, 0x53, 0xe1, 0x7e, 0xe2, 
  0xbe, 0x4f, 0x81, 0xea, 0xf4, 0xc2, 0xcf, 0xed, 0xd1, 0x52, 0xb5, 0x40, 
  0x36, 0x5a, 0xc7, 0x4e, 0x56, 0xca, 0x3b, 0xd0, 0xfe, 0xbb, 0xf1, 0xed, 
  0xc7, 0xcc, 0xf0, 0xd1, 0x34, 0xee, 0x1d, 0x50, 0x4f, 0xd7, 0x07, 0x48, 
  0x08, 0x2a, 0xca, 0xea, 0x08, 0x96, 0x1a, 0x16, 0xc1, 0x17, 0xf6, 0x21, 
  0x4e, 0x25, 0x94, 0x22, 0xda, 0x26, 0x30, 0x03, 0x76, 0x15, 0x62, 0xd8, 
  0xce, 0x10, 0xf6, 0xe5, 0x44, 0x7f, 0xfc, 0xf7, 0x29, 0x3e, 0xfc, 0xb6, 
  0xd5, 0xd8, 0x71, 0x5f, 0x37, 0x5a, 0xfc, 0xfe, 0xdc, 0xa7, 0x06, 0x52, 
  0x26, 0x16, 0x49, 0xfb, 0x30, 0xe4, 0xde, 0xcf, 0xfd, 0x4a, 0xff, 0x33, 
  0x32, 0xe2, 0x16, 0x13, 0xb9, 0x0e, 0xee, 0xdd, 0x0a, 0x30, 0x25, 0xf2, 
  0xd1, 0xe5, 0xf9, 0x0f, 0x55, 0x06, 0x48, 0xfa, 0x42, 0x22, 0xd4, 0x23, 
  0x10, 0x8e, 0xe3, 0xea, 0xbd, 0x38, 0xef, 0xe9, 0x14, 0x21, 0xe2, 0x7f, 
  0xea, 0xe5, 0x62, 0x82, 0x04, 0xe1, 0x0f, 0x16, 0x28, 0x90, 0x19, 0x3d, 
  0xcd, 0x26, 0x4a, 0xc1, 0x64, 0xe4, 0xec, 0x00, 0xb9, 0x54, 0xc8, 0xef, 
  0xc1, 0x25, 0x0e, 0x2f, 0x0d, 0x53, 0x0e, 0x22, 0x3f, 0xd2, 0xd4, 0x5c, 
  0x9f, 0xe5, 0xdc, 0xb0, 0x71, 0xdb, 0xcb, 0x59, 0x52, 0xdc, 0xa3, 0x3d, 
  0x7f, 0x0d, 0xa3, 0x4d, 0x0d, 0x97, 0xd7, 0x3f, 0xd2, 0x98, 0x04, 0x12, 
  0xc7, 0x23, 0x3b, 0x1b, 0xf0, 0x36, 0x45, 0x07, 0xe1, 0xd2, 0x03, 0xd5, 
  0xf8, 0xb2, 0xd5, 0x2d, 0xd6, 0x25, 0x21, 0x1c, 0x3a, 0xf9, 0x02, 0x4b, 
  0xec, 0xd1, 0x28, 0xda, 0x0a, 0xd6, 0xf1, 0xeb, 0xe4, 0xe2, 0x2d, 0x07, 
  0x07, 0x43, 0x1b, 0xe5, 0x40, 0x01, 0xdd, 0xf7, 0x18, 0xaa, 0xf9, 0x08, 
  0xfc, 0xd6, 0xf6, 0x25, 0xc7, 0x35, 0xbd, 0x09, 0xcc, 0xf9, 0xd2, 0xf5, 
  0x95, 0xb9, 0xdc, 0x98, 0xf1, 0xe2, 0xe2, 0xce, 0xbd, 0xd6, 0x14, 0x81, 
  0x1f, 0xa4, 0xf7, 0x09, 0xc3, 0x3c, 0xd7, 0x4c, 0x26, 0xe1, 0x43, 0xf5, 
  0x47, 0x01, 0xd4, 0x4f, 0xec, 0x39, 0x4c, 0x1b, 0x28, 0x26, 0x17, 0x12, 
  0xe7, 0x02, 0x33, 0xa3, 0x1e, 0xf9, 0xf9, 0xe9, 0xd9, 0x36, 0xba, 0xf4, 
  0xcf, 0xeb, 0xbe, 0xa8, 0xe2, 0x0f, 0x00, 0xe1, 0x05, 0xee, 0x08, 0xda, 
  0xe9, 0xc6, 0xae, 0xb0, 0xae, 0xd9, 0xa7, 0xde, 0xed, 0xdc, 0xe8, 0xff, 
  0xd1, 0x1b, 0xa9, 0xf2, 0xb4, 0x08, 0xd2, 0x3b, 0x16, 0x21, 0x4d, 0x6e, 
  0x1c, 0x22, 0x0c, 0x35, 0x07, 0x3f, 0xd1, 0x37, 0x20, 0x59, 0x37, 0x24, 
  0x16, 0x1f, 0x06, 0xe8, 0xcb, 0xdb, 0xb6, 0xe8, 0xb8, 0xf0, 0xcf, 0x07, 
  0xc2, 0x21, 0x88, 0xfe, 0x81, 0xb7, 0x84, 0x85, 0xd1, 0xb8, 0x16, 0x7f, 
  0x3d, 0xe9, 0xaa, 0xe5, 0x35, 0x15, 0x21, 0xdf, 0xd7, 0xd9, 0x33, 0xe9, 
  0x2d, 0xf7, 0x0f, 0xfd, 0xc3, 0xf4, 0x13, 0x34, 0x24, 0xc9, 0x00, 0xed, 
  0x02, 0xf1, 0x03, 0x28, 0x22, 0xdb, 0xd7, 0xf6, 0x0d, 0x25, 0x2f, 0xc8, 
  0xfe, 0xe8, 0x34, 0x3d, 0xbd, 0xc5, 0xdc, 0x2c, 0x3d, 0x1e, 0xae, 0x1e, 
  0xf4, 0x27, 0xdd, 0x25, 0xfb, 0xce, 0xc3, 0x24, 0x48, 0x2a, 0x1c, 0xba, 
  0x18, 0xd8, 0xff, 0xff, 0x1e, 0xfa, 0xff, 0xff, 0x04, 0x00, 0x00, 0x00, 
  0x10, 0x00, 0x00, 0x00, 0x4f, 0xfc, 0x0f, 0x18, 0x34, 0xcf, 0x1a, 0xd4, 
  0x7f, 0x05, 0xfa, 0x0e, 0xf7, 0xd5, 0xc2, 0x31, 0x3a, 0xfa, 0xff, 0xff, 
  0x04, 0x00, 0x00, 0x00, 0x10, 0x00, 0x00, 0x00, 0x5a, 0x80, 0x3c, 0x1b, 
  0x7f, 0x28, 0x4c, 0x95, 0x84, 0x04, 0xd9, 0x4e, 0x50, 0x14, 0xd0, 0xe7, 
  0x56, 0xfa, 0xff, 0xff, 0x04, 0x00, 0x00, 0x00, 0x00, 0x02, 0x00, 0x00, 
  0x7f, 0xaf, 0x5e, 0x67, 0xab, 0x1c, 0x19, 0x46, 0xe2, 0xe6, 0xbb, 0x20, 
  0x3f, 0xf9, 0x4a, 0x36, 0xb6, 0x1a, 0x10, 0xcc, 0xf3, 0x02, 0xe8, 0x18, 
  0x2d, 0xf0, 0x61, 0xad, 0xe0, 0xd1, 0xc7, 0x74, 0xba, 0xbc, 0xfc, 0x0e, 
  0xdb, 0x2b, 0xab, 0x6d, 0xf0, 0xc2, 0x0e, 0xbe, 0x4d, 0xce, 0x14, 0xfd, 
  0xac, 0x19, 0xf5, 0xe8, 0x0c, 0xdf, 0xd2, 0x19, 0xce, 0x81, 0x81, 0x50, 
  0xde, 0x24, 0xbb, 0x63, 0xc5, 0x2d, 0xa6, 0xfb, 0x7f, 0x55, 0x36, 0x11, 
  0xc0, 0x26, 0x2e, 0x00, 0xc9, 0xf9, 0x55, 0x56, 0x44, 0xe5, 0xce, 0xd6, 
  0xb9, 0x11, 0xfd, 0x18, 0xf1, 0x38, 0xd0, 0x10, 0x31, 0x06, 0x39, 0xed, 
  0x00, 0x09, 0x21, 0x12, 0xa0, 0x66, 0xa9, 0xc1, 0xe3, 0x7f, 0x06, 0x4c, 
  0x8d, 0x70, 0x1a, 0xba, 0x3d, 0x49, 0x27, 0x0c, 0x26, 0x1d, 0x1f, 0xa8, 
  0x81, 0x55, 0x04, 0xe7, 0xdd, 0xd5, 0xa8, 0xeb, 0xdd, 0x81, 0x7f, 0x42, 
  0xe7, 0x39, 0x81, 0xfa, 0xfe, 0x2d, 0x7f, 0xfa, 0xcb, 0xb6, 0x71, 0xca, 
  0xfb, 0xd1, 0x54, 0x22, 0x22, 0x3d, 0x1c, 0xdb, 0xa0, 0xd5, 0xd2, 0x0e, 
  0xfa, 0x00, 0x56, 0x11, 0xc6, 0x14, 0x68, 0x49, 0xdc, 0x28, 0xa0, 0x16, 
  0xf5, 0xb2, 0x7a, 0xcc, 0xd4, 0xc3, 0x2b, 0x81, 0x21, 0xe8, 0x05, 0xc8, 
  0x81, 0x48, 0xee, 0x13, 0xe2, 0xdb, 0xda, 0x2c, 0xd2, 0xec, 0xfa, 0x41, 
  0x29, 0x00, 0x0c, 0xf8, 0xa6, 0xb6, 0xb8, 0x06, 0x7f, 0x29, 0x28, 0x51, 
  0xe2, 0xc9, 0x81, 0xeb, 0x8b, 0xe6, 0xd6, 0xdd, 0x26, 0xfa, 0xb3, 0x7f, 
  0xca, 0xf2, 0x1a, 0x81, 0x81, 0xe3, 0x81, 0xeb, 0x44, 0x69, 0x41, 0x8c, 
  0x28, 0x07, 0x61, 0x35, 0x2c, 0x46, 0x01, 0xce, 0x92, 0xf0, 0x2a, 0xbb, 
  0xea, 0x35, 0x67, 0x33, 0xcd, 0x59, 0x3f, 0x1a, 0x35, 0xee, 0x93, 0x7b, 
  0xa4, 0x22, 0x1b, 0x06, 0xb6, 0x47, 0x02, 0x14, 0xa9, 0x03, 0x30, 0xc4, 
  0x47, 0x03, 0xe8, 0x40, 0x7f, 0x0f, 0xf1, 0x9d, 0x81, 0x06, 0xd0, 0xea, 
  0xe3, 0x06, 0xe2, 0x64, 0x23, 0x4d, 0x51, 0x33, 0x1f, 0x18, 0xb4, 0xbb, 
  0xce, 0x61, 0xfa, 0x39, 0x2a, 0xe2, 0x4b, 0xf1, 0xbd, 0xb3, 0xfa, 0x09, 
  0xd4, 0x2d, 0x47, 0x3c, 0x39, 0xc0, 0xf9, 0x0d, 0x30, 0xa7, 0x37, 0x1e, 
  0xdf, 0x05, 0x55, 0x98, 0x2e, 0x16, 0xe6, 0x4d, 0x32, 0xbd, 0x5a, 0xa9, 
  0x0a, 0xdb, 0x9c, 0x9c, 0x24, 0x7b, 0xe5, 0x1e, 0xcf, 0xe0, 0x08, 0x1a, 
  0x2e, 0xdd, 0x81, 0x7f, 0x8e, 0x7f, 0xde, 0x59, 0x0b, 0xf4, 0x32, 0xfd, 
  0x67, 0x05, 0x0d, 0x81, 0x48, 0x2e, 0x1b, 0x1d, 0x09, 0x81, 0xfa, 0xae, 
  0x42, 0xc3, 0xdf, 0xf3, 0xfd, 0x7f, 0xd8, 0xfb, 0xe9, 0x56, 0xdc, 0xdc, 
  0x4c, 0xb2, 0x13, 0xcd, 0xf0, 0x21, 0x16, 0xf2, 0xf9, 0x06, 0x27, 0xa3, 
  0xff, 0x16, 0xc6, 0x81, 0x31, 0xd3, 0xf4, 0xd3, 0xa1, 0xb8, 0x69, 0xee, 
  0x93, 0xd5, 0x1a, 0xea, 0x22, 0xec, 0x2e, 0x60, 0x35, 0x74, 0x7f, 0xf3, 
  0x14, 0x05, 0xbd, 0xe0, 0xd9, 0x04, 0xcb, 0x06, 0x0e, 0x9f, 0xda, 0xb2, 
  0x1a, 0x0f, 0xd3, 0x08, 0x3b, 0x36, 0x51, 0x06, 0xff, 0x44, 0x27, 0x39, 
  0xf8, 0xd8, 0xf2, 0xef, 0x3d, 0x4f, 0xe3, 0xc8, 0xed, 0xe0, 0x3c, 0xe0, 
  0x17, 0xfc, 0xc3, 0x90, 0xb0, 0x44, 0xe1, 0xd7, 0xea, 0x2f, 0xb8, 0x7f, 
  0x41, 0x2d, 0xc2, 0x11, 0xb7, 0xd9, 0x2a, 0xf3, 0x35, 0x81, 0x3b, 0x17, 
  0xbf, 0x05, 0x14, 0x28, 0x3f, 0xe8, 0xd6, 0x3d, 0xfb, 0x81, 0x11, 0x34, 
  0xb0, 0xe3, 0xd4, 0xe8, 0xbf, 0x83, 0x42, 0xf8, 0x0a, 0xe0, 0xe8, 0x81, 
  0x06, 0xfc, 0x00, 0x96, 0x15, 0xc2, 0xe4, 0xcc, 0x0b, 0x02, 0xce, 0x02, 
  0x63, 0xf4, 0x8d, 0x33, 0x42, 0x1c, 0x16, 0x2f, 0x60, 0xda, 0xff, 0xff, 
  0x66, 0xfc, 0xff, 0xff, 0x04, 0x00, 0x00, 0x00, 0x80, 0x00, 0x00, 0x00, 
  0x00, 0x00, 0x00, 0x00, 0x00, 0x00, 0x00, 0x00, 0x00, 0x00, 0x00, 0x00, 
  0x00, 0x00, 0x00, 0x00, 0x00, 0x00, 0x00, 0x00, 0x00, 0x00, 0x00, 0x00, 
  0x00, 0x00, 0x00, 0x00, 0x00, 0x00, 0x00, 0x00, 0x00, 0x00, 0x00, 0x00, 
  0x00, 0x00, 0x00, 0x00, 0x00, 0x00, 0x00, 0x00, 0x00, 0x00, 0x00, 0x00, 
  0x00, 0x00, 0x00, 0x00, 0x00, 0x00, 0x00, 0x00, 0x00, 0x00, 0x00, 0x00, 
  0x00, 0x00, 0x00, 0x00, 0x00, 0x00, 0x00, 0x00, 0x00, 0x00, 0x00, 0x00, 
  0x00, 0x00, 0x00, 0x00, 0x00, 0x00, 0x00, 0x00, 0x00, 0x00, 0x00, 0x00, 
  0x00, 0x00, 0x00, 0x00, 0x00, 0x00, 0x00, 0x00, 0x00, 0x00, 0x00, 0x00, 
  0x00, 0x00, 0x00, 0x00, 0x00, 0x00, 0x00, 0x00, 0x00, 0x00, 0x00, 0x00, 
  0x00, 0x00, 0x00, 0x00, 0x00, 0x00, 0x00, 0x00, 0x00, 0x00, 0x00, 0x00, 
  0x00, 0x00, 0x00, 0x00, 0x00, 0x00, 0x00, 0x00, 0xf2, 0xfc, 0xff, 0xff, 
  0x04, 0x00, 0x00, 0x00, 0x20, 0x00, 0x00, 0x00, 0x0a, 0xcc, 0x7f, 0xdf, 
  0xf1, 0xf2, 0xdf, 0x1c, 0xe0, 0xea, 0x50, 0xde, 0xf3, 0xd5, 0x08, 0xcb, 
  0xe0, 0xc2, 0xfa, 0xe1, 0xfd, 0xe3, 0x22, 0xb9, 0xd8, 0x22, 0x4f, 0x11, 
  0xf6, 0x1b, 0xe4, 0x1a, 0x1e, 0xfd, 0xff, 0xff, 0x04, 0x00, 0x00, 0x00, 
  0x20, 0x00, 0x00, 0x00, 0x10, 0xfc, 0xc4, 0x25, 0x1d, 0x3f, 0xe8, 0x79, 
  0x40, 0xf0, 0xff, 0xef, 0xcd, 0xfd, 0xfb, 0xf9, 0x53, 0xff, 0x49, 0x10, 
  0x80, 0x1e, 0xf1, 0x22, 0x3f, 0xb1, 0x4d, 0x31, 0xd4, 0x2f, 0xda, 0x50, 
  0x4a, 0xfd, 0xff, 0xff, 0x04, 0x00, 0x00, 0x00, 0x00, 0x02, 0x00, 0x00, 
  0xec, 0xe0, 0xf2, 0x7f, 0x22, 0x5d, 0xbc, 0x81, 0xa8, 0x94, 0xdd, 0xde, 
  0xf5, 0x30, 0x81, 0xfc, 0x01, 0x19, 0x0b, 0xcd, 0x7f, 0x06, 0x68, 0x61, 
  0x7f, 0xaf, 0x64, 0x7a, 0x56, 0x4e, 0xbc, 0x68, 0xdd, 0x22, 0xc2, 0xf1, 
  0xfc, 0x42, 0xab, 0xbb, 0x81, 0x9a, 0x01, 0x08, 0x40, 0x23, 0x96, 0x81, 
  0x3a, 0x43, 0x0d, 0xab, 0x59, 0xf1, 0x62, 0x43, 0x12, 0x96, 0x7f, 0x6a, 
  0x42, 0x61, 0xb4, 0x78, 0x81, 0x20, 0xc9, 0xdf, 0x2c, 0x63, 0x98, 0xed, 
  0xe5, 0xe2, 0xd7, 0xf1, 0x53, 0x42, 0x86, 0x10, 0x7f, 0x3d, 0x4d, 0xbe, 
  0x53, 0x4b, 0x7f, 0x7e, 0x57, 0x81, 0x3f, 0x42, 0x64, 0x48, 0x93, 0x7f, 
  0xe1, 0x11, 0xc9, 0x16, 0x39, 0x4a, 0x8e, 0xfc, 0xa8, 0x84, 0xe9, 0xd8, 
  0x12, 0x50, 0xc4, 0xcb, 0x35, 0x11, 0x0c, 0xd3, 0x08, 0x15, 0x63, 0x51, 
  0x73, 0x93, 0x20, 0x1f, 0x31, 0x49, 0x84, 0x47, 0x92, 0x7f, 0xbc, 0x08, 
  0x41, 0x27, 0xda, 0xe5, 0x88, 0x8a, 0xe1, 0xd8, 0x0b, 0x25, 0x9a, 0xb1, 
  0x4d, 0x06, 0x2b, 0xa9, 0x24, 0x49, 0x4c, 0x8d, 0x5d, 0x9b, 0x65, 0x2e, 
  0x44, 0x6b, 0xb4, 0x4f, 0xc7, 0xfb, 0xc6, 0xf3, 0x4f, 0x63, 0xd2, 0xde, 
  0x8a, 0xa8, 0xf4, 0xd8, 0x3f, 0x1e, 0x91, 0xb1, 0x40, 0x5a, 0x57, 0xa3, 
  0x38, 0x4f, 0x66, 0xe9, 0x53, 0xdf, 0x69, 0x21, 0x40, 0x63, 0xa9, 0x7b, 
  0xa4, 0x53, 0xcb, 0xfb, 0x1c, 0x5a, 0x9f, 0xfd, 0xa7, 0xdf, 0xd4, 0xf0, 
  0x5d, 0x67, 0xb2, 0x94, 0x57, 0x1d, 0x32, 0x90, 0x3d, 0x3a, 0x47, 0x4b, 
  0x70, 0xb9, 0x2e, 0x6b, 0x46, 0x5e, 0x95, 0x47, 0xa9, 0x3a, 0xb0, 0x10, 
  0x44, 0x35, 0x87, 0xd0, 0xaa, 0x81, 0xc3, 0xd6, 0x6e, 0x7f, 0xc7, 0xaa, 
  0x1e, 0x27, 0x72, 0xdc, 0x11, 0x4b, 0x58, 0x81, 0x45, 0xbf, 0x60, 0x67, 
  0x37, 0x73, 0x94, 0x15, 0xdf, 0x18, 0xac, 0x04, 0x2b, 0x6d, 0x81, 0xb5, 
  0xac, 0x85, 0xc9, 0xce, 0x70, 0x47, 0xc3, 0xe3, 0x4f, 0x08, 0x40, 0x85, 
  0x12, 0x61, 0x32, 0x5b, 0x47, 0xce, 0x61, 0x7f, 0x7f, 0x49, 0x8a, 0x51, 
  0xab, 0xf3, 0xd9, 0xd2, 0x4e, 0x44, 0x92, 0xbc, 0xba, 0xa4, 0xf8, 0xea, 
  0x41, 0x42, 0x9e, 0xba, 0x71, 0x7f, 0x77, 0xb5, 0x14, 0xe7, 0x4b, 0xc5, 
  0x09, 0xb3, 0x1b, 0x49, 0x1f, 0x63, 0x81, 0x2c, 0xb4, 0xf4, 0xb7, 0xe5, 
  0x43, 0x7f, 0xac, 0xde, 0xc9, 0xa6, 0xb8, 0xd9, 0x63, 0x27, 0xc2, 0xf0, 
  0x27, 0x67, 0x37, 0xd9, 0x2b, 0xee, 0x73, 0x44, 0x0b, 0xd5, 0x54, 0x40, 
  0x6c, 0x79, 0x96, 0x31, 0xb0, 0x6e, 0xc0, 0xfa, 0x57, 0x3e, 0xc1, 0xfb, 
  0x91, 0xd2, 0xb7, 0xfd, 0x7f, 0x6c, 0xf3, 0x20, 0x4b, 0x3e, 0x2e, 0x81, 
  0x27, 0xf6, 0x50, 0x58, 0xe6, 0xb6, 0x56, 0x3d, 0x1b, 0x68, 0x96, 0x20, 
  0xa8, 0x60, 0xaa, 0x4f, 0x4a, 0x71, 0xb5, 0xf9, 0x92, 0xaf, 0xea, 0xcc, 
  0x4d, 0x7b, 0xf3, 0xdb, 0x70, 0x75, 0x7f, 0xf7, 0x2a, 0x7f, 0x54, 0xae, 
  0x2b, 0xc1, 0x2f, 0x76, 0x02, 0x1c, 0xac, 0x49, 0xbc, 0x69, 0xdc, 0xc7, 
  0x63, 0x59, 0xec, 0xe6, 0x91, 0x9b, 0xc8, 0xe5, 0x4f, 0x58, 0xec, 0xfb, 
  0x10, 0x6a, 0x42, 0x94, 0x36, 0x76, 0x3d, 0x22, 0x21, 0xbc, 0x1e, 0x0b, 
  0x76, 0x3c, 0x92, 0x0d, 0xd8, 0x52, 0x81, 0xb5, 0x65, 0x43, 0xea, 0xfa, 
  0xbc, 0x86, 0xdb, 0xce, 0x3c, 0x54, 0xa6, 0xb6, 0x78, 0x47, 0x2a, 0xa5, 
  0x4b, 0x1b, 0x23, 0x0f, 0x14, 0xd6, 0x38, 0x6c, 0x76, 0x7f, 0xbc, 0x02, 
  0xcd, 0xf5, 0xd4, 0xab, 0x7f, 0x31, 0xb7, 0xf8, 0x8c, 0xd0, 0x81, 0x81, 
  0x2a, 0x0c, 0xda, 0xe4, 0x61, 0xee, 0x28, 0xef, 0x31, 0x44, 0x35, 0xc3, 
  0x22, 0xf7, 0x2d, 0x55, 0x14, 0x67, 0xb9, 0x37, 0x56, 0xff, 0xff, 0xff, 
  0x04, 0x00, 0x00, 0x00, 0x80, 0x00, 0x00, 0x00, 0x9f, 0x5d, 0xb7, 0x2f, 
  0xe7, 0xc0, 0x8d, 0x13, 0x1e, 0xe3, 0xd2, 0x1b, 0xfd, 0x2a, 0x82, 0xb8, 
  0x9f, 0x4e, 0xf2, 0x37, 0x7f, 0x23, 0xab, 0x19, 0x3f, 0x83, 0xef, 0xe8, 
  0xbc, 0xe3, 0x65, 0xd1, 0x47, 0xca, 0x52, 0x3f, 0x6b, 0x7f, 0x66, 0x10, 
  0xb9, 0xd2, 0x25, 0xaa, 0xb3, 0x99, 0x28, 0xc4, 0x34, 0x90, 0x37, 0xc3, 
  0x00, 0xee, 0x3e, 0x19, 0x20, 0x19, 0xed, 0x25, 0x09, 0x4c, 0xfc, 0xdb, 
  0x58, 0xec, 0x41, 0x13, 0xc3, 0x54, 0x3f, 0x24, 0xca, 0xc6, 0x16, 0x13, 
  0xb1, 0xf0, 0x08, 0xf5, 0x19, 0x8e, 0x31, 0xaf, 0x99, 0xd9, 0x7f, 0x1f, 
  0xea, 0x43, 0x61, 0x58, 0x4c, 0x25, 0xad, 0x17, 0xe8, 0x6a, 0x86, 0xb5, 
  0x98, 0xb3, 0xfb, 0x7b, 0x1f, 0xfb, 0xa5, 0x1c, 0x7f, 0x47, 0xeb, 0xff, 
  0xcb, 0x56, 0xd3, 0x1c, 0xf6, 0x25, 0xd6, 0xee, 0x0c, 0xf8, 0xc1, 0xe2, 
  0xf6, 0xe1, 0xfb, 0xd6, 0xe2, 0xff, 0xff, 0xff, 0x04, 0x00, 0x00, 0x00, 
  0x10, 0x00, 0x00, 0x00, 0x46, 0xff, 0xff, 0xff, 0x3b, 0xfc, 0xff, 0xff, 
  0xf8, 0xfa, 0xff, 0xff, 0xaa, 0x01, 0x00, 0x00, 0x00, 0x00, 0x06, 0x00, 
  0x08, 0x00, 0x04, 0x00, 0x06, 0x00, 0x00, 0x00, 0x04, 0x00, 0x00, 0x00, 
  0x08, 0x00, 0x00, 0x00, 0xff, 0xff, 0xff, 0xff, 0x10, 0x00, 0x00, 0x00, 
  0x18, 0xde, 0xff, 0xff, 0x1c, 0xde, 0xff, 0xff, 0x0f, 0x00, 0x00, 0x00, 
  0x4d, 0x4c, 0x49, 0x52, 0x20, 0x43, 0x6f, 0x6e, 0x76, 0x65, 0x72, 0x74, 
  0x65, 0x64, 0x2e, 0x00, 0x01, 0x00, 0x00, 0x00, 0x14, 0x00, 0x00, 0x00, 
  0x00, 0x00, 0x0e, 0x00, 0x18, 0x00, 0x14, 0x00, 0x10, 0x00, 0x0c, 0x00, 
  0x08, 0x00, 0x04, 0x00, 0x0e, 0x00, 0x00, 0x00, 0x14, 0x00, 0x00, 0x00, 
  0x1c, 0x00, 0x00, 0x00, 0xd0, 0x03, 0x00, 0x00, 0xd4, 0x03, 0x00, 0x00, 
  0xd8, 0x03, 0x00, 0x00, 0x04, 0x00, 0x00, 0x00, 0x6d, 0x61, 0x69, 0x6e, 
  0x00, 0x00, 0x00, 0x00, 0x11, 0x00, 0x00, 0x00, 0x98, 0x03, 0x00, 0x00, 
  0x4c, 0x03, 0x00, 0x00, 0x08, 0x03, 0x00, 0x00, 0xd4, 0x02, 0x00, 0x00, 
  0x80, 0x02, 0x00, 0x00, 0x4c, 0x02, 0x00, 0x00, 0x18, 0x02, 0x00, 0x00, 
  0xf4, 0x01, 0x00, 0x00, 0x94, 0x01, 0x00, 0x00, 0x74, 0x01, 0x00, 0x00, 
  0x24, 0x01, 0x00, 0x00, 0xd4, 0x00, 0x00, 0x00, 0xb0, 0x00, 0x00, 0x00, 
  0x6c, 0x00, 0x00, 0x00, 0x4c, 0x00, 0x00, 0x00, 0x24, 0x00, 0x00, 0x00, 
  0x04, 0x00, 0x00, 0x00, 0xb6, 0xfc, 0xff, 0xff, 0x08, 0x00, 0x00, 0x00, 
  0x0c, 0x00, 0x00, 0x00, 0x01, 0x00, 0x00, 0x00, 0x1e, 0x00, 0x00, 0x00, 
  0x01, 0x00, 0x00, 0x00, 0x1d, 0x00, 0x00, 0x00, 0x5a, 0xfe, 0xff, 0xff, 
  0x0c, 0x00, 0x00, 0x00, 0x10, 0x00, 0x00, 0x00, 0x07, 0x00, 0x00, 0x00, 
  0x01, 0x00, 0x00, 0x00, 0x1d, 0x00, 0x00, 0x00, 0x02, 0x00, 0x00, 0x00, 
  0x1c, 0x00, 0x00, 0x00, 0x01, 0x00, 0x00, 0x00, 0xf6, 0xfc, 0xff, 0xff, 
  0x08, 0x00, 0x00, 0x00, 0x0c, 0x00, 0x00, 0x00, 0x01, 0x00, 0x00, 0x00, 
  0x1c, 0x00, 0x00, 0x00, 0x01, 0x00, 0x00, 0x00, 0x1b, 0x00, 0x00, 0x00, 
  0x5e, 0xfd, 0xff, 0xff, 0x14, 0x00, 0x00, 0x00, 0x00, 0x00, 0x00, 0x05, 
  0x24, 0x00, 0x00, 0x00, 0x28, 0x00, 0x00, 0x00, 0x06, 0x00, 0x00, 0x00, 
  0xea, 0xfe, 0xff, 0xff, 0x01, 0x00, 0x00, 0x00, 0x08, 0x00, 0x00, 0x00, 
  0x01, 0x00, 0x00, 0x00, 0x08, 0x00, 0x00, 0x00, 0x00, 0x00, 0x00, 0x01, 
  0x01, 0x00, 0x00, 0x00, 0x1b, 0x00, 0x00, 0x00, 0x01, 0x00, 0x00, 0x00, 
  0x1a, 0x00, 0x00, 0x00, 0xda, 0xfe, 0xff, 0xff, 0x0c, 0x00, 0x00, 0x00, 
  0x10, 0x00, 0x00, 0x00, 0x05, 0x00, 0x00, 0x00, 0x01, 0x00, 0x00, 0x00, 
  0x1a, 0x00, 0x00, 0x00, 0x01, 0x00, 0x00, 0x00, 0x19, 0x00, 0x00, 0x00, 
  0xbe, 0xfd, 0xff, 0xff, 0x20, 0x00, 0x00, 0x00, 0x00, 0x00, 0x00, 0x01, 
  0x28, 0x00, 0x00, 0x00, 0x2c, 0x00, 0x00, 0x00, 0x01, 0x00, 0x00, 0x00, 
  0x00, 0x00, 0x0a, 0x00, 0x10, 0x00, 0x0f, 0x00, 0x08, 0x00, 0x04, 0x00, 
  0x0a, 0x00, 0x00, 0x00, 0x01, 0x00, 0x00, 0x00, 0x01, 0x00, 0x00, 0x00, 
  0x00, 0x00, 0x00, 0x01, 0x01, 0x00, 0x00, 0x00, 0x19, 0x00, 0x00, 0x00, 
  0x03, 0x00, 0x00, 0x00, 0x18, 0x00, 0x00, 0x00, 0x03, 0x00, 0x00, 0x00, 
  0x02, 0x00, 0x00, 0x00, 0x0a, 0xfe, 0xff, 0xff, 0x20, 0x00, 0x00, 0x00, 
  0x00, 0x00, 0x00, 0x02, 0x28, 0x00, 0x00, 0x00, 0x2c, 0x00, 0x00, 0x00, 
  0x04, 0x00, 0x00, 0x00, 0x0c, 0x00, 0x10, 0x00, 0x00, 0x00, 0x0c, 0x00, 
  0x08, 0x00, 0x04, 0x00, 0x0c, 0x00, 0x00, 0x00, 0x01, 0x00, 0x00, 0x00, 
  0x01, 0x00, 0x00, 0x00, 0x01, 0x00, 0x00, 0x00, 0x01, 0x00, 0x00, 0x00, 
  0x18, 0x00, 0x00, 0x00, 0x03, 0x00, 0x00, 0x00, 0x17, 0x00, 0x00, 0x00, 
  0x04, 0x00, 0x00, 0x00, 0x08, 0x00, 0x00, 0x00, 0x0a, 0xfe, 0xff, 0xff, 
  0x08, 0x00, 0x00, 0x00, 0x0c, 0x00, 0x00, 0x00, 0x01, 0x00, 0x00, 0x00, 
  0x17, 0x00, 0x00, 0x00, 0x01, 0x00, 0x00, 0x00, 0x16, 0x00, 0x00, 0x00, 
  0x72, 0xfe, 0xff, 0xff, 0x24, 0x00, 0x00, 0x00, 0x00, 0x00, 0x00, 0x05, 
  0x34, 0x00, 0x00, 0x00, 0x38, 0x00, 0x00, 0x00, 0x06, 0x00, 0x00, 0x00, 
  0x00, 0x00, 0x0e, 0x00, 0x18, 0x00, 0x17, 0x00, 0x10, 0x00, 0x0c, 0x00, 
  0x08, 0x00, 0x04, 0x00, 0x0e, 0x00, 0x00, 0x00, 0x01, 0x00, 0x00, 0x00, 
  0x04, 0x00, 0x00, 0x00, 0x01, 0x00, 0x00, 0x00, 0x04, 0x00, 0x00, 0x00, 
  0x00, 0x00, 0x00, 0x01, 0x01, 0x00, 0x00, 0x00, 0x16, 0x00, 0x00, 0x00, 
  0x01, 0x00, 0x00, 0x00, 0x15, 0x00, 0x00, 0x00, 0x00, 0x00, 0x0a, 0x00, 
  0x10, 0x00, 0x0c, 0x00, 0x08, 0x00, 0x04, 0x00, 0x0a, 0x00, 0x00, 0x00, 
  0x0c, 0x00, 0x00, 0x00, 0x10, 0x00, 0x00, 0x00, 0x05, 0x00, 0x00, 0x00, 
  0x01, 0x00, 0x00, 0x00, 0x15, 0x00, 0x00, 0x00, 0x01, 0x00, 0x00, 0x00, 
  0x14, 0x00, 0x00, 0x00, 0xee, 0xfe, 0xff, 0xff, 0x14, 0x00, 0x00, 0x00, 
  0x00, 0x00, 0x00, 0x0b, 0x10, 0x00, 0x00, 0x00, 0x14, 0x00, 0x00, 0x00, 
  0x03, 0x00, 0x00, 0x00, 0xbc, 0xe0, 0xff, 0xff, 0x01, 0x00, 0x00, 0x00, 
  0x14, 0x00, 0x00, 0x00, 0x02, 0x00, 0x00, 0x00, 0x13, 0x00, 0x00, 0x00, 
  0x05, 0x00, 0x00, 0x00, 0x1e, 0xff, 0xff, 0xff, 0x14, 0x00, 0x00, 0x00, 
  0x00, 0x00, 0x00, 0x15, 0x10, 0x00, 0x00, 0x00, 0x14, 0x00, 0x00, 0x00, 
  0x02, 0x00, 0x00, 0x00, 0xec, 0xe0, 0xff, 0xff, 0x01, 0x00, 0x00, 0x00, 
  0x13, 0x00, 0x00, 0x00, 0x02, 0x00, 0x00, 0x00, 0x12, 0x00, 0x00, 0x00, 
  0x06, 0x00, 0x00, 0x00, 0x4e, 0xff, 0xff, 0xff, 0x20, 0x00, 0x00, 0x00, 
  0x00, 0x00, 0x00, 0x02, 0x2c, 0x00, 0x00, 0x00, 0x30, 0x00, 0x00, 0x00, 
  0x04, 0x00, 0x00, 0x00, 0x0c, 0x00, 0x14, 0x00, 0x13, 0x00, 0x0c, 0x00, 
  0x08, 0x00, 0x04, 0x00, 0x0c, 0x00, 0x00, 0x00, 0x02, 0x00, 0x00, 0x00, 
  0x01, 0x00, 0x00, 0x00, 0x01, 0x00, 0x00, 0x00, 0x00, 0x00, 0x00, 0x01, 
  0x01, 0x00, 0x00, 0x00, 0x12, 0x00, 0x00, 0x00, 0x03, 0x00, 0x00, 0x00, 
  0x11, 0x00, 0x00, 0x00, 0x09, 0x00, 0x00, 0x00, 0x07, 0x00, 0x00, 0x00, 
  0x9e, 0xff, 0xff, 0xff, 0x14, 0x00, 0x00, 0x00, 0x00, 0x00, 0x00, 0x0b, 
  0x10, 0x00, 0x00, 0x00, 0x14, 0x00, 0x00, 0x00, 0x03, 0x00, 0x00, 0x00, 
  0x6c, 0xe1, 0xff, 0xff, 0x01, 0x00, 0x00, 0x00, 0x11, 0x00, 0x00, 0x00, 
  0x02, 0x00, 0x00, 0x00, 0x10, 0x00, 0x00, 0x00, 0x0a, 0x00, 0x00, 0x00, 
  0xce, 0xff, 0xff, 0xff, 0x14, 0x00, 0x00, 0x00, 0x00, 0x00, 0x00, 0x15, 
  0x10, 0x00, 0x00, 0x00, 0x14, 0x00, 0x00, 0x00, 0x02, 0x00, 0x00, 0x00, 
  0x9c, 0xe1, 0xff, 0xff, 0x01, 0x00, 0x00, 0x00, 0x10, 0x00, 0x00, 0x00, 
  0x02, 0x00, 0x00, 0x00, 0x0f, 0x00, 0x00, 0x00, 0x0b, 0x00, 0x00, 0x00, 
  0x00, 0x00, 0x0e, 0x00, 0x18, 0x00, 0x14, 0x00, 0x10, 0x00, 0x0c, 0x00, 
  0x0b, 0x00, 0x04, 0x00, 0x0e, 0x00, 0x00, 0x00, 0x14, 0x00, 0x00, 0x00, 
  0x00, 0x00, 0x00, 0x01, 0x18, 0x00, 0x00, 0x00, 0x1c, 0x00, 0x00, 0x00, 
  0x01, 0x00, 0x00, 0x00, 0xda, 0xff, 0xff, 0xff, 0x01, 0x00, 0x00, 0x00, 
  0x01, 0x00, 0x00, 0x00, 0x01, 0x00, 0x00, 0x00, 0x0f, 0x00, 0x00, 0x00, 
  0x03, 0x00, 0x00, 0x00, 0x0c, 0x00, 0x00, 0x00, 0x0d, 0x00, 0x00, 0x00, 
  0x0e, 0x00, 0x00, 0x00, 0x00, 0x00, 0x0a, 0x00, 0x0c, 0x00, 0x00, 0x00, 
  0x08, 0x00, 0x04, 0x00, 0x0a, 0x00, 0x00, 0x00, 0x08, 0x00, 0x00, 0x00, 
  0x0c, 0x00, 0x00, 0x00, 0x01, 0x00, 0x00, 0x00, 0x0c, 0x00, 0x00, 0x00, 
  0x01, 0x00, 0x00, 0x00, 0x00, 0x00, 0x00, 0x00, 0x01, 0x00, 0x00, 0x00, 
  0x1e, 0x00, 0x00, 0x00, 0x01, 0x00, 0x00, 0x00, 0x00, 0x00, 0x00, 0x00, 
  0x1f, 0x00, 0x00, 0x00, 0x18, 0x1e, 0x00, 0x00, 0xa4, 0x1d, 0x00, 0x00, 
  0xdc, 0x1c, 0x00, 0x00, 0x28, 0x1c, 0x00, 0x00, 0x04, 0x1a, 0x00, 0x00, 
  0x78, 0x19, 0x00, 0x00, 0xec, 0x18, 0x00, 0x00, 0xe8, 0x16, 0x00, 0x00, 
  0xe4, 0x14, 0x00, 0x00, 0x84, 0x12, 0x00, 0x00, 0xfc, 0x11, 0x00, 0x00, 
  0x78, 0x11, 0x00, 0x00, 0x04, 0x10, 0x00, 0x00, 0x80, 0x0e, 0x00, 0x00, 
  0x54, 0x0d, 0x00, 0x00, 0xb8, 0x0c, 0x00, 0x00, 0x0c, 0x0c, 0x00, 0x00, 
  0x60, 0x0b, 0x00, 0x00, 0xbc, 0x0a, 0x00, 0x00, 0x10, 0x0a, 0x00, 0x00, 
  0x64, 0x09, 0x00, 0x00, 0xe8, 0x07, 0x00, 0x00, 0x44, 0x07, 0x00, 0x00, 
  0xb8, 0x05, 0x00, 0x00, 0x04, 0x05, 0x00, 0x00, 0x20, 0x04, 0x00, 0x00, 
  0xb4, 0x02, 0x00, 0x00, 0x10, 0x02, 0x00, 0x00, 0x64, 0x01, 0x00, 0x00, 
  0x80, 0x00, 0x00, 0x00, 0x04, 0x00, 0x00, 0x00, 0x7a, 0xe2, 0xff, 0xff, 
  0x00, 0x00, 0x00, 0x01, 0x18, 0x00, 0x00, 0x00, 0x20, 0x00, 0x00, 0x00, 
  0x3c, 0x00, 0x00, 0x00, 0x1f, 0x00, 0x00, 0x00, 0x00, 0x00, 0x00, 0x03, 
  0x50, 0x00, 0x00, 0x00, 0x02, 0x00, 0x00, 0x00, 0xff, 0xff, 0xff, 0xff, 
  0x10, 0x00, 0x00, 0x00, 0x5c, 0xe2, 0xff, 0xff, 0x08, 0x00, 0x00, 0x00, 
  0x10, 0x00, 0x00, 0x00, 0x01, 0x00, 0x00, 0x00, 0x0c, 0x00, 0x00, 0x00, 
  0x00, 0x00, 0x00, 0x00, 0x01, 0x00, 0x00, 0x00, 0xf7, 0xf7, 0x28, 0x3d, 
  0x19, 0x00, 0x00, 0x00, 0x53, 0x74, 0x61, 0x74, 0x65, 0x66, 0x75, 0x6c, 
  0x50, 0x61, 0x72, 0x74, 0x69, 0x74, 0x69, 0x6f, 0x6e, 0x65, 0x64, 0x43, 
  0x61, 0x6c, 0x6c, 0x3a, 0x30, 0x00, 0x00, 0x00, 0x02, 0x00, 0x00, 0x00, 
  0x01, 0x00, 0x00, 0x00, 0x10, 0x00, 0x00, 0x00, 0xf2, 0xe2, 0xff, 0xff, 
  0x00, 0x00, 0x00, 0x01, 0x18, 0x00, 0x00, 0x00, 0x20, 0x00, 0x00, 0x00, 
  0x40, 0x00, 0x00, 0x00, 0x1e, 0x00, 0x00, 0x00, 0x00, 0x00, 0x00, 0x09, 
  0xb8, 0x00, 0x00, 0x00, 0x02, 0x00, 0x00, 0x00, 0xff, 0xff, 0xff, 0xff, 
  0x10, 0x00, 0x00, 0x00, 0xd4, 0xe2, 0xff, 0xff, 0x08, 0x00, 0x00, 0x00, 
  0x14, 0x00, 0x00, 0x00, 0x01, 0x00, 0x00, 0x00, 0x8c, 0xff, 0xff, 0xff, 
  0xff, 0xff, 0xff, 0xff, 0x00, 0x00, 0x00, 0x00, 0x01, 0x00, 0x00, 0x00, 
  0xf7, 0xf7, 0x28, 0x3d, 0x7d, 0x00, 0x00, 0x00, 0x45, 0x45, 0x47, 0x4e, 
  0x65, 0x74, 0x5f, 0x46, 0x75, 0x6e, 0x63, 0x74, 0x69, 0x6f, 0x6e, 0x61, 
  0x6c, 0x2f, 0x71, 0x75, 0x61, 0x6e, 0x74, 0x5f, 0x66, 0x6c, 0x61, 0x74, 
  0x74, 0x65, 0x6e, 0x2f, 0x52, 0x65, 0x73, 0x68, 0x61, 0x70, 0x65, 0x3b, 
  0x45, 0x45, 0x47, 0x4e, 0x65, 0x74, 0x5f, 0x46, 0x75, 0x6e, 0x63, 0x74, 
  0x69, 0x6f, 0x6e, 0x61, 0x6c, 0x2f, 0x71, 0x75, 0x61, 0x6e, 0x74, 0x5f, 
  0x61, 0x76, 0x65, 0x72, 0x61, 0x67, 0x65, 0x5f, 0x70, 0x6f, 0x6f, 0x6c, 
  0x69, 0x6e, 0x67, 0x32, 0x64, 0x5f, 0x31, 0x2f, 0x4d, 0x6f, 0x76, 0x69, 
  0x6e, 0x67, 0x41, 0x76, 0x67, 0x51, 0x75, 0x61, 0x6e, 0x74, 0x69, 0x7a, 
  0x65, 0x2f, 0x46, 0x61, 0x6b, 0x65, 0x51, 0x75, 0x61, 0x6e, 0x74, 0x57, 
  0x69, 0x74, 0x68, 0x4d, 0x69, 0x6e, 0x4d, 0x61, 0x78, 0x56, 0x61, 0x72, 
  0x73, 0x00, 0x00, 0x00, 0x02, 0x00, 0x00, 0x00, 0x01, 0x00, 0x00, 0x00, 
  0x10, 0x00, 0x00, 0x00, 0xd2, 0xe3, 0xff, 0xff, 0x00, 0x00, 0x00, 0x01, 
  0x18, 0x00, 0x00, 0x00, 0x28, 0x00, 0x00, 0x00, 0x48, 0x00, 0x00, 0x00, 
  0x1d, 0x00, 0x00, 0x00, 0x00, 0x00, 0x00, 0x09, 0x78, 0x00, 0x00, 0x00, 
  0x04, 0x00, 0x00, 0x00, 0xff, 0xff, 0xff, 0xff, 0x01, 0x00, 0x00, 0x00, 
  0x04, 0x00, 0x00, 0x00, 0x04, 0x00, 0x00, 0x00, 0xbc, 0xe3, 0xff, 0xff, 
  0x08, 0x00, 0x00, 0x00, 0x14, 0x00, 0x00, 0x00, 0x01, 0x00, 0x00, 0x00, 
  0x8c, 0xff, 0xff, 0xff, 0xff, 0xff, 0xff, 0xff, 0x00, 0x00, 0x00, 0x00, 
  0x01, 0x00, 0x00, 0x00, 0xf7, 0xf7, 0x28, 0x3d, 0x34, 0x00, 0x00, 0x00, 
  0x45, 0x45, 0x47, 0x4e, 0x65, 0x74, 0x5f, 0x46, 0x75, 0x6e, 0x63, 0x74, 
  0x69, 0x6f, 0x6e, 0x61, 0x6c, 0x2f, 0x71, 0x75, 0x61, 0x6e, 0x74, 0x5f, 
  0x61, 0x76, 0x65, 0x72, 0x61, 0x67, 0x65, 0x5f, 0x70, 0x6f, 0x6f, 0x6c, 
  0x69, 0x6e, 0x67, 0x32, 0x64, 0x5f, 0x31, 0x2f, 0x41, 0x76, 0x67, 0x50, 
  0x6f, 0x6f, 0x6c, 0x31, 0x00, 0x00, 0x00, 0x00, 0x04, 0x00, 0x00, 0x00, 
  0x01, 0x00, 0x00, 0x00, 0x01, 0x00, 0x00, 0x00, 0x04, 0x00, 0x00, 0x00, 
  0x04, 0x00, 0x00, 0x00, 0x7a, 0xe4, 0xff, 0xff, 0x00, 0x00, 0x00, 0x01, 
  0x18, 0x00, 0x00, 0x00, 0x28, 0x00, 0x00, 0x00, 0x44, 0x00, 0x00, 0x00, 
  0x1c, 0x00, 0x00, 0x00, 0x00, 0x00, 0x00, 0x09, 0x70, 0x00, 0x00, 0x00, 
  0x04, 0x00, 0x00, 0x00, 0xff, 0xff, 0xff, 0xff, 0x01, 0x00, 0x00, 0x00, 
  0x04, 0x00, 0x00, 0x00, 0x04, 0x00, 0x00, 0x00, 0x64, 0xe4, 0xff, 0xff, 
  0x08, 0x00, 0x00, 0x00, 0x10, 0x00, 0x00, 0x00, 0x01, 0x00, 0x00, 0x00, 
  0x88, 0xff, 0xff, 0xff, 0xff, 0xff, 0xff, 0xff, 0x01, 0x00, 0x00, 0x00, 
  0x3a, 0xf8, 0x6c, 0x3d, 0x33, 0x00, 0x00, 0x00, 0x45, 0x45, 0x47, 0x4e, 
  0x65, 0x74, 0x5f, 0x46, 0x75, 0x6e, 0x63, 0x74, 0x69, 0x6f, 0x6e, 0x61, 
  0x6c, 0x2f, 0x71, 0x75, 0x61, 0x6e, 0x74, 0x5f, 0x61, 0x76, 0x65, 0x72, 
  0x61, 0x67, 0x65, 0x5f, 0x70, 0x6f, 0x6f, 0x6c, 0x69, 0x6e, 0x67, 0x32, 
  0x64, 0x5f, 0x31, 0x2f, 0x41, 0x76, 0x67, 0x50, 0x6f, 0x6f, 0x6c, 0x00, 
  0x04, 0x00, 0x00, 0x00, 0x01, 0x00, 0x00, 0x00, 0x01, 0x00, 0x00, 0x00, 
  0x04, 0x00, 0x00, 0x00, 0x04, 0x00, 0x00, 0x00, 0x1a, 0xe5, 0xff, 0xff, 
  0x00, 0x00, 0x00, 0x01, 0x18, 0x00, 0x00, 0x00, 0x28, 0x00, 0x00, 0x00, 
  0x48, 0x00, 0x00, 0x00, 0x1b, 0x00, 0x00, 0x00, 0x00, 0x00, 0x00, 0x09, 
  0x38, 0x01, 0x00, 0x00, 0x04, 0x00, 0x00, 0x00, 0xff, 0xff, 0xff, 0xff, 
  0x01, 0x00, 0x00, 0x00, 0x20, 0x00, 0x00, 0x00, 0x04, 0x00, 0x00, 0x00, 
  0x04, 0xe5, 0xff, 0xff, 0x08, 0x00, 0x00, 0x00, 0x14, 0x00, 0x00, 0x00, 
  0x01, 0x00, 0x00, 0x00, 0x88, 0xff, 0xff, 0xff, 0xff, 0xff, 0xff, 0xff, 
  0x00, 0x00, 0x00, 0x00, 0x01, 0x00, 0x00, 0x00, 0x3a, 0xf8, 0x6c, 0x3d, 
  0xf5, 0x00, 0x00, 0x00, 0x45, 0x45, 0x47, 0x4e, 0x65, 0x74, 0x5f, 0x46, 
  0x75, 0x6e, 0x63, 0x74, 0x69, 0x6f, 0x6e, 0x61, 0x6c, 0x2f, 0x71, 0x75, 
  0x61, 0x6e, 0x74, 0x5f, 0x73, 0x65, 0x70, 0x5f, 0x68, 0x73, 0x77, 0x69, 
  0x73, 0x68, 0x2f, 0x6d, 0x75, 0x6c, 0x5f, 0x31, 0x3b, 0x45, 0x45, 0x47, 
  0x4e, 0x65, 0x74, 0x5f, 0x46, 0x75, 0x6e, 0x63, 0x74, 0x69, 0x6f, 0x6e, 
  0x61, 0x6c, 0x2f, 0x71, 0x75, 0x61, 0x6e, 0x74, 0x5f, 0x73, 0x65, 0x70, 
  0x5f, 0x68, 0x73, 0x77, 0x69, 0x73, 0x68, 0x2f, 0x43, 0x61, 0x73, 0x74, 
  0x2f, 0x78, 0x3b, 0x45, 0x45, 0x47, 0x4e, 0x65, 0x74, 0x5f, 0x46, 0x75, 
  0x6e, 0x63, 0x74, 0x69, 0x6f, 0x6e, 0x61, 0x6c, 0x2f, 0x71, 0x75, 0x61, 
  0x6e, 0x74, 0x5f, 0x73, 0x65, 0x70, 0x5f, 0x68, 0x73, 0x77, 0x69, 0x73, 
  0x68, 0x2f, 0x52, 0x65, 0x6c, 0x75, 0x36, 0x3b, 0x45, 0x45, 0x47, 0x4e, 
  0x65, 0x74, 0x5f, 0x46, 0x75, 0x6e, 0x63, 0x74, 0x69, 0x6f, 0x6e, 0x61, 
  0x6c, 0x2f, 0x71, 0x75, 0x61, 0x6e, 0x74, 0x5f, 0x73, 0x65, 0x70, 0x5f, 
  0x68, 0x73, 0x77, 0x69, 0x73, 0x68, 0x2f, 0x61, 0x64, 0x64, 0x3b, 0x45, 
  0x45, 0x47, 0x4e, 0x65, 0x74, 0x5f, 0x46, 0x75, 0x6e, 0x63, 0x74, 0x69, 
  0x6f, 0x6e, 0x61, 0x6c, 0x2f, 0x71, 0x75, 0x61, 0x6e, 0x74, 0x5f, 0x73, 
  0x65, 0x70, 0x5f, 0x68, 0x73, 0x77, 0x69, 0x73, 0x68, 0x2f, 0x6d, 0x75, 
  0x6c, 0x3b, 0x45, 0x45, 0x47, 0x4e, 0x65, 0x74, 0x5f, 0x46, 0x75, 0x6e, 
  0x63, 0x74, 0x69, 0x6f, 0x6e, 0x61, 0x6c, 0x2f, 0x71, 0x75, 0x61, 0x6e, 
  0x74, 0x5f, 0x73, 0x65, 0x70, 0x5f, 0x68, 0x73, 0x77, 0x69, 0x73, 0x68, 
  0x2f, 0x43, 0x61, 0x73, 0x74, 0x5f, 0x31, 0x2f, 0x78, 0x00, 0x00, 0x00, 
  0x04, 0x00, 0x00, 0x00, 0x01, 0x00, 0x00, 0x00, 0x01, 0x00, 0x00, 0x00, 
  0x20, 0x00, 0x00, 0x00, 0x04, 0x00, 0x00, 0x00, 0x82, 0xe6, 0xff, 0xff, 
  0x00, 0x00, 0x00, 0x01, 0x18, 0x00, 0x00, 0x00, 0x28, 0x00, 0x00, 0x00, 
  0x48, 0x00, 0x00, 0x00, 0x1a, 0x00, 0x00, 0x00, 0x00, 0x00, 0x00, 0x09, 
  0xb0, 0x00, 0x00, 0x00, 0x04, 0x00, 0x00, 0x00, 0xff, 0xff, 0xff, 0xff, 
  0x01, 0x00, 0x00, 0x00, 0x20, 0x00, 0x00, 0x00, 0x04, 0x00, 0x00, 0x00, 
  0x6c, 0xe6, 0xff, 0xff, 0x08, 0x00, 0x00, 0x00, 0x14, 0x00, 0x00, 0x00, 
  0x01, 0x00, 0x00, 0x00, 0xeb, 0xff, 0xff, 0xff, 0xff, 0xff, 0xff, 0xff, 
  0x00, 0x00, 0x00, 0x00, 0x01, 0x00, 0x00, 0x00, 0x85, 0x50, 0x04, 0x3d, 
  0x6c, 0x00, 0x00, 0x00, 0x45, 0x45, 0x47, 0x4e, 0x65, 0x74, 0x5f, 0x46, 
  0x75, 0x6e, 0x63, 0x74, 0x69, 0x6f, 0x6e, 0x61, 0x6c, 0x2f, 0x62, 0x61, 
  0x74, 0x63, 0x68, 0x5f, 0x6e, 0x6f, 0x72, 0x6d, 0x61, 0x6c, 0x69, 0x7a, 
  0x61, 0x74, 0x69, 0x6f, 0x6e, 0x5f, 0x32, 0x2f, 0x46, 0x75, 0x73, 0x65, 
  0x64, 0x42, 0x61, 0x74, 0x63, 0x68, 0x4e, 0x6f, 0x72, 0x6d, 0x56, 0x33, 
  0x3b, 0x45, 0x45, 0x47, 0x4e, 0x65, 0x74, 0x5f, 0x46, 0x75, 0x6e, 0x63, 
  0x74, 0x69, 0x6f, 0x6e, 0x61, 0x6c, 0x2f, 0x73, 0x65, 0x70, 0x61, 0x72, 
  0x61, 0x62, 0x6c, 0x65, 0x5f, 0x63, 0x6f, 0x6e, 0x76, 0x32, 0x64, 0x2f, 
  0x73, 0x65, 0x70, 0x61, 0x72, 0x61, 0x62, 0x6c, 0x65, 0x5f, 0x63, 0x6f, 
  0x6e, 0x76, 0x32, 0x64, 0x00, 0x00, 0x00, 0x00, 0x04, 0x00, 0x00, 0x00, 
  0x01, 0x00, 0x00, 0x00, 0x01, 0x00, 0x00, 0x00, 0x20, 0x00, 0x00, 0x00, 
  0x04, 0x00, 0x00, 0x00, 0x62, 0xe7, 0xff, 0xff, 0x00, 0x00, 0x00, 0x01, 
  0x18, 0x00, 0x00, 0x00, 0x28, 0x00, 0x00, 0x00, 0x48, 0x00, 0x00, 0x00, 
  0x19, 0x00, 0x00, 0x00, 0x00, 0x00, 0x00, 0x09, 0x80, 0x00, 0x00, 0x00, 
  0x04, 0x00, 0x00, 0x00, 0xff, 0xff, 0xff, 0xff, 0x01, 0x00, 0x00, 0x00, 
  0x20, 0x00, 0x00, 0x00, 0x20, 0x00, 0x00, 0x00, 0x4c, 0xe7, 0xff, 0xff, 
  0x08, 0x00, 0x00, 0x00, 0x14, 0x00, 0x00, 0x00, 0x01, 0x00, 0x00, 0x00, 
  0xec, 0xff, 0xff, 0xff, 0xff, 0xff, 0xff, 0xff, 0x00, 0x00, 0x00, 0x00, 
  0x01, 0x00, 0x00, 0x00, 0xc6, 0x25, 0x9d, 0x3c, 0x3f, 0x00, 0x00, 0x00, 
  0x45, 0x45, 0x47, 0x4e, 0x65, 0x74, 0x5f, 0x46, 0x75, 0x6e, 0x63, 0x74, 
  0x69, 0x6f, 0x6e, 0x61, 0x6c, 0x2f, 0x73, 0x65, 0x70, 0x61, 0x72, 0x61, 
  0x62, 0x6c, 0x65, 0x5f, 0x63, 0x6f, 0x6e, 0x76, 0x32, 0x64, 0x2f, 0x73, 
  0x65, 0x70, 0x61, 0x72, 0x61, 0x62, 0x6c, 0x65, 0x5f, 0x63, 0x6f, 0x6e, 
  0x76, 0x32, 0x64, 0x2f, 0x64, 0x65, 0x70, 0x74, 0x68, 0x77, 0x69, 0x73, 
  0x65, 0x32, 0x31, 0x00, 0x04, 0x00, 0x00, 0x00, 0x01, 0x00, 0x00, 0x00, 
  0x01, 0x00, 0x00, 0x00, 0x20, 0x00, 0x00, 0x00, 0x20, 0x00, 0x00, 0x00, 
  0x12, 0xe8, 0xff, 0xff, 0x00, 0x00, 0x00, 0x01, 0x18, 0x00, 0x00, 0x00, 
  0x28, 0x00, 0x00, 0x00, 0x44, 0x00, 0x00, 0x00, 0x18, 0x00, 0x00, 0x00, 
  0x00, 0x00, 0x00, 0x09, 0x58, 0x01, 0x00, 0x00, 0x04, 0x00, 0x00, 0x00, 
  0xff, 0xff, 0xff, 0xff, 0x01, 0x00, 0x00, 0x00, 0x20, 0x00, 0x00, 0x00, 
  0x20, 0x00, 0x00, 0x00, 0xfc, 0xe7, 0xff, 0xff, 0x08, 0x00, 0x00, 0x00, 
  0x10, 0x00, 0x00, 0x00, 0x01, 0x00, 0x00, 0x00, 0x8d, 0xff, 0xff, 0xff, 
  0xff, 0xff, 0xff, 0xff, 0x01, 0x00, 0x00, 0x00, 0xfb, 0x37, 0x1b, 0x3d, 
  0x1b, 0x01, 0x00, 0x00, 0x45, 0x45, 0x47, 0x4e, 0x65, 0x74, 0x5f, 0x46, 
  0x75, 0x6e, 0x63, 0x74, 0x69, 0x6f, 0x6e, 0x61, 0x6c, 0x2f, 0x71, 0x75, 
  0x61, 0x6e, 0x74, 0x5f, 0x61, 0x76, 0x65, 0x72, 0x61, 0x67, 0x65, 0x5f, 
  0x70, 0x6f, 0x6f, 0x6c, 0x69, 0x6e, 0x67, 0x32, 0x64, 0x2f, 0x4d, 0x6f, 
  0x76, 0x69, 0x6e, 0x67, 0x41, 0x76, 0x67, 0x51, 0x75, 0x61, 0x6e, 0x74, 
  0x69, 0x7a, 0x65, 0x2f, 0x46, 0x61, 0x6b, 0x65, 0x51, 0x75, 0x61, 0x6e, 
  0x74, 0x57, 0x69, 0x74, 0x68, 0x4d, 0x69, 0x6e, 0x4d, 0x61, 0x78, 0x56, 
  0x61, 0x72, 0x73, 0x3b, 0x45, 0x45, 0x47, 0x4e, 0x65, 0x74, 0x5f, 0x46, 
  0x75, 0x6e, 0x63, 0x74, 0x69, 0x6f, 0x6e, 0x61, 0x6c, 0x2f, 0x71, 0x75, 
  0x61, 0x6e, 0x74, 0x5f, 0x61, 0x76, 0x65, 0x72, 0x61, 0x67, 0x65, 0x5f, 
  0x70, 0x6f, 0x6f, 0x6c, 0x69, 0x6e, 0x67, 0x32, 0x64, 0x2f, 0x4d, 0x6f, 
  0x76, 0x69, 0x6e, 0x67, 0x41, 0x76, 0x67, 0x51, 0x75, 0x61, 0x6e, 0x74, 
  0x69, 0x7a, 0x65, 0x2f, 0x46, 0x61, 0x6b, 0x65, 0x51, 0x75, 0x61, 0x6e, 
  0x74, 0x57, 0x69, 0x74, 0x68, 0x4d, 0x69, 0x6e, 0x4d, 0x61, 0x78, 0x56, 
  0x61, 0x72, 0x73, 0x2f, 0x52, 0x65, 0x61, 0x64, 0x56, 0x61, 0x72, 0x69, 
  0x61, 0x62, 0x6c, 0x65, 0x4f, 0x70, 0x3b, 0x45, 0x45, 0x47, 0x4e, 0x65, 
  0x74, 0x5f, 0x46, 0x75, 0x6e, 0x63, 0x74, 0x69, 0x6f, 0x6e, 0x61, 0x6c, 
  0x2f, 0x71, 0x75, 0x61, 0x6e, 0x74, 0x5f, 0x61, 0x76, 0x65, 0x72, 0x61, 
  0x67, 0x65, 0x5f, 0x70, 0x6f, 0x6f, 0x6c, 0x69, 0x6e, 0x67, 0x32, 0x64, 
  0x2f, 0x4d, 0x6f, 0x76, 0x69, 0x6e, 0x67, 0x41, 0x76, 0x67, 0x51, 0x75, 
  0x61, 0x6e, 0x74, 0x69, 0x7a, 0x65, 0x2f, 0x46, 0x61, 0x6b, 0x65, 0x51, 
  0x75, 0x61, 0x6e, 0x74, 0x57, 0x69, 0x74, 0x68, 0x4d, 0x69, 0x6e, 0x4d, 
  0x61, 0x78, 0x56, 0x61, 0x72, 0x73, 0x2f, 0x52, 0x65, 0x61, 0x64, 0x56, 
  0x61, 0x72, 0x69, 0x61, 0x62, 0x6c, 0x65, 0x4f, 0x70, 0x5f, 0x31, 0x00, 
  0x04, 0x00, 0x00, 0x00, 0x01, 0x00, 0x00, 0x00, 0x01, 0x00, 0x00, 0x00, 
  0x20, 0x00, 0x00, 0x00, 0x20, 0x00, 0x00, 0x00, 0x9a, 0xe9, 0xff, 0xff, 
  0x00, 0x00, 0x00, 0x01, 0x18, 0x00, 0x00, 0x00, 0x28, 0x00, 0x00, 0x00, 
  0x44, 0x00, 0x00, 0x00, 0x17, 0x00, 0x00, 0x00, 0x00, 0x00, 0x00, 0x09, 
  0x70, 0x00, 0x00, 0x00, 0x04, 0x00, 0x00, 0x00, 0xff, 0xff, 0xff, 0xff, 
  0x01, 0x00, 0x00, 0x00, 0x20, 0x00, 0x00, 0x00, 0x20, 0x00, 0x00, 0x00, 
  0x84, 0xe9, 0xff, 0xff, 0x08, 0x00, 0x00, 0x00, 0x10, 0x00, 0x00, 0x00, 
  0x01, 0x00, 0x00, 0x00, 0x8a, 0xff, 0xff, 0xff, 0xff, 0xff, 0xff, 0xff, 
  0x01, 0x00, 0x00, 0x00, 0x3a, 0xea, 0x46, 0x3d, 0x31, 0x00, 0x00, 0x00, 
  0x45, 0x45, 0x47, 0x4e, 0x65, 0x74, 0x5f, 0x46, 0x75, 0x6e, 0x63, 0x74, 
  0x69, 0x6f, 0x6e, 0x61, 0x6c, 0x2f, 0x71, 0x75, 0x61, 0x6e, 0x74, 0x5f, 
  0x61, 0x76, 0x65, 0x72, 0x61, 0x67, 0x65, 0x5f, 0x70, 0x6f, 0x6f, 0x6c, 
  0x69, 0x6e, 0x67, 0x32, 0x64, 0x2f, 0x41, 0x76, 0x67, 0x50, 0x6f, 0x6f, 
  0x6c, 0x00, 0x00, 0x00, 0x04, 0x00, 0x00, 0x00, 0x01, 0x00, 0x00, 0x00, 
  0x01, 0x00, 0x00, 0x00, 0x20, 0x00, 0x00, 0x00, 0x20, 0x00, 0x00, 0x00, 
  0x3a, 0xea, 0xff, 0xff, 0x00, 0x00, 0x00, 0x01, 0x18, 0x00, 0x00, 0x00, 
  0x28, 0x00, 0x00, 0x00, 0x48, 0x00, 0x00, 0x00, 0x16, 0x00, 0x00, 0x00, 
  0x00, 0x00, 0x00, 0x09, 0x48, 0x01, 0x00, 0x00, 0x04, 0x00, 0x00, 0x00, 
  0xff, 0xff, 0xff, 0xff, 0x01, 0x00, 0x00, 0x00, 0x80, 0x00, 0x00, 0x00, 
  0x20, 0x00, 0x00, 0x00, 0x24, 0xea, 0xff, 0xff, 0x08, 0x00, 0x00, 0x00, 
  0x14, 0x00, 0x00, 0x00, 0x01, 0x00, 0x00, 0x00, 0x8a, 0xff, 0xff, 0xff, 
  0xff, 0xff, 0xff, 0xff, 0x00, 0x00, 0x00, 0x00, 0x01, 0x00, 0x00, 0x00, 
  0x3a, 0xea, 0x46, 0x3d, 0x05, 0x01, 0x00, 0x00, 0x45, 0x45, 0x47, 0x4e, 
  0x65, 0x74, 0x5f, 0x46, 0x75, 0x6e, 0x63, 0x74, 0x69, 0x6f, 0x6e, 0x61, 
  0x6c, 0x2f, 0x71, 0x75, 0x61, 0x6e, 0x74, 0x5f, 0x73, 0x70, 0x61, 0x74, 
  0x69, 0x61, 0x6c, 0x5f, 0x68, 0x73, 0x77, 0x69, 0x73, 0x68, 0x2f, 0x6d, 
  0x75, 0x6c, 0x5f, 0x31, 0x3b, 0x45, 0x45, 0x47, 0x4e, 0x65, 0x74, 0x5f, 
  0x46, 0x75, 0x6e, 0x63, 0x74, 0x69, 0x6f, 0x6e, 0x61, 0x6c, 0x2f, 0x71, 
  0x75, 0x61, 0x6e, 0x74, 0x5f, 0x73, 0x65, 0x70, 0x5f, 0x68, 0x73, 0x77, 
  0x69, 0x73, 0x68, 0x2f, 0x43, 0x61, 0x73, 0x74, 0x2f, 0x78, 0x3b, 0x45, 
  0x45, 0x47, 0x4e, 0x65, 0x74, 0x5f, 0x46, 0x75, 0x6e, 0x63, 0x74, 0x69, 
  0x6f, 0x6e, 0x61, 0x6c, 0x2f, 0x71, 0x75, 0x61, 0x6e, 0x74, 0x5f, 0x73, 
  0x70, 0x61, 0x74, 0x69, 0x61, 0x6c, 0x5f, 0x68, 0x73, 0x77, 0x69, 0x73, 
  0x68, 0x2f, 0x52, 0x65, 0x6c, 0x75, 0x36, 0x3b, 0x45, 0x45, 0x47, 0x4e, 
  0x65, 0x74, 0x5f, 0x46, 0x75, 0x6e, 0x63, 0x74, 0x69, 0x6f, 0x6e, 0x61, 
  0x6c, 0x2f, 0x71, 0x75, 0x61, 0x6e, 0x74, 0x5f, 0x73, 0x70, 0x61, 0x74, 
  0x69, 0x61, 0x6c, 0x5f, 0x68, 0x73, 0x77, 0x69, 0x73, 0x68, 0x2f, 0x61, 
  0x64, 0x64, 0x3b, 0x45, 0x45, 0x47, 0x4e, 0x65, 0x74, 0x5f, 0x46, 0x75, 
  0x6e, 0x63, 0x74, 0x69, 0x6f, 0x6e, 0x61, 0x6c, 0x2f, 0x71, 0x75, 0x61, 
  0x6e, 0x74, 0x5f, 0x73, 0x70, 0x61, 0x74, 0x69, 0x61, 0x6c, 0x5f, 0x68, 
  0x73, 0x77, 0x69, 0x73, 0x68, 0x2f, 0x6d, 0x75, 0x6c, 0x3b, 0x45, 0x45, 
  0x47, 0x4e, 0x65, 0x74, 0x5f, 0x46, 0x75, 0x6e, 0x63, 0x74, 0x69, 0x6f, 
  0x6e, 0x61, 0x6c, 0x2f, 0x71, 0x75, 0x61, 0x6e, 0x74, 0x5f, 0x73, 0x65, 
  0x70, 0x5f, 0x68, 0x73, 0x77, 0x69, 0x73, 0x68, 0x2f, 0x43, 0x61, 0x73, 
  0x74, 0x5f, 0x31, 0x2f, 0x78, 0x00, 0x00, 0x00, 0x04, 0x00, 0x00, 0x00, 
  0x01, 0x00, 0x00, 0x00, 0x01, 0x00, 0x00, 0x00, 0x80, 0x00, 0x00, 0x00, 
  0x20, 0x00, 0x00, 0x00, 0xb2, 0xeb, 0xff, 0xff, 0x00, 0x00, 0x00, 0x01, 
  0x18, 0x00, 0x00, 0x00, 0x28, 0x00, 0x00, 0x00, 0x44, 0x00, 0x00, 0x00, 
  0x15, 0x00, 0x00, 0x00, 0x00, 0x00, 0x00, 0x09, 0x78, 0x00, 0x00, 0x00, 
  0x04, 0x00, 0x00, 0x00, 0xff, 0xff, 0xff, 0xff, 0x01, 0x00, 0x00, 0x00, 
  0x80, 0x00, 0x00, 0x00, 0x20, 0x00, 0x00, 0x00, 0x9c, 0xeb, 0xff, 0xff, 
  0x08, 0x00, 0x00, 0x00, 0x10, 0x00, 0x00, 0x00, 0x01, 0x00, 0x00, 0x00, 
  0x05, 0x00, 0x00, 0x00, 0x00, 0x00, 0x00, 0x00, 0x01, 0x00, 0x00, 0x00, 
  0xda, 0xb5, 0x85, 0x3d, 0x39, 0x00, 0x00, 0x00, 0x45, 0x45, 0x47, 0x4e, 
  0x65, 0x74, 0x5f, 0x46, 0x75, 0x6e, 0x63, 0x74, 0x69, 0x6f, 0x6e, 0x61, 
  0x6c, 0x2f, 0x62, 0x61, 0x74, 0x63, 0x68, 0x5f, 0x6e, 0x6f, 0x72, 0x6d, 
  0x61, 0x6c, 0x69, 0x7a, 0x61, 0x74, 0x69, 0x6f, 0x6e, 0x5f, 0x31, 0x2f, 
  0x46, 0x75, 0x73, 0x65, 0x64, 0x42, 0x61, 0x74, 0x63, 0x68, 0x4e, 0x6f, 
  0x72, 0x6d, 0x56, 0x33, 0x33, 0x00, 0x00, 0x00, 0x04, 0x00, 0x00, 0x00, 
  0x01, 0x00, 0x00, 0x00, 0x01, 0x00, 0x00, 0x00, 0x80, 0x00, 0x00, 0x00, 
  0x20, 0x00, 0x00, 0x00, 0x5a, 0xec, 0xff, 0xff, 0x00, 0x00, 0x00, 0x01, 
  0x18, 0x00, 0x00, 0x00, 0x28, 0x00, 0x00, 0x00, 0x44, 0x00, 0x00, 0x00, 
  0x14, 0x00, 0x00, 0x00, 0x00, 0x00, 0x00, 0x09, 0x78, 0x00, 0x00, 0x00, 
  0x04, 0x00, 0x00, 0x00, 0xff, 0xff, 0xff, 0xff, 0x01, 0x00, 0x00, 0x00, 
  0x80, 0x00, 0x00, 0x00, 0x20, 0x00, 0x00, 0x00, 0x44, 0xec, 0xff, 0xff, 
  0x08, 0x00, 0x00, 0x00, 0x10, 0x00, 0x00, 0x00, 0x01, 0x00, 0x00, 0x00, 
  0x04, 0x00, 0x00, 0x00, 0x00, 0x00, 0x00, 0x00, 0x01, 0x00, 0x00, 0x00, 
  0x66, 0xcc, 0x86, 0x3d, 0x39, 0x00, 0x00, 0x00, 0x45, 0x45, 0x47, 0x4e, 
  0x65, 0x74, 0x5f, 0x46, 0x75, 0x6e, 0x63, 0x74, 0x69, 0x6f, 0x6e, 0x61, 
  0x6c, 0x2f, 0x62, 0x61, 0x74, 0x63, 0x68, 0x5f, 0x6e, 0x6f, 0x72, 0x6d, 
  0x61, 0x6c, 0x69, 0x7a, 0x61, 0x74, 0x69, 0x6f, 0x6e, 0x5f, 0x31, 0x2f, 
  0x46, 0x75, 0x73, 0x65, 0x64, 0x42, 0x61, 0x74, 0x63, 0x68, 0x4e, 0x6f, 
  0x72, 0x6d, 0x56, 0x33, 0x32, 0x00, 0x00, 0x00, 0x04, 0x00, 0x00, 0x00, 
  0x01, 0x00, 0x00, 0x00, 0x01, 0x00, 0x00, 0x00, 0x80, 0x00, 0x00, 0x00, 
  0x20, 0x00, 0x00, 0x00, 0x02, 0xed, 0xff, 0xff, 0x00, 0x00, 0x00, 0x01, 
  0x18, 0x00, 0x00, 0x00, 0x28, 0x00, 0x00, 0x00, 0x44, 0x00, 0x00, 0x00, 
  0x13, 0x00, 0x00, 0x00, 0x00, 0x00, 0x00, 0x09, 0x70, 0x00, 0x00, 0x00, 
  0x04, 0x00, 0x00, 0x00, 0xff, 0xff, 0xff, 0xff, 0x01, 0x00, 0x00, 0x00, 
  0x80, 0x00, 0x00, 0x00, 0x20, 0x00, 0x00, 0x00, 0xec, 0xec, 0xff, 0xff, 
  0x08, 0x00, 0x00, 0x00, 0x10, 0x00, 0x00, 0x00, 0x01, 0x00, 0x00, 0x00, 
  0xff, 0xff, 0xff, 0xff, 0xff, 0xff, 0xff, 0xff, 0x01, 0x00, 0x00, 0x00, 
  0xc5, 0x81, 0x12, 0x3d, 0x32, 0x00, 0x00, 0x00, 0x45, 0x45, 0x47, 0x4e, 
  0x65, 0x74, 0x5f, 0x46, 0x75, 0x6e, 0x63, 0x74, 0x69, 0x6f, 0x6e, 0x61, 
  0x6c, 0x2f, 0x71, 0x75, 0x61, 0x6e, 0x74, 0x5f, 0x64, 0x65, 0x70, 0x74, 
  0x68, 0x77, 0x69, 0x73, 0x65, 0x5f, 0x63, 0x6f, 0x6e, 0x76, 0x32, 0x64, 
  0x2f, 0x64, 0x65, 0x70, 0x74, 0x68, 0x77, 0x69, 0x73, 0x65, 0x00, 0x00, 
  0x04, 0x00, 0x00, 0x00, 0x01, 0x00, 0x00, 0x00, 0x01, 0x00, 0x00, 0x00, 
  0x80, 0x00, 0x00, 0x00, 0x20, 0x00, 0x00, 0x00, 0xa2, 0xed, 0xff, 0xff, 
  0x00, 0x00, 0x00, 0x01, 0x18, 0x00, 0x00, 0x00, 0x28, 0x00, 0x00, 0x00, 
  0x48, 0x00, 0x00, 0x00, 0x12, 0x00, 0x00, 0x00, 0x00, 0x00, 0x00, 0x09, 
  0x78, 0x00, 0x00, 0x00, 0x04, 0x00, 0x00, 0x00, 0xff, 0xff, 0xff, 0xff, 
  0x10, 0x00, 0x00, 0x00, 0x80, 0x00, 0x00, 0x00, 0x10, 0x00, 0x00, 0x00, 
  0x8c, 0xed, 0xff, 0xff, 0x08, 0x00, 0x00, 0x00, 0x14, 0x00, 0x00, 0x00, 
  0x01, 0x00, 0x00, 0x00, 0x09, 0x00, 0x00, 0x00, 0x00, 0x00, 0x00, 0x00, 
  0x00, 0x00, 0x00, 0x00, 0x01, 0x00, 0x00, 0x00, 0xe8, 0x41, 0x8b, 0x3d, 
  0x37, 0x00, 0x00, 0x00, 0x45, 0x45, 0x47, 0x4e, 0x65, 0x74, 0x5f, 0x46, 
  0x75, 0x6e, 0x63, 0x74, 0x69, 0x6f, 0x6e, 0x61, 0x6c, 0x2f, 0x62, 0x61, 
  0x74, 0x63, 0x68, 0x5f, 0x6e, 0x6f, 0x72, 0x6d, 0x61, 0x6c, 0x69, 0x7a, 
  0x61, 0x74, 0x69, 0x6f, 0x6e, 0x2f, 0x46, 0x75, 0x73, 0x65, 0x64, 0x42, 
  0x61, 0x74, 0x63, 0x68, 0x4e, 0x6f, 0x72, 0x6d, 0x56, 0x33, 0x33, 0x00, 
  0x04, 0x00, 0x00, 0x00, 0x01, 0x00, 0x00, 0x00, 0x10, 0x00, 0x00, 0x00, 
  0x80, 0x00, 0x00, 0x00, 0x10, 0x00, 0x00, 0x00, 0x4a, 0xee, 0xff, 0xff, 
  0x00, 0x00, 0x00, 0x01, 0x18, 0x00, 0x00, 0x00, 0x28, 0x00, 0x00, 0x00, 
  0x48, 0x00, 0x00, 0x00, 0x11, 0x00, 0x00, 0x00, 0x00, 0x00, 0x00, 0x09, 
  0x78, 0x00, 0x00, 0x00, 0x04, 0x00, 0x00, 0x00, 0xff, 0xff, 0xff, 0xff, 
  0x10, 0x00, 0x00, 0x00, 0x80, 0x00, 0x00, 0x00, 0x10, 0x00, 0x00, 0x00, 
  0x34, 0xee, 0xff, 0xff, 0x08, 0x00, 0x00, 0x00, 0x14, 0x00, 0x00, 0x00, 
  0x01, 0x00, 0x00, 0x00, 0x09, 0x00, 0x00, 0x00, 0x00, 0x00, 0x00, 0x00, 
  0x00, 0x00, 0x00, 0x00, 0x01, 0x00, 0x00, 0x00, 0xbe, 0x53, 0x8b, 0x3d, 
  0x37, 0x00, 0x00, 0x00, 0x45, 0x45, 0x47, 0x4e, 0x65, 0x74, 0x5f, 0x46, 
  0x75, 0x6e, 0x63, 0x74, 0x69, 0x6f, 0x6e, 0x61, 0x6c, 0x2f, 0x62, 0x61, 
  0x74, 0x63, 0x68, 0x5f, 0x6e, 0x6f, 0x72, 0x6d, 0x61, 0x6c, 0x69, 0x7a, 
  0x61, 0x74, 0x69, 0x6f, 0x6e, 0x2f, 0x46, 0x75, 0x73, 0x65, 0x64, 0x42, 
  0x61, 0x74, 0x63, 0x68, 0x4e, 0x6f, 0x72, 0x6d, 0x56, 0x33, 0x32, 0x00, 
  0x04, 0x00, 0x00, 0x00, 0x01, 0x00, 0x00, 0x00, 0x10, 0x00, 0x00, 0x00, 
  0x80, 0x00, 0x00, 0x00, 0x10, 0x00, 0x00, 0x00, 0xf2, 0xee, 0xff, 0xff, 
  0x00, 0x00, 0x00, 0x01, 0x18, 0x00, 0x00, 0x00, 0x28, 0x00, 0x00, 0x00, 
  0x48, 0x00, 0x00, 0x00, 0x10, 0x00, 0x00, 0x00, 0x00, 0x00, 0x00, 0x09, 
  0x68, 0x00, 0x00, 0x00, 0x04, 0x00, 0x00, 0x00, 0xff, 0xff, 0xff, 0xff, 
  0x10, 0x00, 0x00, 0x00, 0x80, 0x00, 0x00, 0x00, 0x10, 0x00, 0x00, 0x00, 
  0xdc, 0xee, 0xff, 0xff, 0x08, 0x00, 0x00, 0x00, 0x14, 0x00, 0x00, 0x00, 
  0x01, 0x00, 0x00, 0x00, 0x00, 0x00, 0x00, 0x00, 0x00, 0x00, 0x00, 0x00, 
  0x00, 0x00, 0x00, 0x00, 0x01, 0x00, 0x00, 0x00, 0x10, 0xed, 0xba, 0x3c, 
  0x26, 0x00, 0x00, 0x00, 0x45, 0x45, 0x47, 0x4e, 0x65, 0x74, 0x5f, 0x46, 
  0x75, 0x6e, 0x63, 0x74, 0x69, 0x6f, 0x6e, 0x61, 0x6c, 0x2f, 0x71, 0x75, 
  0x61, 0x6e, 0x74, 0x5f, 0x63, 0x6f, 0x6e, 0x76, 0x32, 0x64, 0x2f, 0x43, 
  0x6f, 0x6e, 0x76, 0x32, 0x44, 0x31, 0x00, 0x00, 0x04, 0x00, 0x00, 0x00, 
  0x01, 0x00, 0x00, 0x00, 0x10, 0x00, 0x00, 0x00, 0x80, 0x00, 0x00, 0x00, 
  0x10, 0x00, 0x00, 0x00, 0xfa, 0xef, 0xff, 0xff, 0x00, 0x00, 0x00, 0x01, 
  0x14, 0x00, 0x00, 0x00, 0xe8, 0x00, 0x00, 0x00, 0x0f, 0x00, 0x00, 0x00, 
  0x00, 0x00, 0x00, 0x02, 0x08, 0x01, 0x00, 0x00, 0x5c, 0xef, 0xff, 0xff, 
  0x08, 0x00, 0x00, 0x00, 0x8c, 0x00, 0x00, 0x00, 0x10, 0x00, 0x00, 0x00, 
  0x00, 0x00, 0x00, 0x00, 0x00, 0x00, 0x00, 0x00, 0x00, 0x00, 0x00, 0x00, 
  0x00, 0x00, 0x00, 0x00, 0x00, 0x00, 0x00, 0x00, 0x00, 0x00, 0x00, 0x00, 
  0x00, 0x00, 0x00, 0x00, 0x00, 0x00, 0x00, 0x00, 0x00, 0x00, 0x00, 0x00, 
  0x00, 0x00, 0x00, 0x00, 0x00, 0x00, 0x00, 0x00, 0x00, 0x00, 0x00, 0x00, 
  0x00, 0x00, 0x00, 0x00, 0x00, 0x00, 0x00, 0x00, 0x00, 0x00, 0x00, 0x00, 
  0x00, 0x00, 0x00, 0x00, 0x00, 0x00, 0x00, 0x00, 0x00, 0x00, 0x00, 0x00, 
  0x00, 0x00, 0x00, 0x00, 0x00, 0x00, 0x00, 0x00, 0x00, 0x00, 0x00, 0x00, 
  0x00, 0x00, 0x00, 0x00, 0x00, 0x00, 0x00, 0x00, 0x00, 0x00, 0x00, 0x00, 
  0x00, 0x00, 0x00, 0x00, 0x00, 0x00, 0x00, 0x00, 0x00, 0x00, 0x00, 0x00, 
  0x00, 0x00, 0x00, 0x00, 0x00, 0x00, 0x00, 0x00, 0x00, 0x00, 0x00, 0x00, 
  0x00, 0x00, 0x00, 0x00, 0x00, 0x00, 0x00, 0x00, 0x00, 0x00, 0x00, 0x00, 
  0x10, 0x00, 0x00, 0x00, 0xcf, 0xdc, 0xa7, 0x38, 0x8e, 0x49, 0xa2, 0x38, 
  0xea, 0xb8, 0xa4, 0x38, 0x2a, 0xb6, 0x93, 0x38, 0x68, 0x1e, 0x8e, 0x38, 
  0x13, 0x0f, 0xb4, 0x38, 0x91, 0x7f, 0x8f, 0x38, 0x22, 0xaf, 0x7f, 0x38, 
  0x05, 0xdc, 0xad, 0x38, 0x0e, 0x5f, 0x87, 0x38, 0x95, 0x47, 0x96, 0x38, 
  0xcb, 0xa9, 0x8b, 0x38, 0xc6, 0xb1, 0xb2, 0x38, 0x04, 0xea, 0x94, 0x38, 
  0xd6, 0xea, 0x9d, 0x38, 0xdb, 0x07, 0xb9, 0x38, 0x25, 0x00, 0x00, 0x00, 
  0x45, 0x45, 0x47, 0x4e, 0x65, 0x74, 0x5f, 0x46, 0x75, 0x6e, 0x63, 0x74, 
  0x69, 0x6f, 0x6e, 0x61, 0x6c, 0x2f, 0x71, 0x75, 0x61, 0x6e, 0x74, 0x5f, 
  0x63, 0x6f, 0x6e, 0x76, 0x32, 0x64, 0x2f, 0x43, 0x6f, 0x6e, 0x76, 0x32, 
  0x44, 0x00, 0x00, 0x00, 0x01, 0x00, 0x00, 0x00, 0x10, 0x00, 0x00, 0x00, 
  0x22, 0xf1, 0xff, 0xff, 0x00, 0x00, 0x00, 0x01, 0x14, 0x00, 0x00, 0x00, 
  0xe4, 0x00, 0x00, 0x00, 0x0e, 0x00, 0x00, 0x00, 0x00, 0x00, 0x00, 0x09, 
  0x54, 0x01, 0x00, 0x00, 0x84, 0xf0, 0xff, 0xff, 0x08, 0x00, 0x00, 0x00, 
  0x88, 0x00, 0x00, 0x00, 0x10, 0x00, 0x00, 0x00, 0x00, 0x00, 0x00, 0x00, 
  0x00, 0x00, 0x00, 0x00, 0x00, 0x00, 0x00, 0x00, 0x00, 0x00, 0x00, 0x00, 
  0x00, 0x00, 0x00, 0x00, 0x00, 0x00, 0x00, 0x00, 0x00, 0x00, 0x00, 0x00, 
  0x00, 0x00, 0x00, 0x00, 0x00, 0x00, 0x00, 0x00, 0x00, 0x00, 0x00, 0x00, 
  0x00, 0x00, 0x00, 0x00, 0x00, 0x00, 0x00, 0x00, 0x00, 0x00, 0x00, 0x00, 
  0x00, 0x00, 0x00, 0x00, 0x00, 0x00, 0x00, 0x00, 0x00, 0x00, 0x00, 0x00, 
  0x00, 0x00, 0x00, 0x00, 0x00, 0x00, 0x00, 0x00, 0x00, 0x00, 0x00, 0x00, 
  0x00, 0x00, 0x00, 0x00, 0x00, 0x00, 0x00, 0x00, 0x00, 0x00, 0x00, 0x00, 
  0x00, 0x00, 0x00, 0x00, 0x00, 0x00, 0x00, 0x00, 0x00, 0x00, 0x00, 0x00, 
  0x00, 0x00, 0x00, 0x00, 0x00, 0x00, 0x00, 0x00, 0x00, 0x00, 0x00, 0x00, 
  0x00, 0x00, 0x00, 0x00, 0x00, 0x00, 0x00, 0x00, 0x00, 0x00, 0x00, 0x00, 
  0x00, 0x00, 0x00, 0x00, 0x10, 0x00, 0x00, 0x00, 0x62, 0x8f, 0x71, 0x3a, 
  0x84, 0x89, 0x69, 0x3a, 0x8c, 0x0a, 0x6d, 0x3a, 0xe9, 0x8f, 0x54, 0x3a, 
  0x90, 0x83, 0x4c, 0x3a, 0x37, 0x8e, 0x81, 0x3a, 0xc6, 0x7f, 0x4e, 0x3a, 
  0x1e, 0xf8, 0x37, 0x3a, 0x9a, 0x30, 0x7a, 0x3a, 0xd8, 0xcd, 0x42, 0x3a, 
  0xf6, 0x41, 0x58, 0x3a, 0xf7, 0xfa, 0x48, 0x3a, 0xe3, 0x92, 0x80, 0x3a, 
  0xec, 0x4a, 0x56, 0x3a, 0xa3, 0x3f, 0x63, 0x3a, 0x01, 0x22, 0x85, 0x3a, 
  0x75, 0x00, 0x00, 0x00, 0x45, 0x45, 0x47, 0x4e, 0x65, 0x74, 0x5f, 0x46, 
  0x75, 0x6e, 0x63, 0x74, 0x69, 0x6f, 0x6e, 0x61, 0x6c, 0x2f, 0x71, 0x75, 
  0x61, 0x6e, 0x74, 0x5f, 0x63, 0x6f, 0x6e, 0x76, 0x32, 0x64, 0x2f, 0x43, 
  0x6f, 0x6e, 0x76, 0x32, 0x44, 0x3b, 0x45, 0x45, 0x47, 0x4e, 0x65, 0x74, 
  0x5f, 0x46, 0x75, 0x6e, 0x63, 0x74, 0x69, 0x6f, 0x6e, 0x61, 0x6c, 0x2f, 
  0x71, 0x75, 0x61, 0x6e, 0x74, 0x5f, 0x63, 0x6f, 0x6e, 0x76, 0x32, 0x64, 
  0x2f, 0x4c, 0x61, 0x73, 0x74, 0x56, 0x61, 0x6c, 0x75, 0x65, 0x51, 0x75, 
  0x61, 0x6e, 0x74, 0x2f, 0x46, 0x61, 0x6b, 0x65, 0x51, 0x75, 0x61, 0x6e, 
  0x74, 0x57, 0x69, 0x74, 0x68, 0x4d, 0x69, 0x6e, 0x4d, 0x61, 0x78, 0x56, 
  0x61, 0x72, 0x73, 0x50, 0x65, 0x72, 0x43, 0x68, 0x61, 0x6e, 0x6e, 0x65, 
  0x6c, 0x00, 0x00, 0x00, 0x04, 0x00, 0x00, 0x00, 0x10, 0x00, 0x00, 0x00, 
  0x01, 0x00, 0x00, 0x00, 0x40, 0x00, 0x00, 0x00, 0x01, 0x00, 0x00, 0x00, 
  0x32, 0xf2, 0xff, 0xff, 0x00, 0x00, 0x00, 0x01, 0x18, 0x00, 0x00, 0x00, 
  0x28, 0x00, 0x00, 0x00, 0x44, 0x00, 0x00, 0x00, 0x0d, 0x00, 0x00, 0x00, 
  0x00, 0x00, 0x00, 0x09, 0x40, 0x01, 0x00, 0x00, 0x04, 0x00, 0x00, 0x00, 
  0xff, 0xff, 0xff, 0xff, 0x10, 0x00, 0x00, 0x00, 0x80, 0x00, 0x00, 0x00, 
  0x01, 0x00, 0x00, 0x00, 0x1c, 0xf2, 0xff, 0xff, 0x08, 0x00, 0x00, 0x00, 
  0x10, 0x00, 0x00, 0x00, 0x01, 0x00, 0x00, 0x00, 0x00, 0x00, 0x00, 0x00, 
  0x00, 0x00, 0x00, 0x00, 0x01, 0x00, 0x00, 0x00, 0xa0, 0xe5, 0xb1, 0x3d, 
  0x00, 0x01, 0x00, 0x00, 0x45, 0x45, 0x47, 0x4e, 0x65, 0x74, 0x5f, 0x46, 
  0x75, 0x6e, 0x63, 0x74, 0x69, 0x6f, 0x6e, 0x61, 0x6c, 0x2f, 0x71, 0x75, 
  0x61, 0x6e, 0x74, 0x69, 0x7a, 0x65, 0x5f, 0x6c, 0x61, 0x79, 0x65, 0x72, 
  0x2f, 0x41, 0x6c, 0x6c, 0x56, 0x61, 0x6c, 0x75, 0x65, 0x73, 0x51, 0x75, 
  0x61, 0x6e, 0x74, 0x69, 0x7a, 0x65, 0x2f, 0x46, 0x61, 0x6b, 0x65, 0x51, 
  0x75, 0x61, 0x6e, 0x74, 0x57, 0x69, 0x74, 0x68, 0x4d, 0x69, 0x6e, 0x4d, 
  0x61, 0x78, 0x56, 0x61, 0x72, 0x73, 0x3b, 0x45, 0x45, 0x47, 0x4e, 0x65, 
  0x74, 0x5f, 0x46, 0x75, 0x6e, 0x63, 0x74, 0x69, 0x6f, 0x6e, 0x61, 0x6c, 
  0x2f, 0x71, 0x75, 0x61, 0x6e, 0x74, 0x69, 0x7a, 0x65, 0x5f, 0x6c, 0x61, 
  0x79, 0x65, 0x72, 0x2f, 0x41, 0x6c, 0x6c, 0x56, 0x61, 0x6c, 0x75, 0x65, 
  0x73, 0x51, 0x75, 0x61, 0x6e, 0x74, 0x69, 0x7a, 0x65, 0x2f, 0x46, 0x61, 
  0x6b, 0x65, 0x51, 0x75, 0x61, 0x6e, 0x74, 0x57, 0x69, 0x74, 0x68, 0x4d, 
  0x69, 0x6e, 0x4d, 0x61, 0x78, 0x56, 0x61, 0x72, 0x73, 0x2f, 0x52, 0x65, 
  0x61, 0x64, 0x56, 0x61, 0x72, 0x69, 0x61, 0x62, 0x6c, 0x65, 0x4f, 0x70, 
  0x3b, 0x45, 0x45, 0x47, 0x4e, 0x65, 0x74, 0x5f, 0x46, 0x75, 0x6e, 0x63, 
  0x74, 0x69, 0x6f, 0x6e, 0x61, 0x6c, 0x2f, 0x71, 0x75, 0x61, 0x6e, 0x74, 
  0x69, 0x7a, 0x65, 0x5f, 0x6c, 0x61, 0x79, 0x65, 0x72, 0x2f, 0x41, 0x6c, 
  0x6c, 0x56, 0x61, 0x6c, 0x75, 0x65, 0x73, 0x51, 0x75, 0x61, 0x6e, 0x74, 
  0x69, 0x7a, 0x65, 0x2f, 0x46, 0x61, 0x6b, 0x65, 0x51, 0x75, 0x61, 0x6e, 
  0x74, 0x57, 0x69, 0x74, 0x68, 0x4d, 0x69, 0x6e, 0x4d, 0x61, 0x78, 0x56, 
  0x61, 0x72, 0x73, 0x2f, 0x52, 0x65, 0x61, 0x64, 0x56, 0x61, 0x72, 0x69, 
  0x61, 0x62, 0x6c, 0x65, 0x4f, 0x70, 0x5f, 0x31, 0x00, 0x00, 0x00, 0x00, 
  0x04, 0x00, 0x00, 0x00, 0x01, 0x00, 0x00, 0x00, 0x10, 0x00, 0x00, 0x00, 
  0x80, 0x00, 0x00, 0x00, 0x01, 0x00, 0x00, 0x00, 0x12, 0xf4, 0xff, 0xff, 
  0x00, 0x00, 0x00, 0x01, 0x14, 0x00, 0x00, 0x00, 0x30, 0x00, 0x00, 0x00, 
  0x0c, 0x00, 0x00, 0x00, 0x00, 0x00, 0x00, 0x09, 0x60, 0x00, 0x00, 0x00, 
  0x74, 0xf3, 0xff, 0xff, 0x08, 0x00, 0x00, 0x00, 0x10, 0x00, 0x00, 0x00, 
  0x01, 0x00, 0x00, 0x00, 0x80, 0xff, 0xff, 0xff, 0xff, 0xff, 0xff, 0xff, 
  0x01, 0x00, 0x00, 0x00, 0x53, 0x23, 0xd6, 0x3c, 0x36, 0x00, 0x00, 0x00, 
  0x45, 0x45, 0x47, 0x4e, 0x65, 0x74, 0x5f, 0x46, 0x75, 0x6e, 0x63, 0x74, 
  0x69, 0x6f, 0x6e, 0x61, 0x6c, 0x2f, 0x62, 0x61, 0x74, 0x63, 0x68, 0x5f, 
  0x6e, 0x6f, 0x72, 0x6d, 0x61, 0x6c, 0x69, 0x7a, 0x61, 0x74, 0x69, 0x6f, 
  0x6e, 0x2f, 0x46, 0x75, 0x73, 0x65, 0x64, 0x42, 0x61, 0x74, 0x63, 0x68, 
  0x4e, 0x6f, 0x72, 0x6d, 0x56, 0x33, 0x00, 0x00, 0x01, 0x00, 0x00, 0x00, 
  0x10, 0x00, 0x00, 0x00, 0x92, 0xf4, 0xff, 0xff, 0x00, 0x00, 0x00, 0x01, 
  0x14, 0x00, 0x00, 0x00, 0x34, 0x00, 0x00, 0x00, 0x0b, 0x00, 0x00, 0x00, 
  0x00, 0x00, 0x00, 0x09, 0x64, 0x00, 0x00, 0x00, 0xf4, 0xf3, 0xff, 0xff, 
  0x08, 0x00, 0x00, 0x00, 0x14, 0x00, 0x00, 0x00, 0x01, 0x00, 0x00, 0x00, 
  0x06, 0x00, 0x00, 0x00, 0x00, 0x00, 0x00, 0x00, 0x00, 0x00, 0x00, 0x00, 
  0x01, 0x00, 0x00, 0x00, 0xa8, 0x2f, 0x8c, 0x38, 0x37, 0x00, 0x00, 0x00, 
  0x45, 0x45, 0x47, 0x4e, 0x65, 0x74, 0x5f, 0x46, 0x75, 0x6e, 0x63, 0x74, 
  0x69, 0x6f, 0x6e, 0x61, 0x6c, 0x2f, 0x62, 0x61, 0x74, 0x63, 0x68, 0x5f, 
  0x6e, 0x6f, 0x72, 0x6d, 0x61, 0x6c, 0x69, 0x7a, 0x61, 0x74, 0x69, 0x6f, 
  0x6e, 0x2f, 0x46, 0x75, 0x73, 0x65, 0x64, 0x42, 0x61, 0x74, 0x63, 0x68, 
  0x4e, 0x6f, 0x72, 0x6d, 0x56, 0x33, 0x31, 0x00, 0x01, 0x00, 0x00, 0x00, 
  0x10, 0x00, 0x00, 0x00, 0x16, 0xf5, 0xff, 0xff, 0x00, 0x00, 0x00, 0x01, 
  0x14, 0x00, 0x00, 0x00, 0xa8, 0x01, 0x00, 0x00, 0x0a, 0x00, 0x00, 0x00, 
  0x00, 0x00, 0x00, 0x09, 0x30, 0x02, 0x00, 0x00, 0x92, 0xf8, 0xff, 0xff, 
  0x03, 0x00, 0x00, 0x00, 0x08, 0x00, 0x00, 0x00, 0x08, 0x01, 0x00, 0x00, 
  0x20, 0x00, 0x00, 0x00, 0x00, 0x00, 0x00, 0x00, 0x00, 0x00, 0x00, 0x00, 
  0x00, 0x00, 0x00, 0x00, 0x00, 0x00, 0x00, 0x00, 0x00, 0x00, 0x00, 0x00, 
  0x00, 0x00, 0x00, 0x00, 0x00, 0x00, 0x00, 0x00, 0x00, 0x00, 0x00, 0x00, 
  0x00, 0x00, 0x00, 0x00, 0x00, 0x00, 0x00, 0x00, 0x00, 0x00, 0x00, 0x00, 
  0x00, 0x00, 0x00, 0x00, 0x00, 0x00, 0x00, 0x00, 0x00, 0x00, 0x00, 0x00, 
  0x00, 0x00, 0x00, 0x00, 0x00, 0x00, 0x00, 0x00, 0x00, 0x00, 0x00, 0x00, 
  0x00, 0x00, 0x00, 0x00, 0x00, 0x00, 0x00, 0x00, 0x00, 0x00, 0x00, 0x00, 
  0x00, 0x00, 0x00, 0x00, 0x00, 0x00, 0x00, 0x00, 0x00, 0x00, 0x00, 0x00, 
  0x00, 0x00, 0x00, 0x00, 0x00, 0x00, 0x00, 0x00, 0x00, 0x00, 0x00, 0x00, 
  0x00, 0x00, 0x00, 0x00, 0x00, 0x00, 0x00, 0x00, 0x00, 0x00, 0x00, 0x00, 
  0x00, 0x00, 0x00, 0x00, 0x00, 0x00, 0x00, 0x00, 0x00, 0x00, 0x00, 0x00, 
  0x00, 0x00, 0x00, 0x00, 0x00, 0x00, 0x00, 0x00, 0x00, 0x00, 0x00, 0x00, 
  0x00, 0x00, 0x00, 0x00, 0x00, 0x00, 0x00, 0x00, 0x00, 0x00, 0x00, 0x00, 
  0x00, 0x00, 0x00, 0x00, 0x00, 0x00, 0x00, 0x00, 0x00, 0x00, 0x00, 0x00, 
  0x00, 0x00, 0x00, 0x00, 0x00, 0x00, 0x00, 0x00, 0x00, 0x00, 0x00, 0x00, 
  0x00, 0x00, 0x00, 0x00, 0x00, 0x00, 0x00, 0x00, 0x00, 0x00, 0x00, 0x00, 
  0x00, 0x00, 0x00, 0x00, 0x00, 0x00, 0x00, 0x00, 0x00, 0x00, 0x00, 0x00, 
  0x00, 0x00, 0x00, 0x00, 0x00, 0x00, 0x00, 0x00, 0x00, 0x00, 0x00, 0x00, 
  0x00, 0x00, 0x00, 0x00, 0x00, 0x00, 0x00, 0x00, 0x00, 0x00, 0x00, 0x00, 
  0x00, 0x00, 0x00, 0x00, 0x00, 0x00, 0x00, 0x00, 0x00, 0x00, 0x00, 0x00, 
  0x00, 0x00, 0x00, 0x00, 0x00, 0x00, 0x00, 0x00, 0x00, 0x00, 0x00, 0x00, 
  0x00, 0x00, 0x00, 0x00, 0x00, 0x00, 0x00, 0x00, 0x20, 0x00, 0x00, 0x00, 
  0x3f, 0xcd, 0xa6, 0x3a, 0x01, 0x52, 0xad, 0x3a, 0x74, 0x3b, 0x6a, 0x3a, 
  0x16, 0x4e, 0x94, 0x3a, 0x65, 0xff, 0xb4, 0x3a, 0x20, 0xcc, 0x87, 0x3a, 
  0xd5, 0xd4, 0x96, 0x3a, 0x78, 0x99, 0xa2, 0x3a, 0x65, 0xff, 0xb4, 0x3a, 
  0xbc, 0xf5, 0xa7, 0x3a, 0x97, 0xac, 0xaf, 0x3a, 0x80, 0x8c, 0xc4, 0x3a, 
  0x97, 0xac, 0xaf, 0x3a, 0xbc, 0xf5, 0xa7, 0x3a, 0x06, 0x82, 0x91, 0x3a, 
  0x95, 0x88, 0xab, 0x3a, 0xd0, 0xf7, 0xc4, 0x3a, 0xb0, 0xec, 0xe2, 0x3a, 
  0x1c, 0x5c, 0xe1, 0x3a, 0x63, 0x9d, 0xbb, 0x3a, 0x02, 0xa5, 0xbf, 0x3a, 
  0xf7, 0xd3, 0xb9, 0x3a, 0xc5, 0x7c, 0xd8, 0x3a, 0x3b, 0x30, 0xbf, 0x3a, 
  0x20, 0x39, 0xb3, 0x3a, 0x93, 0xfd, 0xd9, 0x3a, 0xd8, 0x95, 0x5f, 0x3a, 
  0x0c, 0xd0, 0xa0, 0x3a, 0xef, 0x8b, 0xb8, 0x3a, 0xba, 0x6a, 0xd6, 0x3a, 
  0x52, 0xe6, 0xad, 0x3a, 0x7e, 0x01, 0x73, 0x3a, 0x8c, 0x00, 0x00, 0x00, 
  0x45, 0x45, 0x47, 0x4e, 0x65, 0x74, 0x5f, 0x46, 0x75, 0x6e, 0x63, 0x74, 
  0x69, 0x6f, 0x6e, 0x61, 0x6c, 0x2f, 0x71, 0x75, 0x61, 0x6e, 0x74, 0x5f, 
  0x64, 0x65, 0x70, 0x74, 0x68, 0x77, 0x69, 0x73, 0x65, 0x5f, 0x63, 0x6f, 
  0x6e, 0x76, 0x32, 0x64, 0x2f, 0x64, 0x65, 0x70, 0x74, 0x68, 0x77, 0x69, 
  0x73, 0x65, 0x3b, 0x45, 0x45, 0x47, 0x4e, 0x65, 0x74, 0x5f, 0x46, 0x75, 
  0x6e, 0x63, 0x74, 0x69, 0x6f, 0x6e, 0x61, 0x6c, 0x2f, 0x71, 0x75, 0x61, 
  0x6e, 0x74, 0x5f, 0x64, 0x65, 0x70, 0x74, 0x68, 0x77, 0x69, 0x73, 0x65, 
  0x5f, 0x63, 0x6f, 0x6e, 0x76, 0x32, 0x64, 0x2f, 0x4c, 0x61, 0x73, 0x74, 
  0x56, 0x61, 0x6c, 0x75, 0x65, 0x51, 0x75, 0x61, 0x6e, 0x74, 0x2f, 0x46, 
  0x61, 0x6b, 0x65, 0x51, 0x75, 0x61, 0x6e, 0x74, 0x57, 0x69, 0x74, 0x68, 
  0x4d, 0x69, 0x6e, 0x4d, 0x61, 0x78, 0x56, 0x61, 0x72, 0x73, 0x50, 0x65, 
  0x72, 0x43, 0x68, 0x61, 0x6e, 0x6e, 0x65, 0x6c, 0x00, 0x00, 0x00, 0x00, 
  0x04, 0x00, 0x00, 0x00, 0x01, 0x00, 0x00, 0x00, 0x10, 0x00, 0x00, 0x00, 
  0x01, 0x00, 0x00, 0x00, 0x20, 0x00, 0x00, 0x00, 0x72, 0xf7, 0xff, 0xff, 
  0x00, 0x00, 0x00, 0x01, 0x14, 0x00, 0x00, 0x00, 0xa8, 0x01, 0x00, 0x00, 
  0x08, 0x00, 0x00, 0x00, 0x00, 0x00, 0x00, 0x02, 0xe0, 0x01, 0x00, 0x00, 
  0xd4, 0xf6, 0xff, 0xff, 0x08, 0x00, 0x00, 0x00, 0x0c, 0x01, 0x00, 0x00, 
  0x20, 0x00, 0x00, 0x00, 0x00, 0x00, 0x00, 0x00, 0x00, 0x00, 0x00, 0x00, 
  0x00, 0x00, 0x00, 0x00, 0x00, 0x00, 0x00, 0x00, 0x00, 0x00, 0x00, 0x00, 
  0x00, 0x00, 0x00, 0x00, 0x00, 0x00, 0x00, 0x00, 0x00, 0x00, 0x00, 0x00, 
  0x00, 0x00, 0x00, 0x00, 0x00, 0x00, 0x00, 0x00, 0x00, 0x00, 0x00, 0x00, 
  0x00, 0x00, 0x00, 0x00, 0x00, 0x00, 0x00, 0x00, 0x00, 0x00, 0x00, 0x00, 
  0x00, 0x00, 0x00, 0x00, 0x00, 0x00, 0x00, 0x00, 0x00, 0x00, 0x00, 0x00, 
  0x00, 0x00, 0x00, 0x00, 0x00, 0x00, 0x00, 0x00, 0x00, 0x00, 0x00, 0x00, 
  0x00, 0x00, 0x00, 0x00, 0x00, 0x00, 0x00, 0x00, 0x00, 0x00, 0x00, 0x00, 
  0x00, 0x00, 0x00, 0x00, 0x00, 0x00, 0x00, 0x00, 0x00, 0x00, 0x00, 0x00, 
  0x00, 0x00, 0x00, 0x00, 0x00, 0x00, 0x00, 0x00, 0x00, 0x00, 0x00, 0x00, 
  0x00, 0x00, 0x00, 0x00, 0x00, 0x00, 0x00, 0x00, 0x00, 0x00, 0x00, 0x00, 
  0x00, 0x00, 0x00, 0x00, 0x00, 0x00, 0x00, 0x00, 0x00, 0x00, 0x00, 0x00, 
  0x00, 0x00, 0x00, 0x00, 0x00, 0x00, 0x00, 0x00, 0x00, 0x00, 0x00, 0x00, 
  0x00, 0x00, 0x00, 0x00, 0x00, 0x00, 0x00, 0x00, 0x00, 0x00, 0x00, 0x00, 
  0x00, 0x00, 0x00, 0x00, 0x00, 0x00, 0x00, 0x00, 0x00, 0x00, 0x00, 0x00, 
  0x00, 0x00, 0x00, 0x00, 0x00, 0x00, 0x00, 0x00, 0x00, 0x00, 0x00, 0x00, 
  0x00, 0x00, 0x00, 0x00, 0x00, 0x00, 0x00, 0x00, 0x00, 0x00, 0x00, 0x00, 
  0x00, 0x00, 0x00, 0x00, 0x00, 0x00, 0x00, 0x00, 0x00, 0x00, 0x00, 0x00, 
  0x00, 0x00, 0x00, 0x00, 0x00, 0x00, 0x00, 0x00, 0x00, 0x00, 0x00, 0x00, 
  0x00, 0x00, 0x00, 0x00, 0x00, 0x00, 0x00, 0x00, 0x00, 0x00, 0x00, 0x00, 
  0x00, 0x00, 0x00, 0x00, 0x00, 0x00, 0x00, 0x00, 0x00, 0x00, 0x00, 0x00, 
  0x00, 0x00, 0x00, 0x00, 0x00, 0x00, 0x00, 0x00, 0x00, 0x00, 0x00, 0x00, 
  0x20, 0x00, 0x00, 0x00, 0x58, 0x31, 0xc0, 0x37, 0x0d, 0x5e, 0x9a, 0x37, 
  0xe2, 0x64, 0xc2, 0x37, 0xcd, 0x33, 0x27, 0x37, 0x7a, 0x60, 0x1f, 0x37, 
  0xd8, 0xcd, 0x6e, 0x37, 0xe2, 0x15, 0x94, 0x37, 0xaf, 0x26, 0x95, 0x37, 
  0xbb, 0x7f, 0xb3, 0x37, 0xb8, 0xb4, 0x57, 0x37, 0x70, 0xaa, 0x0c, 0x38, 
  0x27, 0xe9, 0xe6, 0x37, 0xd3, 0x92, 0x9d, 0x37, 0xb2, 0xda, 0x88, 0x37, 
  0x4b, 0xfb, 0x9d, 0x37, 0x1d, 0xe5, 0x30, 0x37, 0x93, 0xde, 0xcb, 0x37, 
  0x3e, 0x6c, 0xa1, 0x37, 0x1b, 0x46, 0xa9, 0x37, 0xa9, 0xed, 0x79, 0x37, 
  0x36, 0x35, 0x95, 0x37, 0x16, 0x19, 0xae, 0x37, 0x1c, 0x66, 0x8c, 0x37, 
  0xba, 0x94, 0xde, 0x36, 0xd3, 0x17, 0x7e, 0x37, 0x2c, 0x11, 0xc6, 0x37, 
  0xb5, 0xe7, 0x47, 0x37, 0xc3, 0x60, 0x80, 0x37, 0xd8, 0x8d, 0x60, 0x37, 
  0x0a, 0xa5, 0xde, 0x37, 0xe7, 0x73, 0xae, 0x37, 0xf0, 0xe0, 0x95, 0x37, 
  0x3e, 0x00, 0x00, 0x00, 0x45, 0x45, 0x47, 0x4e, 0x65, 0x74, 0x5f, 0x46, 
  0x75, 0x6e, 0x63, 0x74, 0x69, 0x6f, 0x6e, 0x61, 0x6c, 0x2f, 0x73, 0x65, 
  0x70, 0x61, 0x72, 0x61, 0x62, 0x6c, 0x65, 0x5f, 0x63, 0x6f, 0x6e, 0x76, 
  0x32, 0x64, 0x2f, 0x73, 0x65, 0x70, 0x61, 0x72, 0x61, 0x62, 0x6c, 0x65, 
  0x5f, 0x63, 0x6f, 0x6e, 0x76, 0x32, 0x64, 0x2f, 0x64, 0x65, 0x70, 0x74, 
  0x68, 0x77, 0x69, 0x73, 0x65, 0x32, 0x00, 0x00, 0x01, 0x00, 0x00, 0x00, 
  0x20, 0x00, 0x00, 0x00, 0x72, 0xf9, 0xff, 0xff, 0x00, 0x00, 0x00, 0x01, 
  0x14, 0x00, 0x00, 0x00, 0xa8, 0x01, 0x00, 0x00, 0x08, 0x00, 0x00, 0x00, 
  0x00, 0x00, 0x00, 0x02, 0xe0, 0x01, 0x00, 0x00, 0xd4, 0xf8, 0xff, 0xff, 
  0x08, 0x00, 0x00, 0x00, 0x0c, 0x01, 0x00, 0x00, 0x20, 0x00, 0x00, 0x00, 
  0x00, 0x00, 0x00, 0x00, 0x00, 0x00, 0x00, 0x00, 0x00, 0x00, 0x00, 0x00, 
  0x00, 0x00, 0x00, 0x00, 0x00, 0x00, 0x00, 0x00, 0x00, 0x00, 0x00, 0x00, 
  0x00, 0x00, 0x00, 0x00, 0x00, 0x00, 0x00, 0x00, 0x00, 0x00, 0x00, 0x00, 
  0x00, 0x00, 0x00, 0x00, 0x00, 0x00, 0x00, 0x00, 0x00, 0x00, 0x00, 0x00, 
  0x00, 0x00, 0x00, 0x00, 0x00, 0x00, 0x00, 0x00, 0x00, 0x00, 0x00, 0x00, 
  0x00, 0x00, 0x00, 0x00, 0x00, 0x00, 0x00, 0x00, 0x00, 0x00, 0x00, 0x00, 
  0x00, 0x00, 0x00, 0x00, 0x00, 0x00, 0x00, 0x00, 0x00, 0x00, 0x00, 0x00, 
  0x00, 0x00, 0x00, 0x00, 0x00, 0x00, 0x00, 0x00, 0x00, 0x00, 0x00, 0x00, 
  0x00, 0x00, 0x00, 0x00, 0x00, 0x00, 0x00, 0x00, 0x00, 0x00, 0x00, 0x00, 
  0x00, 0x00, 0x00, 0x00, 0x00, 0x00, 0x00, 0x00, 0x00, 0x00, 0x00, 0x00, 
  0x00, 0x00, 0x00, 0x00, 0x00, 0x00, 0x00, 0x00, 0x00, 0x00, 0x00, 0x00, 
  0x00, 0x00, 0x00, 0x00, 0x00, 0x00, 0x00, 0x00, 0x00, 0x00, 0x00, 0x00, 
  0x00, 0x00, 0x00, 0x00, 0x00, 0x00, 0x00, 0x00, 0x00, 0x00, 0x00, 0x00, 
  0x00, 0x00, 0x00, 0x00, 0x00, 0x00, 0x00, 0x00, 0x00, 0x00, 0x00, 0x00, 
  0x00, 0x00, 0x00, 0x00, 0x00, 0x00, 0x00, 0x00, 0x00, 0x00, 0x00, 0x00, 
  0x00, 0x00, 0x00, 0x00, 0x00, 0x00, 0x00, 0x00, 0x00, 0x00, 0x00, 0x00, 
  0x00, 0x00, 0x00, 0x00, 0x00, 0x00, 0x00, 0x00, 0x00, 0x00, 0x00, 0x00, 
  0x00, 0x00, 0x00, 0x00, 0x00, 0x00, 0x00, 0x00, 0x00, 0x00, 0x00, 0x00, 
  0x00, 0x00, 0x00, 0x00, 0x00, 0x00, 0x00, 0x00, 0x00, 0x00, 0x00, 0x00, 
  0x00, 0x00, 0x00, 0x00, 0x00, 0x00, 0x00, 0x00, 0x00, 0x00, 0x00, 0x00, 
  0x00, 0x00, 0x00, 0x00, 0x00, 0x00, 0x00, 0x00, 0x00, 0x00, 0x00, 0x00, 
  0x00, 0x00, 0x00, 0x00, 0x00, 0x00, 0x00, 0x00, 0x20, 0x00, 0x00, 0x00, 
  0xc5, 0x78, 0xb5, 0x38, 0x4b, 0x90, 0xbc, 0x38, 0x2b, 0xd5, 0x7e, 0x38, 
  0x28, 0x59, 0xa1, 0x38, 0x89, 0xea, 0xc4, 0x38, 0x97, 0xbd, 0x93, 0x38, 
  0xc9, 0x18, 0xa4, 0x38, 0x61, 0xe6, 0xb0, 0x38, 0x89, 0xea, 0xc4, 0x38, 
  0x55, 0xbb, 0xb6, 0x38, 0xe0, 0x1f, 0xbf, 0x38, 0xc7, 0xd5, 0xd5, 0x38, 
  0xe0, 0x1f, 0xbf, 0x38, 0x55, 0xbb, 0xb6, 0x38, 0x1e, 0x4e, 0x9e, 0x38, 
  0xa4, 0x9e, 0xba, 0x38, 0x87, 0x4a, 0xd6, 0x38, 0xdf, 0xe1, 0xf6, 0x38, 
  0x10, 0x2e, 0xf5, 0x38, 0x83, 0x1d, 0xcc, 0x38, 0xdd, 0x7f, 0xd0, 0x38, 
  0xdd, 0x2b, 0xca, 0x38, 0xf6, 0x86, 0xeb, 0x38, 0xd1, 0x00, 0xd0, 0x38, 
  0x51, 0xfc, 0xc2, 0x38, 0x9c, 0x29, 0xed, 0x38, 0xd8, 0x3f, 0x73, 0x38, 
  0xba, 0xf4, 0xae, 0x38, 0xfb, 0xc6, 0xc8, 0x38, 0x4d, 0x46, 0xe9, 0x38, 
  0xa7, 0x31, 0xbd, 0x38, 0x5f, 0x30, 0x84, 0x38, 0x3d, 0x00, 0x00, 0x00, 
  0x45, 0x45, 0x47, 0x4e, 0x65, 0x74, 0x5f, 0x46, 0x75, 0x6e, 0x63, 0x74, 
  0x69, 0x6f, 0x6e, 0x61, 0x6c, 0x2f, 0x73, 0x65, 0x70, 0x61, 0x72, 0x61, 
  0x62, 0x6c, 0x65, 0x5f, 0x63, 0x6f, 0x6e, 0x76, 0x32, 0x64, 0x2f, 0x73, 
  0x65, 0x70, 0x61, 0x72, 0x61, 0x62, 0x6c, 0x65, 0x5f, 0x63, 0x6f, 0x6e, 
  0x76, 0x32, 0x64, 0x2f, 0x64, 0x65, 0x70, 0x74, 0x68, 0x77, 0x69, 0x73, 
  0x65, 0x00, 0x00, 0x00, 0x01, 0x00, 0x00, 0x00, 0x20, 0x00, 0x00, 0x00, 
  0x72, 0xfb, 0xff, 0xff, 0x00, 0x00, 0x00, 0x01, 0x14, 0x00, 0x00, 0x00, 
  0x34, 0x00, 0x00, 0x00, 0x07, 0x00, 0x00, 0x00, 0x00, 0x00, 0x00, 0x09, 
  0x68, 0x00, 0x00, 0x00, 0xd4, 0xfa, 0xff, 0xff, 0x08, 0x00, 0x00, 0x00, 
  0x14, 0x00, 0x00, 0x00, 0x01, 0x00, 0x00, 0x00, 0x80, 0xff, 0xff, 0xff, 
  0xff, 0xff, 0xff, 0xff, 0x00, 0x00, 0x00, 0x00, 0x01, 0x00, 0x00, 0x00, 
  0xa2, 0x38, 0x04, 0x3d, 0x38, 0x00, 0x00, 0x00, 0x45, 0x45, 0x47, 0x4e, 
  0x65, 0x74, 0x5f, 0x46, 0x75, 0x6e, 0x63, 0x74, 0x69, 0x6f, 0x6e, 0x61, 
  0x6c, 0x2f, 0x62, 0x61, 0x74, 0x63, 0x68, 0x5f, 0x6e, 0x6f, 0x72, 0x6d, 
  0x61, 0x6c, 0x69, 0x7a, 0x61, 0x74, 0x69, 0x6f, 0x6e, 0x5f, 0x31, 0x2f, 
  0x46, 0x75, 0x73, 0x65, 0x64, 0x42, 0x61, 0x74, 0x63, 0x68, 0x4e, 0x6f, 
  0x72, 0x6d, 0x56, 0x33, 0x00, 0x00, 0x00, 0x00, 0x01, 0x00, 0x00, 0x00, 
  0x20, 0x00, 0x00, 0x00, 0xfa, 0xfb, 0xff, 0xff, 0x00, 0x00, 0x00, 0x01, 
  0x14, 0x00, 0x00, 0x00, 0x34, 0x00, 0x00, 0x00, 0x06, 0x00, 0x00, 0x00, 
  0x00, 0x00, 0x00, 0x09, 0x68, 0x00, 0x00, 0x00, 0x5c, 0xfb, 0xff, 0xff, 
  0x08, 0x00, 0x00, 0x00, 0x14, 0x00, 0x00, 0x00, 0x01, 0x00, 0x00, 0x00, 
  0x7f, 0x00, 0x00, 0x00, 0x00, 0x00, 0x00, 0x00, 0x00, 0x00, 0x00, 0x00, 
  0x01, 0x00, 0x00, 0x00, 0x4b, 0x39, 0x8a, 0x3a, 0x39, 0x00, 0x00, 0x00, 
  0x45, 0x45, 0x47, 0x4e, 0x65, 0x74, 0x5f, 0x46, 0x75, 0x6e, 0x63, 0x74, 
  0x69, 0x6f, 0x6e, 0x61, 0x6c, 0x2f, 0x62, 0x61, 0x74, 0x63, 0x68, 0x5f, 
  0x6e, 0x6f, 0x72, 0x6d, 0x61, 0x6c, 0x69, 0x7a, 0x61, 0x74, 0x69, 0x6f, 
  0x6e, 0x5f, 0x31, 0x2f, 0x46, 0x75, 0x73, 0x65, 0x64, 0x42, 0x61, 0x74, 
  0x63, 0x68, 0x4e, 0x6f, 0x72, 0x6d, 0x56, 0x33, 0x31, 0x00, 0x00, 0x00, 
  0x01, 0x00, 0x00, 0x00, 0x20, 0x00, 0x00, 0x00, 0x82, 0xfc, 0xff, 0xff, 
  0x00, 0x00, 0x00, 0x01, 0x28, 0x00, 0x00, 0x00, 0xbc, 0x01, 0x00, 0x00, 
  0x05, 0x00, 0x00, 0x00, 0x00, 0x00, 0x00, 0x09, 0xf4, 0x01, 0x00, 0x00, 
  0x00, 0x00, 0x12, 0x00, 0x10, 0x00, 0x00, 0x00, 0x00, 0x00, 0x0c, 0x00, 
  0x08, 0x00, 0x00, 0x00, 0x00, 0x00, 0x04, 0x00, 0x12, 0x00, 0x00, 0x00, 
  0x03, 0x00, 0x00, 0x00, 0x08, 0x00, 0x00, 0x00, 0x08, 0x01, 0x00, 0x00, 
  0x20, 0x00, 0x00, 0x00, 0x00, 0x00, 0x00, 0x00, 0x00, 0x00, 0x00, 0x00, 
  0x00, 0x00, 0x00, 0x00, 0x00, 0x00, 0x00, 0x00, 0x00, 0x00, 0x00, 0x00, 
  0x00, 0x00, 0x00, 0x00, 0x00, 0x00, 0x00, 0x00, 0x00, 0x00, 0x00, 0x00, 
  0x00, 0x00, 0x00, 0x00, 0x00, 0x00, 0x00, 0x00, 0x00, 0x00, 0x00, 0x00, 
  0x00, 0x00, 0x00, 0x00, 0x00, 0x00, 0x00, 0x00, 0x00, 0x00, 0x00, 0x00, 
  0x00, 0x00, 0x00, 0x00, 0x00, 0x00, 0x00, 0x00, 0x00, 0x00, 0x00, 0x00, 
  0x00, 0x00, 0x00, 0x00, 0x00, 0x00, 0x00, 0x00, 0x00, 0x00, 0x00, 0x00, 
  0x00, 0x00, 0x00, 0x00, 0x00, 0x00, 0x00, 0x00, 0x00, 0x00, 0x00, 0x00, 
  0x00, 0x00, 0x00, 0x00, 0x00, 0x00, 0x00, 0x00, 0x00, 0x00, 0x00, 0x00, 
  0x00, 0x00, 0x00, 0x00, 0x00, 0x00, 0x00, 0x00, 0x00, 0x00, 0x00, 0x00, 
  0x00, 0x00, 0x00, 0x00, 0x00, 0x00, 0x00, 0x00, 0x00, 0x00, 0x00, 0x00, 
  0x00, 0x00, 0x00, 0x00, 0x00, 0x00, 0x00, 0x00, 0x00, 0x00, 0x00, 0x00, 
  0x00, 0x00, 0x00, 0x00, 0x00, 0x00, 0x00, 0x00, 0x00, 0x00, 0x00, 0x00, 
  0x00, 0x00, 0x00, 0x00, 0x00, 0x00, 0x00, 0x00, 0x00, 0x00, 0x00, 0x00, 
  0x00, 0x00, 0x00, 0x00, 0x00, 0x00, 0x00, 0x00, 0x00, 0x00, 0x00, 0x00, 
  0x00, 0x00, 0x00, 0x00, 0x00, 0x00, 0x00, 0x00, 0x00, 0x00, 0x00, 0x00, 
  0x00, 0x00, 0x00, 0x00, 0x00, 0x00, 0x00, 0x00, 0x00, 0x00, 0x00, 0x00, 
  0x00, 0x00, 0x00, 0x00, 0x00, 0x00, 0x00, 0x00, 0x00, 0x00, 0x00, 0x00, 
  0x00, 0x00, 0x00, 0x00, 0x00, 0x00, 0x00, 0x00, 0x00, 0x00, 0x00, 0x00, 
  0x00, 0x00, 0x00, 0x00, 0x00, 0x00, 0x00, 0x00, 0x00, 0x00, 0x00, 0x00, 
  0x00, 0x00, 0x00, 0x00, 0x00, 0x00, 0x00, 0x00, 0x00, 0x00, 0x00, 0x00, 
  0x00, 0x00, 0x00, 0x00, 0x00, 0x00, 0x00, 0x00, 0x20, 0x00, 0x00, 0x00, 
  0x58, 0x77, 0x89, 0x3a, 0xb4, 0xd2, 0x5c, 0x3a, 0x6a, 0x0a, 0x8b, 0x3a, 
  0xfa, 0x2e, 0xef, 0x39, 0x37, 0xfd, 0xe3, 0x39, 0x15, 0xce, 0x2a, 0x3a, 
  0x36, 0xd6, 0x53, 0x3a, 0x74, 0x5c, 0x55, 0x3a, 0x0d, 0x63, 0x80, 0x3a, 
  0xb6, 0x48, 0x1a, 0x3a, 0x0d, 0x39, 0xc9, 0x3a, 0xc8, 0x28, 0xa5, 0x3a, 
  0xd2, 0x68, 0x61, 0x3a, 0x3f, 0xc5, 0x43, 0x3a, 0x43, 0xfe, 0x61, 0x3a, 
  0x81, 0x0c, 0xfd, 0x39, 0x65, 0xd1, 0x91, 0x3a, 0x77, 0xea, 0x66, 0x3a, 
  0x95, 0x25, 0x72, 0x3a, 0xfd, 0xc2, 0x32, 0x3a, 0x3d, 0x71, 0x55, 0x3a, 
  0x39, 0x0c, 0x79, 0x3a, 0x4e, 0xd7, 0x48, 0x3a, 0x8f, 0x33, 0x9f, 0x39, 
  0x90, 0xbd, 0x35, 0x3a, 0xf5, 0xaa, 0x8d, 0x3a, 0x82, 0xfb, 0x0e, 0x3a, 
  0x26, 0xa5, 0x37, 0x3a, 0xd8, 0x9c, 0x20, 0x3a, 0x3a, 0x3f, 0x9f, 0x3a, 
  0x23, 0x8e, 0x79, 0x3a, 0xe4, 0x66, 0x56, 0x3a, 0x3e, 0x00, 0x00, 0x00, 
  0x45, 0x45, 0x47, 0x4e, 0x65, 0x74, 0x5f, 0x46, 0x75, 0x6e, 0x63, 0x74, 
  0x69, 0x6f, 0x6e, 0x61, 0x6c, 0x2f, 0x73, 0x65, 0x70, 0x61, 0x72, 0x61, 
  0x62, 0x6c, 0x65, 0x5f, 0x63, 0x6f, 0x6e, 0x76, 0x32, 0x64, 0x2f, 0x73, 
  0x65, 0x70, 0x61, 0x72, 0x61, 0x62, 0x6c, 0x65, 0x5f, 0x63, 0x6f, 0x6e, 
  0x76, 0x32, 0x64, 0x2f, 0x64, 0x65, 0x70, 0x74, 0x68, 0x77, 0x69, 0x73, 
  0x65, 0x31, 0x00, 0x00, 0x04, 0x00, 0x00, 0x00, 0x01, 0x00, 0x00, 0x00, 
  0x01, 0x00, 0x00, 0x00, 0x10, 0x00, 0x00, 0x00, 0x20, 0x00, 0x00, 0x00, 
  0xa2, 0xfe, 0xff, 0xff, 0x00, 0x00, 0x00, 0x01, 0x14, 0x00, 0x00, 0x00, 
  0x58, 0x00, 0x00, 0x00, 0x04, 0x00, 0x00, 0x00, 0x00, 0x00, 0x00, 0x09, 
  0x84, 0x00, 0x00, 0x00, 0x04, 0xfe, 0xff, 0xff, 0x08, 0x00, 0x00, 0x00, 
  0x2c, 0x00, 0x00, 0x00, 0x04, 0x00, 0x00, 0x00, 0x00, 0x00, 0x00, 0x00, 
  0x00, 0x00, 0x00, 0x00, 0x00, 0x00, 0x00, 0x00, 0x00, 0x00, 0x00, 0x00, 
  0x00, 0x00, 0x00, 0x00, 0x00, 0x00, 0x00, 0x00, 0x00, 0x00, 0x00, 0x00, 
  0x00, 0x00, 0x00, 0x00, 0x00, 0x00, 0x00, 0x00, 0x04, 0x00, 0x00, 0x00, 
  0xb8, 0x7d, 0x8e, 0x3c, 0x52, 0x28, 0x8f, 0x3c, 0x69, 0x50, 0xa3, 0x3c, 
  0x77, 0x19, 0x9e, 0x3c, 0x33, 0x00, 0x00, 0x00, 0x45, 0x45, 0x47, 0x4e, 
  0x65, 0x74, 0x5f, 0x46, 0x75, 0x6e, 0x63, 0x74, 0x69, 0x6f, 0x6e, 0x61, 
  0x6c, 0x2f, 0x73, 0x65, 0x70, 0x61, 0x72, 0x61, 0x62, 0x6c, 0x65, 0x5f, 
  0x63, 0x6f, 0x6e, 0x76, 0x32, 0x64, 0x2f, 0x73, 0x65, 0x70, 0x61, 0x72, 
  0x61, 0x62, 0x6c, 0x65, 0x5f, 0x63, 0x6f, 0x6e, 0x76, 0x32, 0x64, 0x00, 
  0x04, 0x00, 0x00, 0x00, 0x04, 0x00, 0x00, 0x00, 0x01, 0x00, 0x00, 0x00, 
  0x01, 0x00, 0x00, 0x00, 0x20, 0x00, 0x00, 0x00, 0x52, 0xff, 0xff, 0xff, 
  0x00, 0x00, 0x00, 0x01, 0x14, 0x00, 0x00, 0x00, 0x58, 0x00, 0x00, 0x00, 
  0x03, 0x00, 0x00, 0x00, 0x00, 0x00, 0x00, 0x02, 0x8c, 0x00, 0x00, 0x00, 
  0xb4, 0xfe, 0xff, 0xff, 0x08, 0x00, 0x00, 0x00, 0x2c, 0x00, 0x00, 0x00, 
  0x04, 0x00, 0x00, 0x00, 0x00, 0x00, 0x00, 0x00, 0x00, 0x00, 0x00, 0x00, 
  0x00, 0x00, 0x00, 0x00, 0x00, 0x00, 0x00, 0x00, 0x00, 0x00, 0x00, 0x00, 
  0x00, 0x00, 0x00, 0x00, 0x00, 0x00, 0x00, 0x00, 0x00, 0x00, 0x00, 0x00, 
  0x00, 0x00, 0x00, 0x00, 0x04, 0x00, 0x00, 0x00, 0x40, 0xf0, 0xae, 0x39, 
  0xb4, 0xc1, 0xaf, 0x39, 0xd3, 0x80, 0xc8, 0x39, 0xe4, 0x19, 0xc2, 0x39, 
  0x38, 0x00, 0x00, 0x00, 0x45, 0x45, 0x47, 0x4e, 0x65, 0x74, 0x5f, 0x46, 
  0x75, 0x6e, 0x63, 0x74, 0x69, 0x6f, 0x6e, 0x61, 0x6c, 0x2f, 0x62, 0x61, 
  0x74, 0x63, 0x68, 0x5f, 0x6e, 0x6f, 0x72, 0x6d, 0x61, 0x6c, 0x69, 0x7a, 
  0x61, 0x74, 0x69, 0x6f, 0x6e, 0x5f, 0x32, 0x2f, 0x46, 0x75, 0x73, 0x65, 
  0x64, 0x42, 0x61, 0x74, 0x63, 0x68, 0x4e, 0x6f, 0x72, 0x6d, 0x56, 0x33, 
  0x00, 0x00, 0x00, 0x00, 0x01, 0x00, 0x00, 0x00, 0x04, 0x00, 0x00, 0x00, 
  0x00, 0x00, 0x16, 0x00, 0x1c, 0x00, 0x18, 0x00, 0x17, 0x00, 0x10, 0x00, 
  0x0c, 0x00, 0x08, 0x00, 0x00, 0x00, 0x00, 0x00, 0x00, 0x00, 0x07, 0x00, 
  0x16, 0x00, 0x00, 0x00, 0x00, 0x00, 0x00, 0x01, 0x18, 0x00, 0x00, 0x00, 
  0x18, 0x00, 0x00, 0x00, 0x02, 0x00, 0x00, 0x00, 0x00, 0x00, 0x00, 0x02, 
  0x38, 0x00, 0x00, 0x00, 0x04, 0x00, 0x04, 0x00, 0x04, 0x00, 0x00, 0x00, 
  0x25, 0x00, 0x00, 0x00, 0x45, 0x45, 0x47, 0x4e, 0x65, 0x74, 0x5f, 0x46, 
  0x75, 0x6e, 0x63, 0x74, 0x69, 0x6f, 0x6e, 0x61, 0x6c, 0x2f, 0x71, 0x75, 
  0x61, 0x6e, 0x74, 0x5f, 0x66, 0x6c, 0x61, 0x74, 0x74, 0x65, 0x6e, 0x2f, 
  0x43, 0x6f, 0x6e, 0x73, 0x74, 0x00, 0x00, 0x00, 0x01, 0x00, 0x00, 0x00, 
  0x02, 0x00, 0x00, 0x00, 0x00, 0x00, 0x16, 0x00, 0x20, 0x00, 0x1c, 0x00, 
  0x1b, 0x00, 0x14, 0x00, 0x10, 0x00, 0x0c, 0x00, 0x00, 0x00, 0x00, 0x00, 
  0x08, 0x00, 0x07, 0x00, 0x16, 0x00, 0x00, 0x00, 0x00, 0x00, 0x00, 0x01, 
  0x18, 0x00, 0x00, 0x00, 0x34, 0x00, 0x00, 0x00, 0x50, 0x00, 0x00, 0x00, 
  0x01, 0x00, 0x00, 0x00, 0x00, 0x00, 0x00, 0x03, 0x64, 0x00, 0x00, 0x00, 
  0x04, 0x00, 0x00, 0x00, 0xff, 0xff, 0xff, 0xff, 0x10, 0x00, 0x00, 0x00, 
  0x80, 0x00, 0x00, 0x00, 0x01, 0x00, 0x00, 0x00, 0x0c, 0x00, 0x0c, 0x00, 
  0x00, 0x00, 0x00, 0x00, 0x08, 0x00, 0x04, 0x00, 0x0c, 0x00, 0x00, 0x00, 
  0x08, 0x00, 0x00, 0x00, 0x10, 0x00, 0x00, 0x00, 0x01, 0x00, 0x00, 0x00, 
  0x80, 0x00, 0x00, 0x00, 0x00, 0x00, 0x00, 0x00, 0x01, 0x00, 0x00, 0x00, 
  0xa0, 0xe5, 0xb1, 0x3d, 0x19, 0x00, 0x00, 0x00, 0x73, 0x65, 0x72, 0x76, 
  0x69, 0x6e, 0x67, 0x5f, 0x64, 0x65, 0x66, 0x61, 0x75, 0x6c, 0x74, 0x5f, 
  0x69, 0x6e, 0x70, 0x75, 0x74, 0x5f, 0x31, 0x3a, 0x30, 0x00, 0x00, 0x00, 
  0x04, 0x00, 0x00, 0x00, 0x01, 0x00, 0x00, 0x00, 0x10, 0x00, 0x00, 0x00, 
  0x80, 0x00, 0x00, 0x00, 0x01, 0x00, 0x00, 0x00, 0x08, 0x00, 0x00, 0x00, 
  0xac, 0x00, 0x00, 0x00, 0x8c, 0x00, 0x00, 0x00, 0x6c, 0x00, 0x00, 0x00, 
  0x60, 0x00, 0x00, 0x00, 0x44, 0x00, 0x00, 0x00, 0x28, 0x00, 0x00, 0x00, 
  0x14, 0x00, 0x00, 0x00, 0x04, 0x00, 0x00, 0x00, 0x80, 0xff, 0xff, 0xff, 
  0x16, 0x00, 0x00, 0x00, 0x00, 0x00, 0x00, 0x16, 0xa8, 0xff, 0xff, 0xff, 
  0x01, 0x00, 0x00, 0x00, 0x02, 0x00, 0x00, 0x00, 0x00, 0x00, 0x00, 0x01, 
  0x9c, 0xff, 0xff, 0xff, 0x75, 0x00, 0x00, 0x00, 0x00, 0x00, 0x00, 0x75, 
  0x0c, 0x00, 0x0e, 0x00, 0x0d, 0x00, 0x00, 0x00, 0x08, 0x00, 0x04, 0x00, 
  0x0c, 0x00, 0x00, 0x00, 0x04, 0x00, 0x00, 0x00, 0x03, 0x00, 0x00, 0x00, 
  0x00, 0x04, 0x0a, 0x00, 0x08, 0x00, 0x00, 0x00, 0x00, 0x00, 0x04, 0x00, 
  0x0a, 0x00, 0x00, 0x00, 0x02, 0x00, 0x00, 0x00, 0xf0, 0xff, 0xff, 0xff, 
  0x12, 0x00, 0x00, 0x00, 0x02, 0x00, 0x00, 0x00, 0x00, 0x00, 0x00, 0x12, 
  0x0c, 0x00, 0x10, 0x00, 0x0f, 0x00, 0x00, 0x00, 0x08, 0x00, 0x04, 0x00, 
  0x0c, 0x00, 0x00, 0x00, 0x03, 0x00, 0x00, 0x00, 0x03, 0x00, 0x00, 0x00, 
  0x00, 0x00, 0x00, 0x03, 0x0c, 0x00, 0x0c, 0x00, 0x0b, 0x00, 0x00, 0x00, 
  0x00, 0x00, 0x04, 0x00, 0x0c, 0x00, 0x00, 0x00, 0x72, 0x00, 0x00, 0x00, 
  0x00, 0x00, 0x00, 0x72, 
};
