const unsigned char eegnet[] = {
  0x20, 0x00, 0x00, 0x00, 0x54, 0x46, 0x4c, 0x33, 0x00, 0x00, 0x00, 0x00, 
  0x14, 0x00, 0x20, 0x00, 0x1c, 0x00, 0x18, 0x00, 0x14, 0x00, 0x10, 0x00, 
  0x0c, 0x00, 0x00, 0x00, 0x08, 0x00, 0x04, 0x00, 0x14, 0x00, 0x00, 0x00, 
  0x1c, 0x00, 0x00, 0x00, 0x88, 0x00, 0x00, 0x00, 0xe0, 0x00, 0x00, 0x00, 
  0x8c, 0x0c, 0x00, 0x00, 0x9c, 0x0c, 0x00, 0x00, 0x4c, 0x2f, 0x00, 0x00, 
  0x03, 0x00, 0x00, 0x00, 0x01, 0x00, 0x00, 0x00, 0x04, 0x00, 0x00, 0x00, 
  0x32, 0xf1, 0xff, 0xff, 0x0c, 0x00, 0x00, 0x00, 0x1c, 0x00, 0x00, 0x00, 
  0x40, 0x00, 0x00, 0x00, 0x0f, 0x00, 0x00, 0x00, 0x73, 0x65, 0x72, 0x76, 
  0x69, 0x6e, 0x67, 0x5f, 0x64, 0x65, 0x66, 0x61, 0x75, 0x6c, 0x74, 0x00, 
  0x01, 0x00, 0x00, 0x00, 0x04, 0x00, 0x00, 0x00, 0x94, 0xff, 0xff, 0xff, 
  0x1e, 0x00, 0x00, 0x00, 0x04, 0x00, 0x00, 0x00, 0x0d, 0x00, 0x00, 0x00, 
  0x71, 0x75, 0x61, 0x6e, 0x74, 0x5f, 0x66, 0x6c, 0x61, 0x74, 0x74, 0x65, 
  0x6e, 0x00, 0x00, 0x00, 0x01, 0x00, 0x00, 0x00, 0x04, 0x00, 0x00, 0x00, 
  0x02, 0xf4, 0xff, 0xff, 0x04, 0x00, 0x00, 0x00, 0x07, 0x00, 0x00, 0x00, 
  0x69, 0x6e, 0x70, 0x75, 0x74, 0x5f, 0x31, 0x00, 0x02, 0x00, 0x00, 0x00, 
  0x34, 0x00, 0x00, 0x00, 0x04, 0x00, 0x00, 0x00, 0xdc, 0xff, 0xff, 0xff, 
  0x21, 0x00, 0x00, 0x00, 0x04, 0x00, 0x00, 0x00, 0x13, 0x00, 0x00, 0x00, 
  0x43, 0x4f, 0x4e, 0x56, 0x45, 0x52, 0x53, 0x49, 0x4f, 0x4e, 0x5f, 0x4d, 
  0x45, 0x54, 0x41, 0x44, 0x41, 0x54, 0x41, 0x00, 0x08, 0x00, 0x0c, 0x00, 
  0x08, 0x00, 0x04, 0x00, 0x08, 0x00, 0x00, 0x00, 0x20, 0x00, 0x00, 0x00, 
  0x04, 0x00, 0x00, 0x00, 0x13, 0x00, 0x00, 0x00, 0x6d, 0x69, 0x6e, 0x5f, 
  0x72, 0x75, 0x6e, 0x74, 0x69, 0x6d, 0x65, 0x5f, 0x76, 0x65, 0x72, 0x73, 
  0x69, 0x6f, 0x6e, 0x00, 0x22, 0x00, 0x00, 0x00, 0xa8, 0x0b, 0x00, 0x00, 
  0xa0, 0x0b, 0x00, 0x00, 0x88, 0x0b, 0x00, 0x00, 0x60, 0x0b, 0x00, 0x00, 
  0xd0, 0x0a, 0x00, 0x00, 0xc0, 0x08, 0x00, 0x00, 0x90, 0x08, 0x00, 0x00, 
  0x60, 0x08, 0x00, 0x00, 0xd0, 0x07, 0x00, 0x00, 0xc8, 0x07, 0x00, 0x00, 
  0xb8, 0x05, 0x00, 0x00, 0x98, 0x05, 0x00, 0x00, 0x78, 0x05, 0x00, 0x00, 
  0x70, 0x05, 0x00, 0x00, 0x60, 0x01, 0x00, 0x00, 0x10, 0x01, 0x00, 0x00, 
  0x08, 0x01, 0x00, 0x00, 0x00, 0x01, 0x00, 0x00, 0xf8, 0x00, 0x00, 0x00, 
  0xf0, 0x00, 0x00, 0x00, 0xe8, 0x00, 0x00, 0x00, 0xe0, 0x00, 0x00, 0x00, 
  0xd8, 0x00, 0x00, 0x00, 0xd0, 0x00, 0x00, 0x00, 0xc8, 0x00, 0x00, 0x00, 
  0xc0, 0x00, 0x00, 0x00, 0xb8, 0x00, 0x00, 0x00, 0xb0, 0x00, 0x00, 0x00, 
  0xa8, 0x00, 0x00, 0x00, 0xa0, 0x00, 0x00, 0x00, 0x98, 0x00, 0x00, 0x00, 
  0x90, 0x00, 0x00, 0x00, 0x70, 0x00, 0x00, 0x00, 0x04, 0x00, 0x00, 0x00, 
  0xfe, 0xf4, 0xff, 0xff, 0x04, 0x00, 0x00, 0x00, 0x5c, 0x00, 0x00, 0x00, 
  0x0c, 0x00, 0x00, 0x00, 0x08, 0x00, 0x0e, 0x00, 0x08, 0x00, 0x04, 0x00, 
  0x08, 0x00, 0x00, 0x00, 0x10, 0x00, 0x00, 0x00, 0x2c, 0x00, 0x00, 0x00, 
  0x00, 0x00, 0x06, 0x00, 0x08, 0x00, 0x04, 0x00, 0x06, 0x00, 0x00, 0x00, 
  0x04, 0x00, 0x00, 0x00, 0x02, 0x00, 0x00, 0x00, 0xeb, 0x03, 0x00, 0x00, 
  0xd0, 0x07, 0x00, 0x00, 0x00, 0x00, 0x0a, 0x00, 0x10, 0x00, 0x0c, 0x00, 
  0x08, 0x00, 0x04, 0x00, 0x0a, 0x00, 0x00, 0x00, 0x02, 0x00, 0x00, 0x00, 
  0x02, 0x00, 0x00, 0x00, 0x04, 0x00, 0x00, 0x00, 0x06, 0x00, 0x00, 0x00, 
  0x32, 0x2e, 0x31, 0x34, 0x2e, 0x31, 0x00, 0x00, 0x66, 0xf5, 0xff, 0xff, 
  0x04, 0x00, 0x00, 0x00, 0x10, 0x00, 0x00, 0x00, 0x31, 0x2e, 0x31, 0x35, 
  0x2e, 0x30, 0x00, 0x00, 0x00, 0x00, 0x00, 0x00, 0x00, 0x00, 0x00, 0x00, 
  0x80, 0xd3, 0xff, 0xff, 0x84, 0xd3, 0xff, 0xff, 0x88, 0xd3, 0xff, 0xff, 
  0x8c, 0xd3, 0xff, 0xff, 0x90, 0xd3, 0xff, 0xff, 0x94, 0xd3, 0xff, 0xff, 
  0x98, 0xd3, 0xff, 0xff, 0x9c, 0xd3, 0xff, 0xff, 0xa0, 0xd3, 0xff, 0xff, 
  0xa4, 0xd3, 0xff, 0xff, 0xa8, 0xd3, 0xff, 0xff, 0xac, 0xd3, 0xff, 0xff, 
  0xb0, 0xd3, 0xff, 0xff, 0xb4, 0xd3, 0xff, 0xff, 0xb8, 0xd3, 0xff, 0xff, 
  0xbc, 0xd3, 0xff, 0xff, 0xc2, 0xf5, 0xff, 0xff, 0x04, 0x00, 0x00, 0x00, 
  0x40, 0x00, 0x00, 0x00, 0x00, 0x00, 0x00, 0x00, 0x00, 0x00, 0x00, 0x00, 
  0x00, 0x00, 0x00, 0x00, 0x00, 0x00, 0x00, 0x00, 0x00, 0x00, 0x00, 0x00, 
  0x00, 0x00, 0x00, 0x00, 0x00, 0x00, 0x00, 0x00, 0x00, 0x00, 0x00, 0x00, 
  0x00, 0x00, 0x00, 0x00, 0x00, 0x00, 0x00, 0x00, 0x00, 0x00, 0x00, 0x00, 
  0x00, 0x00, 0x00, 0x00, 0x00, 0x00, 0x00, 0x00, 0x00, 0x00, 0x00, 0x00, 
  0x00, 0x00, 0x00, 0x00, 0x00, 0x00, 0x00, 0x00, 0x0e, 0xf6, 0xff, 0xff, 
  0x04, 0x00, 0x00, 0x00, 0x00, 0x04, 0x00, 0x00, 0xe5, 0x81, 0x19, 0xc0, 
  0xe1, 0x0a, 0xf6, 0xe6, 0x60, 0xdb, 0x26, 0xee, 0x13, 0x0a, 0xf2, 0xcf, 
  0xdd, 0xc1, 0xc7, 0xc3, 0xf1, 0xcc, 0x1b, 0x0d, 0xea, 0x75, 0x18, 0x3d, 
  0x29, 0x65, 0xd1, 0x1b, 0x03, 0xfb, 0xcf, 0xf3, 0xdd, 0xc2, 0xb0, 0x04, 
  0xe1, 0x18, 0x12, 0x48, 0x1c, 0x39, 0xfb, 0x64, 0xce, 0x1b, 0x23, 0x95, 
  0xc3, 0xf3, 0xbf, 0xa1, 0x05, 0xcc, 0xc5, 0x42, 0xc8, 0x1b, 0x20, 0xca, 
  0x9f, 0xfc, 0xd6, 0xe3, 0xe9, 0x21, 0x9e, 0xc7, 0x56, 0xbb, 0x1d, 0x87, 
  0x30, 0x4b, 0x9d, 0x7f, 0x18, 0xf7, 0x3b, 0x12, 0xf5, 0xf3, 0x29, 0x52, 
  0x22, 0xe4, 0x22, 0x4b, 0xa7, 0x16, 0xec, 0xc9, 0x48, 0x4c, 0xe6, 0xd9, 
  0xde, 0xee, 0x50, 0xef, 0xb0, 0x3a, 0x22, 0x22, 0xd6, 0xde, 0x34, 0xbf, 
  0x2c, 0xcd, 0xdf, 0x19, 0xe5, 0xfe, 0xc9, 0xf8, 0xd8, 0xcf, 0x2e, 0xd9, 
  0xa7, 0x4b, 0xaf, 0x35, 0xba, 0xa7, 0x50, 0xe5, 0x51, 0xe1, 0x1d, 0xd5, 
  0xc7, 0x18, 0x25, 0x2b, 0x46, 0xce, 0x10, 0xe3, 0x3e, 0x6f, 0xcf, 0xda, 
  0x12, 0xb8, 0xee, 0xfc, 0x33, 0xee, 0xe6, 0xfd, 0x8e, 0xec, 0x2a, 0x04, 
  0xcd, 0x51, 0xb6, 0xf7, 0x4d, 0x09, 0x29, 0xb3, 0x22, 0x2f, 0x10, 0x53, 
  0xcb, 0x1c, 0x32, 0x12, 0x81, 0xc6, 0x49, 0xb4, 0x42, 0x2f, 0x86, 0x41, 
  0x18, 0xe4, 0xba, 0xdb, 0xcb, 0x5f, 0xfd, 0x40, 0xdd, 0x1a, 0xdb, 0xfe, 
  0xe6, 0x26, 0x95, 0x44, 0x16, 0xdc, 0xce, 0x3a, 0x13, 0xb4, 0x2c, 0x13, 
  0xf8, 0xdb, 0x2b, 0x33, 0x89, 0x1c, 0x4d, 0xb8, 0xd8, 0x11, 0x28, 0xe2, 
  0xec, 0xd9, 0xfa, 0x64, 0xfb, 0xa0, 0x53, 0xfd, 0xa9, 0x7f, 0xde, 0xa3, 
  0x7e, 0x0f, 0x85, 0x30, 0x25, 0xd3, 0xfd, 0xf3, 0x4c, 0x0f, 0xa9, 0xc8, 
  0x55, 0xff, 0x40, 0x21, 0xab, 0x27, 0x2f, 0xa1, 0xed, 0x6b, 0x3d, 0xa3, 
  0xc0, 0x1d, 0x11, 0x08, 0xe7, 0x32, 0x63, 0xc6, 0xe3, 0x0f, 0x00, 0xa3, 
  0x13, 0x22, 0x03, 0xf9, 0xd1, 0xf0, 0x24, 0x00, 0x1f, 0xf2, 0x34, 0x3a, 
  0xdf, 0x19, 0xbd, 0x10, 0x24, 0x07, 0xf1, 0xf8, 0xf5, 0xe6, 0xe0, 0x02, 
  0xd5, 0x46, 0x12, 0x32, 0xef, 0xaa, 0xcf, 0xd9, 0x7f, 0x17, 0xce, 0xa7, 
  0x2b, 0x26, 0x26, 0x41, 0xef, 0xb2, 0xde, 0x24, 0x1e, 0x24, 0xd0, 0x10, 
  0xf7, 0xbf, 0xf4, 0x07, 0xc7, 0x1d, 0xe8, 0x18, 0xa4, 0x3b, 0xd7, 0x1d, 
  0xbf, 0x01, 0x53, 0x1a, 0xe8, 0x11, 0xfe, 0x71, 0xef, 0xdf, 0x62, 0x1c, 
  0x2a, 0x6d, 0xc8, 0x6d, 0xd9, 0x64, 0xd7, 0x02, 0x34, 0xf3, 0x27, 0xb7, 
  0xf9, 0xa7, 0x31, 0xbe, 0xd5, 0xb9, 0xf3, 0xe1, 0xc2, 0xb9, 0xa8, 0x09, 
  0xba, 0x03, 0x05, 0xb3, 0xe6, 0x63, 0x03, 0xde, 0x3c, 0x47, 0x2e, 0x3f, 
  0x0c, 0x68, 0xfc, 0x7f, 0xc8, 0x7e, 0x14, 0x73, 0x0f, 0x44, 0xb9, 0x1a, 
  0x19, 0x38, 0xcd, 0x1a, 0x4c, 0xf8, 0xc2, 0xb5, 0x2d, 0x57, 0x94, 0xc7, 
  0x63, 0x2c, 0x18, 0xf9, 0x10, 0x1f, 0xeb, 0xe0, 0xf3, 0x28, 0xed, 0xfc, 
  0xf3, 0x16, 0x67, 0xf1, 0xc5, 0x1d, 0x4d, 0x16, 0x9b, 0x13, 0x3a, 0x0d, 
  0xdb, 0x0d, 0x60, 0xd5, 0xc1, 0xa8, 0x57, 0x16, 0x09, 0x06, 0x0a, 0x33, 
  0x4d, 0xf0, 0xb9, 0xa4, 0xd6, 0x7d, 0xef, 0x98, 0xb1, 0x7f, 0x68, 0xa2, 
  0x61, 0xb6, 0xf2, 0x13, 0x7f, 0xf1, 0xcb, 0x16, 0xd2, 0x36, 0x66, 0x2d, 
  0xf2, 0x1d, 0xb8, 0x26, 0x07, 0x05, 0xaf, 0xc4, 0xf7, 0x59, 0xe5, 0xfa, 
  0x12, 0x48, 0xc5, 0x2f, 0x47, 0xc0, 0x29, 0xb5, 0xeb, 0x08, 0xfc, 0xf0, 
  0xcb, 0x0d, 0x71, 0xc8, 0x27, 0x0d, 0xe8, 0x00, 0xe2, 0x0b, 0xfc, 0xe1, 
  0xe5, 0xfd, 0xf8, 0x1c, 0xd8, 0xf3, 0xe6, 0x36, 0xcc, 0xe0, 0x2c, 0xd9, 
  0x17, 0x2c, 0x17, 0x02, 0xef, 0xcd, 0x03, 0x13, 0x47, 0x9b, 0x3b, 0xf5, 
  0x01, 0x18, 0x25, 0x2b, 0x0f, 0x9d, 0x22, 0x0c, 0xe5, 0x31, 0xf5, 0xca, 
  0xac, 0x12, 0x22, 0x81, 0x49, 0x32, 0xe4, 0x3f, 0xa4, 0x0b, 0x12, 0x45, 
  0x66, 0xd6, 0x0f, 0xbf, 0x26, 0x10, 0xe8, 0xea, 0x20, 0xaa, 0x4c, 0xcc, 
  0xba, 0xfb, 0x3f, 0x01, 0x30, 0xc0, 0xd0, 0x31, 0x6b, 0x14, 0xb5, 0xdb, 
  0x3d, 0x09, 0xfd, 0x26, 0xd8, 0xae, 0x7c, 0xdb, 0x02, 0xf8, 0x0f, 0x06, 
  0x04, 0x07, 0x34, 0x17, 0xb9, 0xe0, 0x2b, 0x63, 0x92, 0xb7, 0x31, 0xe7, 
  0x09, 0x46, 0xec, 0x81, 0xfd, 0x40, 0xfb, 0x68, 0x35, 0xa1, 0xee, 0x06, 
  0xfe, 0x18, 0x25, 0xf4, 0xd8, 0xff, 0xbf, 0x02, 0x24, 0xf0, 0x17, 0xf5, 
  0x23, 0xed, 0xe8, 0x0f, 0x07, 0x3b, 0x0b, 0xd3, 0xf9, 0x27, 0xe9, 0xda, 
  0x01, 0x20, 0xf9, 0x05, 0xe1, 0xff, 0x19, 0xe1, 0x0f, 0xfe, 0x12, 0xfa, 
  0xd9, 0xaa, 0x1f, 0xfb, 0xe3, 0xc2, 0xb3, 0x1a, 0xf8, 0xb7, 0xfd, 0x06, 
  0xd1, 0xd7, 0x34, 0xa4, 0xfc, 0xc8, 0x13, 0xdd, 0xfc, 0xbd, 0xec, 0xfb, 
  0xfa, 0x1e, 0xc0, 0xdb, 0x46, 0xb5, 0x03, 0xf2, 0x20, 0xf5, 0xc4, 0x11, 
  0xe4, 0x28, 0xda, 0x06, 0xe0, 0x36, 0xd1, 0xce, 0x29, 0x0e, 0x03, 0x15, 
  0xec, 0x33, 0xe0, 0xdc, 0x00, 0x7f, 0x43, 0xc8, 0xd4, 0x16, 0x46, 0x44, 
  0x4a, 0xd1, 0x41, 0x18, 0x57, 0xc2, 0xf3, 0x06, 0xf5, 0xfa, 0x3e, 0xc7, 
  0xba, 0x28, 0x9f, 0x41, 0x50, 0x1a, 0xf4, 0xc9, 0x69, 0x47, 0x13, 0x15, 
  0x06, 0x9b, 0xfb, 0xbb, 0xb6, 0xd6, 0x05, 0xbe, 0x96, 0x1e, 0x60, 0xfd, 
  0x57, 0x7f, 0xd1, 0x72, 0xec, 0x32, 0x5f, 0xe7, 0x8c, 0xcf, 0xdd, 0x15, 
  0xd9, 0xd7, 0x09, 0xb6, 0x33, 0xdc, 0x5d, 0x62, 0x84, 0x16, 0x09, 0x15, 
  0x29, 0xad, 0x6a, 0xbf, 0x90, 0x4e, 0x22, 0xff, 0xd5, 0xda, 0xb7, 0x20, 
  0xf6, 0x3f, 0xed, 0xd4, 0x11, 0xe8, 0xda, 0x37, 0x15, 0xe2, 0xfa, 0xdc, 
  0x60, 0xca, 0x4b, 0x4c, 0xfe, 0x31, 0xd8, 0x11, 0x9f, 0xf2, 0x16, 0x0e, 
  0xad, 0xfe, 0xda, 0x41, 0xed, 0xf7, 0x6d, 0xbf, 0x0a, 0xc5, 0xf1, 0x20, 
  0xda, 0xec, 0x23, 0x05, 0x22, 0x2a, 0x18, 0x3e, 0xda, 0xf7, 0xa4, 0x45, 
  0xba, 0x81, 0x24, 0x3d, 0x0b, 0xee, 0x5a, 0xaa, 0x3e, 0x3f, 0xdf, 0xb4, 
  0x9e, 0x68, 0xdc, 0x97, 0x22, 0xef, 0xa0, 0x08, 0xaa, 0xf1, 0x94, 0x13, 
  0xa3, 0x09, 0x81, 0x05, 0x2d, 0x93, 0xbb, 0x13, 0x20, 0xb6, 0xbf, 0x59, 
  0x0e, 0xb7, 0x5c, 0x07, 0x2b, 0x05, 0x2e, 0x13, 0x52, 0x0a, 0x3f, 0x12, 
  0xf9, 0x68, 0x64, 0xc6, 0x33, 0x1f, 0x32, 0x27, 0xdc, 0x32, 0xce, 0x0f, 
  0xfe, 0xf9, 0xcd, 0x05, 0xfa, 0xc6, 0xa5, 0x00, 0xde, 0x87, 0x25, 0x98, 
  0xf2, 0x90, 0x27, 0xb2, 0x0c, 0xc7, 0x14, 0xd9, 0xa0, 0x2f, 0xe3, 0xae, 
  0xac, 0xec, 0xe9, 0xc1, 0xce, 0xd0, 0xff, 0xd9, 0xc6, 0xc6, 0xe0, 0xb6, 
  0x0e, 0xe6, 0xbd, 0xcc, 0x07, 0x20, 0xb0, 0x09, 0xde, 0xdb, 0x50, 0xe3, 
  0xc4, 0x56, 0x4f, 0xd1, 0x3f, 0x46, 0x20, 0xf1, 0x56, 0x18, 0x34, 0x7f, 
  0xdc, 0x08, 0x2c, 0x7a, 0xf5, 0x39, 0x27, 0x32, 0x0e, 0x6a, 0x13, 0xd0, 
  0x11, 0x5d, 0x1d, 0x25, 0xf7, 0xfc, 0x4c, 0xe0, 0x4b, 0xe6, 0xbc, 0x8e, 
  0xeb, 0xb2, 0xff, 0xce, 0x2e, 0x59, 0x08, 0x27, 0x93, 0xe5, 0xdb, 0x24, 
  0x8d, 0xe5, 0x2d, 0xd8, 0x43, 0x2e, 0x77, 0x02, 0xf9, 0xac, 0xaa, 0xe0, 
  0xc4, 0xf2, 0x35, 0x41, 0x63, 0x5e, 0x8a, 0x2f, 0x81, 0x0a, 0x40, 0xa7, 
  0xe0, 0x25, 0x64, 0x73, 0xf8, 0xc9, 0x38, 0x9b, 0xa4, 0x77, 0xcc, 0x0d, 
  0x62, 0xee, 0x6a, 0x4a, 0xc0, 0x0b, 0x17, 0xaf, 0x48, 0x15, 0x25, 0xf6, 
  0x18, 0xd8, 0xff, 0xff, 0x1e, 0xfa, 0xff, 0xff, 0x04, 0x00, 0x00, 0x00, 
  0x10, 0x00, 0x00, 0x00, 0xe3, 0x1d, 0x34, 0x7f, 0x2f, 0xec, 0x42, 0x1b, 
  0x54, 0x5a, 0xec, 0xf8, 0x14, 0xe4, 0xc3, 0xfa, 0x3a, 0xfa, 0xff, 0xff, 
  0x04, 0x00, 0x00, 0x00, 0x10, 0x00, 0x00, 0x00, 0x4f, 0x53, 0x44, 0x24, 
  0x62, 0x33, 0x6d, 0x56, 0x45, 0x7f, 0x38, 0x80, 0x49, 0x5d, 0x60, 0x53, 
  0x56, 0xfa, 0xff, 0xff, 0x04, 0x00, 0x00, 0x00, 0x00, 0x02, 0x00, 0x00, 
  0x01, 0xfd, 0xf3, 0x6c, 0xfc, 0xe2, 0x18, 0x53, 0x01, 0xe0, 0x48, 0x93, 
  0x81, 0xd4, 0xa2, 0x04, 0x81, 0x9d, 0xee, 0xf0, 0xe1, 0xbd, 0x26, 0xd5, 
  0x41, 0xf1, 0x06, 0x5e, 0xda, 0xe6, 0xc9, 0xc2, 0x38, 0x34, 0x4a, 0xb0, 
  0x18, 0xf4, 0x07, 0xaa, 0xb1, 0x4e, 0xd4, 0xcb, 0xb2, 0x0b, 0x60, 0xdd, 
  0xe9, 0xfe, 0x51, 0xfb, 0xf2, 0x20, 0x91, 0x2a, 0x4b, 0x19, 0xe8, 0xc6, 
  0x02, 0xfa, 0x34, 0x03, 0xd7, 0xfe, 0x15, 0x3c, 0x15, 0x31, 0xb6, 0xd4, 
  0x3e, 0xfd, 0x4f, 0x7f, 0x70, 0x6b, 0x46, 0x4d, 0xc1, 0x2d, 0xb3, 0x20, 
  0x22, 0x48, 0xdd, 0xff, 0xcc, 0x25, 0xef, 0x32, 0x08, 0x06, 0x4b, 0x3e, 
  0xdf, 0xeb, 0x81, 0xf4, 0x4a, 0xdc, 0x17, 0x1d, 0x04, 0xe5, 0x13, 0xf3, 
  0x10, 0x40, 0xa3, 0xa0, 0x0f, 0xc0, 0xcc, 0x01, 0x16, 0xd3, 0x9d, 0x45, 
  0x7f, 0x14, 0x03, 0x2a, 0xcc, 0xe2, 0xd9, 0x6f, 0x60, 0x4d, 0x0f, 0x12, 
  0x26, 0x45, 0x10, 0xd9, 0x81, 0x11, 0x0d, 0xba, 0xa6, 0xfb, 0x0f, 0xd2, 
  0xcf, 0x1c, 0xd2, 0x76, 0x49, 0xd7, 0x7f, 0xdd, 0xb1, 0x3c, 0x00, 0xd9, 
  0xd9, 0xe3, 0xcc, 0x20, 0x97, 0xe1, 0x4b, 0x15, 0xe2, 0x08, 0xf2, 0xa3, 
  0xb5, 0xfb, 0x08, 0xa9, 0xeb, 0x35, 0x41, 0x3a, 0xca, 0x7f, 0x81, 0x7f, 
  0x58, 0xfb, 0xb8, 0x02, 0xc3, 0xcd, 0x18, 0x05, 0x02, 0xe9, 0xf8, 0x09, 
  0x12, 0x12, 0x94, 0xd0, 0x81, 0xa3, 0xe7, 0xf7, 0x23, 0x3a, 0x4e, 0x32, 
  0x29, 0xd1, 0x05, 0x0f, 0x04, 0x26, 0xfb, 0x0a, 0x3d, 0x15, 0xd2, 0xf2, 
  0xb9, 0x02, 0xde, 0x45, 0xf2, 0xb1, 0xea, 0x1c, 0xa3, 0xde, 0xbe, 0xea, 
  0xdf, 0x05, 0xdc, 0xdb, 0x8c, 0x18, 0x81, 0x83, 0x3f, 0xc2, 0x1f, 0x07, 
  0xb4, 0xad, 0x54, 0xec, 0xdc, 0x05, 0xc9, 0xfc, 0x82, 0x7f, 0xfd, 0x81, 
  0x7f, 0x5a, 0x4d, 0x2d, 0xc3, 0x2e, 0xda, 0x0b, 0x23, 0x13, 0x0b, 0xc9, 
  0x54, 0xb4, 0xf3, 0xe7, 0x29, 0xdd, 0xdf, 0x03, 0x92, 0x83, 0xcd, 0xf8, 
  0xa0, 0x28, 0xa4, 0x34, 0x6b, 0x2a, 0x0f, 0xf0, 0xf2, 0xd1, 0xbd, 0xe3, 
  0x17, 0xfb, 0x13, 0xeb, 0xed, 0x0d, 0xe2, 0xc8, 0xf7, 0x9f, 0xff, 0x8d, 
  0x33, 0x01, 0xb4, 0xf4, 0xe1, 0x2a, 0xbf, 0xef, 0x32, 0xbb, 0x5b, 0xe0, 
  0xa0, 0xc2, 0x2c, 0x89, 0x64, 0x26, 0xce, 0x14, 0x7f, 0x84, 0x64, 0xfb, 
  0xd2, 0x7f, 0x29, 0xf6, 0xeb, 0x0f, 0x34, 0x9f, 0xfd, 0xab, 0x02, 0x2a, 
  0xd6, 0x8c, 0xff, 0xee, 0xb7, 0xd0, 0x24, 0xa7, 0x42, 0xba, 0x0a, 0x29, 
  0xa5, 0x11, 0x55, 0x7f, 0xf1, 0x3a, 0xf1, 0xd9, 0xc6, 0x00, 0x7f, 0x7f, 
  0x35, 0x5d, 0x4a, 0xe0, 0x85, 0x7f, 0x09, 0xd1, 0x83, 0xda, 0x0b, 0x16, 
  0xf2, 0xc5, 0x84, 0x3c, 0xca, 0x23, 0x24, 0xb9, 0xeb, 0x0b, 0x8e, 0x22, 
  0xf5, 0xaa, 0xd4, 0x7f, 0x41, 0xc3, 0xca, 0xf8, 0x0c, 0x51, 0x05, 0xdd, 
  0x31, 0x31, 0x06, 0x07, 0xc7, 0x79, 0xde, 0xff, 0x20, 0x0c, 0xc2, 0xb2, 
  0x63, 0xfe, 0x11, 0x59, 0xf9, 0xe7, 0x7f, 0xd6, 0xe7, 0x08, 0x1b, 0xf7, 
  0xa5, 0x07, 0xc4, 0xf1, 0xdd, 0xbb, 0x13, 0xd5, 0x48, 0x21, 0xbc, 0x7f, 
  0x10, 0xb8, 0x2d, 0xec, 0x7f, 0x15, 0x31, 0x7f, 0x9c, 0x03, 0xd7, 0x40, 
  0x4b, 0x1b, 0xc8, 0x14, 0x46, 0x81, 0xff, 0xde, 0xf8, 0xff, 0xc6, 0xcb, 
  0x14, 0x7f, 0x20, 0x23, 0x09, 0xdc, 0x66, 0x9f, 0x2a, 0x57, 0x09, 0x20, 
  0x56, 0x7f, 0xe8, 0x1d, 0x17, 0x47, 0x5b, 0x19, 0xf5, 0x9e, 0x18, 0x24, 
  0xb1, 0x70, 0x16, 0xfc, 0x4b, 0xed, 0xd5, 0x26, 0xfa, 0x0f, 0xa4, 0x59, 
  0x2f, 0x23, 0x7f, 0xe9, 0xf2, 0x1e, 0xfe, 0x19, 0xc5, 0x3d, 0xc2, 0xd1, 
  0x14, 0xf8, 0x81, 0x4d, 0xed, 0x7f, 0x58, 0x35, 0x60, 0xda, 0xff, 0xff, 
  0x66, 0xfc, 0xff, 0xff, 0x04, 0x00, 0x00, 0x00, 0x80, 0x00, 0x00, 0x00, 
  0x00, 0x00, 0x00, 0x00, 0x00, 0x00, 0x00, 0x00, 0x00, 0x00, 0x00, 0x00, 
  0x00, 0x00, 0x00, 0x00, 0x00, 0x00, 0x00, 0x00, 0x00, 0x00, 0x00, 0x00, 
  0x00, 0x00, 0x00, 0x00, 0x00, 0x00, 0x00, 0x00, 0x00, 0x00, 0x00, 0x00, 
  0x00, 0x00, 0x00, 0x00, 0x00, 0x00, 0x00, 0x00, 0x00, 0x00, 0x00, 0x00, 
  0x00, 0x00, 0x00, 0x00, 0x00, 0x00, 0x00, 0x00, 0x00, 0x00, 0x00, 0x00, 
  0x00, 0x00, 0x00, 0x00, 0x00, 0x00, 0x00, 0x00, 0x00, 0x00, 0x00, 0x00, 
  0x00, 0x00, 0x00, 0x00, 0x00, 0x00, 0x00, 0x00, 0x00, 0x00, 0x00, 0x00, 
  0x00, 0x00, 0x00, 0x00, 0x00, 0x00, 0x00, 0x00, 0x00, 0x00, 0x00, 0x00, 
  0x00, 0x00, 0x00, 0x00, 0x00, 0x00, 0x00, 0x00, 0x00, 0x00, 0x00, 0x00, 
  0x00, 0x00, 0x00, 0x00, 0x00, 0x00, 0x00, 0x00, 0x00, 0x00, 0x00, 0x00, 
  0x00, 0x00, 0x00, 0x00, 0x00, 0x00, 0x00, 0x00, 0xf2, 0xfc, 0xff, 0xff, 
  0x04, 0x00, 0x00, 0x00, 0x20, 0x00, 0x00, 0x00, 0xb8, 0xf0, 0x01, 0xdd, 
  0xf2, 0xf9, 0xe0, 0xe8, 0x0f, 0xec, 0xce, 0xd7, 0xcf, 0xc5, 0x1e, 0x00, 
  0xc4, 0xf5, 0xfa, 0x7f, 0x25, 0xe4, 0xc2, 0xcc, 0xc2, 0xfb, 0x05, 0xda, 
  0xc1, 0xc9, 0x01, 0xe1, 0x1e, 0xfd, 0xff, 0xff, 0x04, 0x00, 0x00, 0x00, 
  0x20, 0x00, 0x00, 0x00, 0x2f, 0xeb, 0x00, 0xef, 0x80, 0x0e, 0x7f, 0x4d, 
  0x6d, 0x2a, 0xe0, 0x79, 0x9f, 0xf5, 0x65, 0x4d, 0xcb, 0xe8, 0x41, 0xe4, 
  0xb4, 0x0f, 0xd2, 0xf3, 0x49, 0x55, 0x91, 0x10, 0x0b, 0xf7, 0x30, 0x33, 
  0x4a, 0xfd, 0xff, 0xff, 0x04, 0x00, 0x00, 0x00, 0x00, 0x02, 0x00, 0x00, 
  0x25, 0xba, 0x61, 0x15, 0xcc, 0x52, 0x60, 0x3c, 0xf3, 0x81, 0x99, 0xe0, 
  0x11, 0x04, 0x14, 0xdd, 0x16, 0x42, 0xcc, 0x94, 0x81, 0xe3, 0x77, 0x1e, 
  0x08, 0xf8, 0x81, 0xab, 0xe2, 0x81, 0x76, 0x4f, 0x03, 0x97, 0x4c, 0x36, 
  0xb9, 0x4c, 0x12, 0x38, 0xf7, 0xe0, 0xf1, 0x20, 0x5e, 0x12, 0x22, 0xc3, 
  0x68, 0xd8, 0xb4, 0x9b, 0xa2, 0xef, 0x7f, 0x73, 0xf0, 0x1e, 0xbc, 0xf9, 
  0xd2, 0xac, 0x74, 0x2d, 0x18, 0xbe, 0x6a, 0x32, 0x81, 0x45, 0x6c, 0x49, 
  0xf5, 0x95, 0xf0, 0x06, 0x7f, 0x40, 0x1c, 0xdc, 0x67, 0x01, 0xda, 0xb2, 
  0xa8, 0xe3, 0x62, 0x7f, 0xbb, 0x02, 0xc3, 0xb8, 0xa1, 0xc6, 0x65, 0x20, 
  0x9d, 0xe9, 0x2b, 0x47, 0x8d, 0x63, 0x6a, 0x4d, 0x02, 0x8f, 0xc2, 0x19, 
  0x7d, 0x3e, 0x1b, 0x0e, 0x1c, 0x7b, 0x81, 0x81, 0x8f, 0xea, 0x61, 0x26, 
  0x37, 0x05, 0xbd, 0x98, 0x0a, 0x9d, 0x7f, 0x4f, 0xf5, 0xe4, 0x7c, 0x33, 
  0x90, 0x7f, 0x05, 0x4f, 0xf2, 0xbb, 0xa3, 0x2d, 0x38, 0x5c, 0x23, 0x59, 
  0x7f, 0x04, 0xc6, 0xb0, 0xcb, 0xd2, 0x71, 0x5d, 0x37, 0x64, 0xb7, 0xcb, 
  0xf3, 0x9e, 0x4c, 0x7f, 0x81, 0xc6, 0x47, 0x7f, 0xb7, 0x67, 0x21, 0x1d, 
  0xef, 0xaf, 0xe6, 0x34, 0xe9, 0x02, 0x0d, 0xbd, 0x1c, 0x48, 0xc1, 0xa3, 
  0xf0, 0xb8, 0x4e, 0x54, 0x5a, 0xfd, 0xc2, 0xbf, 0xef, 0x0c, 0x41, 0x4b, 
  0xa9, 0xa6, 0x7f, 0x44, 0x91, 0x68, 0xe5, 0x33, 0xe9, 0xbb, 0xef, 0x40, 
  0xd2, 0x60, 0x0d, 0xe7, 0x41, 0x7f, 0xa7, 0x93, 0xf6, 0xb0, 0x54, 0x46, 
  0x48, 0x43, 0x9e, 0x87, 0x33, 0xfe, 0xf9, 0x30, 0xf9, 0x9f, 0x44, 0x40, 
  0x87, 0x4c, 0x07, 0x13, 0xc4, 0xe0, 0x93, 0x63, 0xf5, 0xd3, 0x03, 0x0e, 
  0x58, 0x74, 0xd8, 0xbd, 0x0c, 0xd8, 0xf1, 0x09, 0x1f, 0x15, 0xf4, 0xb7, 
  0xee, 0xdc, 0x2a, 0x44, 0xd3, 0xcf, 0x67, 0x3d, 0x96, 0x6b, 0xd3, 0x71, 
  0xad, 0x0b, 0xdf, 0x6a, 0xc4, 0x6f, 0xdd, 0xa9, 0x63, 0xf0, 0xd2, 0x9b, 
  0x33, 0x81, 0x57, 0x04, 0xf9, 0x70, 0xa0, 0xd5, 0xd9, 0xcf, 0x00, 0x22, 
  0x32, 0xd1, 0x20, 0x67, 0xa3, 0x5f, 0xb8, 0x7f, 0xbd, 0x09, 0x81, 0x64, 
  0x02, 0x0f, 0xdc, 0x00, 0x41, 0x28, 0xd7, 0xa8, 0x2d, 0xd5, 0xdc, 0x4d, 
  0x58, 0x61, 0xad, 0xc6, 0xe0, 0xd7, 0xcd, 0xd4, 0xcc, 0x8b, 0x5e, 0x6a, 
  0xb5, 0x68, 0x01, 0x71, 0xaf, 0xfa, 0xeb, 0x7f, 0xc9, 0x7f, 0xb3, 0x9f, 
  0x66, 0x43, 0xf8, 0xc6, 0x2e, 0x83, 0x55, 0xd9, 0x76, 0x26, 0xbf, 0x81, 
  0x61, 0xd3, 0xe6, 0xae, 0xd9, 0xda, 0x7f, 0x46, 0xc3, 0x62, 0xba, 0x4c, 
  0xa2, 0x2b, 0xb6, 0x45, 0x1e, 0x73, 0xc1, 0xb7, 0x3e, 0xe2, 0xfa, 0xbb, 
  0x14, 0xa3, 0x1a, 0x6f, 0x7f, 0x7f, 0x0b, 0xaf, 0xf4, 0xba, 0xee, 0x0d, 
  0x9e, 0x81, 0x5e, 0x1b, 0x93, 0x4e, 0xb2, 0x67, 0x89, 0x01, 0xbe, 0x6b, 
  0x34, 0x59, 0x8e, 0xd7, 0x44, 0x03, 0xf4, 0xd9, 0xfa, 0xcf, 0x78, 0x6b, 
  0x52, 0x4a, 0xb0, 0xaf, 0xf1, 0xed, 0xe4, 0xbd, 0xa5, 0x90, 0x17, 0x4f, 
  0x92, 0x15, 0x92, 0x4a, 0x97, 0xfc, 0xd2, 0x5a, 0x25, 0xeb, 0x81, 0xd9, 
  0x13, 0x27, 0x02, 0xf0, 0xdc, 0xda, 0x48, 0x24, 0x44, 0x69, 0xa6, 0xdb, 
  0x7f, 0xad, 0xc4, 0xa7, 0xce, 0xfb, 0x38, 0x30, 0xb6, 0x59, 0x81, 0x31, 
  0x81, 0x3c, 0xbd, 0x53, 0x11, 0xd8, 0x84, 0x81, 0xfe, 0x1b, 0x2f, 0xf1, 
  0xd4, 0x91, 0x46, 0x65, 0xfa, 0x1b, 0xdf, 0xb8, 0x01, 0xf6, 0xec, 0x88, 
  0x8b, 0xc3, 0x06, 0x7e, 0xcb, 0x56, 0x97, 0x35, 0x91, 0x1c, 0xc0, 0x57, 
  0x2f, 0x12, 0x84, 0xbc, 0x40, 0x54, 0x15, 0x01, 0xb4, 0x82, 0x4d, 0x01, 
  0x41, 0x5c, 0xe0, 0x8b, 0xe4, 0xa8, 0x2c, 0xbc, 0x56, 0xff, 0xff, 0xff, 
  0x04, 0x00, 0x00, 0x00, 0x80, 0x00, 0x00, 0x00, 0x45, 0xbf, 0x44, 0x7d, 
  0xc2, 0x61, 0xec, 0xa9, 0x41, 0x71, 0xcb, 0xf8, 0x2a, 0x99, 0xd4, 0xbe, 
  0x60, 0x69, 0x63, 0x58, 0x23, 0x35, 0x10, 0x58, 0xc9, 0x1e, 0x27, 0x81, 
  0xab, 0xd8, 0xbb, 0xa9, 0x1e, 0x05, 0x30, 0x49, 0x28, 0xc2, 0x64, 0xd8, 
  0x60, 0xa5, 0xfa, 0xae, 0x13, 0xc0, 0x7f, 0x43, 0xd5, 0x1b, 0xaf, 0xbf, 
  0xb6, 0x3b, 0x00, 0xdc, 0xa3, 0xe6, 0x2b, 0x30, 0xb4, 0x1a, 0x5d, 0x61, 
  0xf3, 0xc1, 0x1b, 0x5e, 0x9a, 0x7f, 0x13, 0xdf, 0x1b, 0x3c, 0xbb, 0x8c, 
  0xd7, 0xc1, 0x49, 0xf0, 0x47, 0x31, 0x26, 0x52, 0x08, 0x3b, 0x41, 0x4d, 
  0x1e, 0x1e, 0x9d, 0xcb, 0xe0, 0xd5, 0xea, 0xff, 0x9d, 0xa9, 0x61, 0x7c, 
  0x99, 0xf6, 0x1a, 0xba, 0x65, 0xe9, 0x90, 0x33, 0xa1, 0xd2, 0x66, 0xe8, 
  0x4d, 0xb0, 0x47, 0x2e, 0x19, 0x7f, 0x3e, 0x31, 0x4e, 0x26, 0x95, 0xcd, 
  0x29, 0x9f, 0x0f, 0x4b, 0xe2, 0xff, 0xff, 0xff, 0x04, 0x00, 0x00, 0x00, 
  0x10, 0x00, 0x00, 0x00, 0x00, 0x00, 0x00, 0x00, 0xc2, 0x0a, 0x00, 0x00, 
  0xfb, 0xf7, 0xff, 0xff, 0x5e, 0xf9, 0xff, 0xff, 0x00, 0x00, 0x06, 0x00, 
  0x08, 0x00, 0x04, 0x00, 0x06, 0x00, 0x00, 0x00, 0x04, 0x00, 0x00, 0x00, 
  0x08, 0x00, 0x00, 0x00, 0xff, 0xff, 0xff, 0xff, 0x10, 0x00, 0x00, 0x00, 
  0x18, 0xde, 0xff, 0xff, 0x1c, 0xde, 0xff, 0xff, 0x0f, 0x00, 0x00, 0x00, 
  0x4d, 0x4c, 0x49, 0x52, 0x20, 0x43, 0x6f, 0x6e, 0x76, 0x65, 0x72, 0x74, 
  0x65, 0x64, 0x2e, 0x00, 0x01, 0x00, 0x00, 0x00, 0x14, 0x00, 0x00, 0x00, 
  0x00, 0x00, 0x0e, 0x00, 0x18, 0x00, 0x14, 0x00, 0x10, 0x00, 0x0c, 0x00, 
  0x08, 0x00, 0x04, 0x00, 0x0e, 0x00, 0x00, 0x00, 0x14, 0x00, 0x00, 0x00, 
  0x1c, 0x00, 0x00, 0x00, 0xd0, 0x03, 0x00, 0x00, 0xd4, 0x03, 0x00, 0x00, 
  0xd8, 0x03, 0x00, 0x00, 0x04, 0x00, 0x00, 0x00, 0x6d, 0x61, 0x69, 0x6e, 
  0x00, 0x00, 0x00, 0x00, 0x11, 0x00, 0x00, 0x00, 0x98, 0x03, 0x00, 0x00, 
  0x4c, 0x03, 0x00, 0x00, 0x08, 0x03, 0x00, 0x00, 0xd4, 0x02, 0x00, 0x00, 
  0x80, 0x02, 0x00, 0x00, 0x4c, 0x02, 0x00, 0x00, 0x18, 0x02, 0x00, 0x00, 
  0xf4, 0x01, 0x00, 0x00, 0x94, 0x01, 0x00, 0x00, 0x74, 0x01, 0x00, 0x00, 
  0x24, 0x01, 0x00, 0x00, 0xd4, 0x00, 0x00, 0x00, 0xb0, 0x00, 0x00, 0x00, 
  0x6c, 0x00, 0x00, 0x00, 0x4c, 0x00, 0x00, 0x00, 0x24, 0x00, 0x00, 0x00, 
  0x04, 0x00, 0x00, 0x00, 0xb6, 0xfc, 0xff, 0xff, 0x08, 0x00, 0x00, 0x00, 
  0x0c, 0x00, 0x00, 0x00, 0x01, 0x00, 0x00, 0x00, 0x1e, 0x00, 0x00, 0x00, 
  0x01, 0x00, 0x00, 0x00, 0x1d, 0x00, 0x00, 0x00, 0x5a, 0xfe, 0xff, 0xff, 
  0x0c, 0x00, 0x00, 0x00, 0x10, 0x00, 0x00, 0x00, 0x07, 0x00, 0x00, 0x00, 
  0x01, 0x00, 0x00, 0x00, 0x1d, 0x00, 0x00, 0x00, 0x02, 0x00, 0x00, 0x00, 
  0x1c, 0x00, 0x00, 0x00, 0x01, 0x00, 0x00, 0x00, 0xf6, 0xfc, 0xff, 0xff, 
  0x08, 0x00, 0x00, 0x00, 0x0c, 0x00, 0x00, 0x00, 0x01, 0x00, 0x00, 0x00, 
  0x1c, 0x00, 0x00, 0x00, 0x01, 0x00, 0x00, 0x00, 0x1b, 0x00, 0x00, 0x00, 
  0x5e, 0xfd, 0xff, 0xff, 0x14, 0x00, 0x00, 0x00, 0x00, 0x00, 0x00, 0x05, 
  0x24, 0x00, 0x00, 0x00, 0x28, 0x00, 0x00, 0x00, 0x06, 0x00, 0x00, 0x00, 
  0xea, 0xfe, 0xff, 0xff, 0x01, 0x00, 0x00, 0x00, 0x08, 0x00, 0x00, 0x00, 
  0x01, 0x00, 0x00, 0x00, 0x08, 0x00, 0x00, 0x00, 0x00, 0x00, 0x00, 0x01, 
  0x01, 0x00, 0x00, 0x00, 0x1b, 0x00, 0x00, 0x00, 0x01, 0x00, 0x00, 0x00, 
  0x1a, 0x00, 0x00, 0x00, 0xda, 0xfe, 0xff, 0xff, 0x0c, 0x00, 0x00, 0x00, 
  0x10, 0x00, 0x00, 0x00, 0x05, 0x00, 0x00, 0x00, 0x01, 0x00, 0x00, 0x00, 
  0x1a, 0x00, 0x00, 0x00, 0x01, 0x00, 0x00, 0x00, 0x19, 0x00, 0x00, 0x00, 
  0xbe, 0xfd, 0xff, 0xff, 0x20, 0x00, 0x00, 0x00, 0x00, 0x00, 0x00, 0x01, 
  0x28, 0x00, 0x00, 0x00, 0x2c, 0x00, 0x00, 0x00, 0x01, 0x00, 0x00, 0x00, 
  0x00, 0x00, 0x0a, 0x00, 0x10, 0x00, 0x0f, 0x00, 0x08, 0x00, 0x04, 0x00, 
  0x0a, 0x00, 0x00, 0x00, 0x01, 0x00, 0x00, 0x00, 0x01, 0x00, 0x00, 0x00, 
  0x00, 0x00, 0x00, 0x01, 0x01, 0x00, 0x00, 0x00, 0x19, 0x00, 0x00, 0x00, 
  0x03, 0x00, 0x00, 0x00, 0x18, 0x00, 0x00, 0x00, 0x03, 0x00, 0x00, 0x00, 
  0x02, 0x00, 0x00, 0x00, 0x0a, 0xfe, 0xff, 0xff, 0x20, 0x00, 0x00, 0x00, 
  0x00, 0x00, 0x00, 0x02, 0x28, 0x00, 0x00, 0x00, 0x2c, 0x00, 0x00, 0x00, 
  0x04, 0x00, 0x00, 0x00, 0x0c, 0x00, 0x10, 0x00, 0x00, 0x00, 0x0c, 0x00, 
  0x08, 0x00, 0x04, 0x00, 0x0c, 0x00, 0x00, 0x00, 0x01, 0x00, 0x00, 0x00, 
  0x01, 0x00, 0x00, 0x00, 0x01, 0x00, 0x00, 0x00, 0x01, 0x00, 0x00, 0x00, 
  0x18, 0x00, 0x00, 0x00, 0x03, 0x00, 0x00, 0x00, 0x17, 0x00, 0x00, 0x00, 
  0x04, 0x00, 0x00, 0x00, 0x08, 0x00, 0x00, 0x00, 0x0a, 0xfe, 0xff, 0xff, 
  0x08, 0x00, 0x00, 0x00, 0x0c, 0x00, 0x00, 0x00, 0x01, 0x00, 0x00, 0x00, 
  0x17, 0x00, 0x00, 0x00, 0x01, 0x00, 0x00, 0x00, 0x16, 0x00, 0x00, 0x00, 
  0x72, 0xfe, 0xff, 0xff, 0x24, 0x00, 0x00, 0x00, 0x00, 0x00, 0x00, 0x05, 
  0x34, 0x00, 0x00, 0x00, 0x38, 0x00, 0x00, 0x00, 0x06, 0x00, 0x00, 0x00, 
  0x00, 0x00, 0x0e, 0x00, 0x18, 0x00, 0x17, 0x00, 0x10, 0x00, 0x0c, 0x00, 
  0x08, 0x00, 0x04, 0x00, 0x0e, 0x00, 0x00, 0x00, 0x01, 0x00, 0x00, 0x00, 
  0x04, 0x00, 0x00, 0x00, 0x01, 0x00, 0x00, 0x00, 0x04, 0x00, 0x00, 0x00, 
  0x00, 0x00, 0x00, 0x01, 0x01, 0x00, 0x00, 0x00, 0x16, 0x00, 0x00, 0x00, 
  0x01, 0x00, 0x00, 0x00, 0x15, 0x00, 0x00, 0x00, 0x00, 0x00, 0x0a, 0x00, 
  0x10, 0x00, 0x0c, 0x00, 0x08, 0x00, 0x04, 0x00, 0x0a, 0x00, 0x00, 0x00, 
  0x0c, 0x00, 0x00, 0x00, 0x10, 0x00, 0x00, 0x00, 0x05, 0x00, 0x00, 0x00, 
  0x01, 0x00, 0x00, 0x00, 0x15, 0x00, 0x00, 0x00, 0x01, 0x00, 0x00, 0x00, 
  0x14, 0x00, 0x00, 0x00, 0xee, 0xfe, 0xff, 0xff, 0x14, 0x00, 0x00, 0x00, 
  0x00, 0x00, 0x00, 0x0b, 0x10, 0x00, 0x00, 0x00, 0x14, 0x00, 0x00, 0x00, 
  0x03, 0x00, 0x00, 0x00, 0xbc, 0xe0, 0xff, 0xff, 0x01, 0x00, 0x00, 0x00, 
  0x14, 0x00, 0x00, 0x00, 0x02, 0x00, 0x00, 0x00, 0x13, 0x00, 0x00, 0x00, 
  0x05, 0x00, 0x00, 0x00, 0x1e, 0xff, 0xff, 0xff, 0x14, 0x00, 0x00, 0x00, 
  0x00, 0x00, 0x00, 0x15, 0x10, 0x00, 0x00, 0x00, 0x14, 0x00, 0x00, 0x00, 
  0x02, 0x00, 0x00, 0x00, 0xec, 0xe0, 0xff, 0xff, 0x01, 0x00, 0x00, 0x00, 
  0x13, 0x00, 0x00, 0x00, 0x02, 0x00, 0x00, 0x00, 0x12, 0x00, 0x00, 0x00, 
  0x06, 0x00, 0x00, 0x00, 0x4e, 0xff, 0xff, 0xff, 0x20, 0x00, 0x00, 0x00, 
  0x00, 0x00, 0x00, 0x02, 0x2c, 0x00, 0x00, 0x00, 0x30, 0x00, 0x00, 0x00, 
  0x04, 0x00, 0x00, 0x00, 0x0c, 0x00, 0x14, 0x00, 0x13, 0x00, 0x0c, 0x00, 
  0x08, 0x00, 0x04, 0x00, 0x0c, 0x00, 0x00, 0x00, 0x02, 0x00, 0x00, 0x00, 
  0x01, 0x00, 0x00, 0x00, 0x01, 0x00, 0x00, 0x00, 0x00, 0x00, 0x00, 0x01, 
  0x01, 0x00, 0x00, 0x00, 0x12, 0x00, 0x00, 0x00, 0x03, 0x00, 0x00, 0x00, 
  0x11, 0x00, 0x00, 0x00, 0x09, 0x00, 0x00, 0x00, 0x07, 0x00, 0x00, 0x00, 
  0x9e, 0xff, 0xff, 0xff, 0x14, 0x00, 0x00, 0x00, 0x00, 0x00, 0x00, 0x0b, 
  0x10, 0x00, 0x00, 0x00, 0x14, 0x00, 0x00, 0x00, 0x03, 0x00, 0x00, 0x00, 
  0x6c, 0xe1, 0xff, 0xff, 0x01, 0x00, 0x00, 0x00, 0x11, 0x00, 0x00, 0x00, 
  0x02, 0x00, 0x00, 0x00, 0x10, 0x00, 0x00, 0x00, 0x0a, 0x00, 0x00, 0x00, 
  0xce, 0xff, 0xff, 0xff, 0x14, 0x00, 0x00, 0x00, 0x00, 0x00, 0x00, 0x15, 
  0x10, 0x00, 0x00, 0x00, 0x14, 0x00, 0x00, 0x00, 0x02, 0x00, 0x00, 0x00, 
  0x9c, 0xe1, 0xff, 0xff, 0x01, 0x00, 0x00, 0x00, 0x10, 0x00, 0x00, 0x00, 
  0x02, 0x00, 0x00, 0x00, 0x0f, 0x00, 0x00, 0x00, 0x0b, 0x00, 0x00, 0x00, 
  0x00, 0x00, 0x0e, 0x00, 0x18, 0x00, 0x14, 0x00, 0x10, 0x00, 0x0c, 0x00, 
  0x0b, 0x00, 0x04, 0x00, 0x0e, 0x00, 0x00, 0x00, 0x14, 0x00, 0x00, 0x00, 
  0x00, 0x00, 0x00, 0x01, 0x18, 0x00, 0x00, 0x00, 0x1c, 0x00, 0x00, 0x00, 
  0x01, 0x00, 0x00, 0x00, 0xda, 0xff, 0xff, 0xff, 0x01, 0x00, 0x00, 0x00, 
  0x01, 0x00, 0x00, 0x00, 0x01, 0x00, 0x00, 0x00, 0x0f, 0x00, 0x00, 0x00, 
  0x03, 0x00, 0x00, 0x00, 0x0c, 0x00, 0x00, 0x00, 0x0d, 0x00, 0x00, 0x00, 
  0x0e, 0x00, 0x00, 0x00, 0x00, 0x00, 0x0a, 0x00, 0x0c, 0x00, 0x00, 0x00, 
  0x08, 0x00, 0x04, 0x00, 0x0a, 0x00, 0x00, 0x00, 0x08, 0x00, 0x00, 0x00, 
  0x0c, 0x00, 0x00, 0x00, 0x01, 0x00, 0x00, 0x00, 0x0c, 0x00, 0x00, 0x00, 
  0x01, 0x00, 0x00, 0x00, 0x00, 0x00, 0x00, 0x00, 0x01, 0x00, 0x00, 0x00, 
  0x1e, 0x00, 0x00, 0x00, 0x01, 0x00, 0x00, 0x00, 0x00, 0x00, 0x00, 0x00, 
  0x1f, 0x00, 0x00, 0x00, 0x18, 0x1e, 0x00, 0x00, 0xa4, 0x1d, 0x00, 0x00, 
  0xdc, 0x1c, 0x00, 0x00, 0x28, 0x1c, 0x00, 0x00, 0x04, 0x1a, 0x00, 0x00, 
  0x78, 0x19, 0x00, 0x00, 0xec, 0x18, 0x00, 0x00, 0xe8, 0x16, 0x00, 0x00, 
  0xe4, 0x14, 0x00, 0x00, 0x84, 0x12, 0x00, 0x00, 0xfc, 0x11, 0x00, 0x00, 
  0x78, 0x11, 0x00, 0x00, 0x04, 0x10, 0x00, 0x00, 0x80, 0x0e, 0x00, 0x00, 
  0x54, 0x0d, 0x00, 0x00, 0xb8, 0x0c, 0x00, 0x00, 0x0c, 0x0c, 0x00, 0x00, 
  0x60, 0x0b, 0x00, 0x00, 0xbc, 0x0a, 0x00, 0x00, 0x10, 0x0a, 0x00, 0x00, 
  0x64, 0x09, 0x00, 0x00, 0xe8, 0x07, 0x00, 0x00, 0x44, 0x07, 0x00, 0x00, 
  0xb8, 0x05, 0x00, 0x00, 0x04, 0x05, 0x00, 0x00, 0x20, 0x04, 0x00, 0x00, 
  0xb4, 0x02, 0x00, 0x00, 0x10, 0x02, 0x00, 0x00, 0x64, 0x01, 0x00, 0x00, 
  0x80, 0x00, 0x00, 0x00, 0x04, 0x00, 0x00, 0x00, 0x7a, 0xe2, 0xff, 0xff, 
  0x00, 0x00, 0x00, 0x01, 0x18, 0x00, 0x00, 0x00, 0x20, 0x00, 0x00, 0x00, 
  0x3c, 0x00, 0x00, 0x00, 0x1f, 0x00, 0x00, 0x00, 0x00, 0x00, 0x00, 0x03, 
  0x50, 0x00, 0x00, 0x00, 0x02, 0x00, 0x00, 0x00, 0xff, 0xff, 0xff, 0xff, 
  0x10, 0x00, 0x00, 0x00, 0x5c, 0xe2, 0xff, 0xff, 0x08, 0x00, 0x00, 0x00, 
  0x10, 0x00, 0x00, 0x00, 0x01, 0x00, 0x00, 0x00, 0x11, 0x00, 0x00, 0x00, 
  0x00, 0x00, 0x00, 0x00, 0x01, 0x00, 0x00, 0x00, 0x03, 0xe1, 0xff, 0x3c, 
  0x19, 0x00, 0x00, 0x00, 0x53, 0x74, 0x61, 0x74, 0x65, 0x66, 0x75, 0x6c, 
  0x50, 0x61, 0x72, 0x74, 0x69, 0x74, 0x69, 0x6f, 0x6e, 0x65, 0x64, 0x43, 
  0x61, 0x6c, 0x6c, 0x3a, 0x30, 0x00, 0x00, 0x00, 0x02, 0x00, 0x00, 0x00, 
  0x01, 0x00, 0x00, 0x00, 0x10, 0x00, 0x00, 0x00, 0xf2, 0xe2, 0xff, 0xff, 
  0x00, 0x00, 0x00, 0x01, 0x18, 0x00, 0x00, 0x00, 0x20, 0x00, 0x00, 0x00, 
  0x40, 0x00, 0x00, 0x00, 0x1e, 0x00, 0x00, 0x00, 0x00, 0x00, 0x00, 0x09, 
  0xb8, 0x00, 0x00, 0x00, 0x02, 0x00, 0x00, 0x00, 0xff, 0xff, 0xff, 0xff, 
  0x10, 0x00, 0x00, 0x00, 0xd4, 0xe2, 0xff, 0xff, 0x08, 0x00, 0x00, 0x00, 
  0x14, 0x00, 0x00, 0x00, 0x01, 0x00, 0x00, 0x00, 0x91, 0xff, 0xff, 0xff, 
  0xff, 0xff, 0xff, 0xff, 0x00, 0x00, 0x00, 0x00, 0x01, 0x00, 0x00, 0x00, 
  0x03, 0xe1, 0xff, 0x3c, 0x7d, 0x00, 0x00, 0x00, 0x45, 0x45, 0x47, 0x4e, 
  0x65, 0x74, 0x5f, 0x46, 0x75, 0x6e, 0x63, 0x74, 0x69, 0x6f, 0x6e, 0x61, 
  0x6c, 0x2f, 0x71, 0x75, 0x61, 0x6e, 0x74, 0x5f, 0x66, 0x6c, 0x61, 0x74, 
  0x74, 0x65, 0x6e, 0x2f, 0x52, 0x65, 0x73, 0x68, 0x61, 0x70, 0x65, 0x3b, 
  0x45, 0x45, 0x47, 0x4e, 0x65, 0x74, 0x5f, 0x46, 0x75, 0x6e, 0x63, 0x74, 
  0x69, 0x6f, 0x6e, 0x61, 0x6c, 0x2f, 0x71, 0x75, 0x61, 0x6e, 0x74, 0x5f, 
  0x61, 0x76, 0x65, 0x72, 0x61, 0x67, 0x65, 0x5f, 0x70, 0x6f, 0x6f, 0x6c, 
  0x69, 0x6e, 0x67, 0x32, 0x64, 0x5f, 0x31, 0x2f, 0x4d, 0x6f, 0x76, 0x69, 
  0x6e, 0x67, 0x41, 0x76, 0x67, 0x51, 0x75, 0x61, 0x6e, 0x74, 0x69, 0x7a, 
  0x65, 0x2f, 0x46, 0x61, 0x6b, 0x65, 0x51, 0x75, 0x61, 0x6e, 0x74, 0x57, 
  0x69, 0x74, 0x68, 0x4d, 0x69, 0x6e, 0x4d, 0x61, 0x78, 0x56, 0x61, 0x72, 
  0x73, 0x00, 0x00, 0x00, 0x02, 0x00, 0x00, 0x00, 0x01, 0x00, 0x00, 0x00, 
  0x10, 0x00, 0x00, 0x00, 0xd2, 0xe3, 0xff, 0xff, 0x00, 0x00, 0x00, 0x01, 
  0x18, 0x00, 0x00, 0x00, 0x28, 0x00, 0x00, 0x00, 0x48, 0x00, 0x00, 0x00, 
  0x1d, 0x00, 0x00, 0x00, 0x00, 0x00, 0x00, 0x09, 0x78, 0x00, 0x00, 0x00, 
  0x04, 0x00, 0x00, 0x00, 0xff, 0xff, 0xff, 0xff, 0x01, 0x00, 0x00, 0x00, 
  0x04, 0x00, 0x00, 0x00, 0x04, 0x00, 0x00, 0x00, 0xbc, 0xe3, 0xff, 0xff, 
  0x08, 0x00, 0x00, 0x00, 0x14, 0x00, 0x00, 0x00, 0x01, 0x00, 0x00, 0x00, 
  0x91, 0xff, 0xff, 0xff, 0xff, 0xff, 0xff, 0xff, 0x00, 0x00, 0x00, 0x00, 
  0x01, 0x00, 0x00, 0x00, 0x03, 0xe1, 0xff, 0x3c, 0x34, 0x00, 0x00, 0x00, 
  0x45, 0x45, 0x47, 0x4e, 0x65, 0x74, 0x5f, 0x46, 0x75, 0x6e, 0x63, 0x74, 
  0x69, 0x6f, 0x6e, 0x61, 0x6c, 0x2f, 0x71, 0x75, 0x61, 0x6e, 0x74, 0x5f, 
  0x61, 0x76, 0x65, 0x72, 0x61, 0x67, 0x65, 0x5f, 0x70, 0x6f, 0x6f, 0x6c, 
  0x69, 0x6e, 0x67, 0x32, 0x64, 0x5f, 0x31, 0x2f, 0x41, 0x76, 0x67, 0x50, 
  0x6f, 0x6f, 0x6c, 0x31, 0x00, 0x00, 0x00, 0x00, 0x04, 0x00, 0x00, 0x00, 
  0x01, 0x00, 0x00, 0x00, 0x01, 0x00, 0x00, 0x00, 0x04, 0x00, 0x00, 0x00, 
  0x04, 0x00, 0x00, 0x00, 0x7a, 0xe4, 0xff, 0xff, 0x00, 0x00, 0x00, 0x01, 
  0x18, 0x00, 0x00, 0x00, 0x28, 0x00, 0x00, 0x00, 0x44, 0x00, 0x00, 0x00, 
  0x1c, 0x00, 0x00, 0x00, 0x00, 0x00, 0x00, 0x09, 0x70, 0x00, 0x00, 0x00, 
  0x04, 0x00, 0x00, 0x00, 0xff, 0xff, 0xff, 0xff, 0x01, 0x00, 0x00, 0x00, 
  0x04, 0x00, 0x00, 0x00, 0x04, 0x00, 0x00, 0x00, 0x64, 0xe4, 0xff, 0xff, 
  0x08, 0x00, 0x00, 0x00, 0x10, 0x00, 0x00, 0x00, 0x01, 0x00, 0x00, 0x00, 
  0x8d, 0xff, 0xff, 0xff, 0xff, 0xff, 0xff, 0xff, 0x01, 0x00, 0x00, 0x00, 
  0xef, 0x66, 0x27, 0x3d, 0x33, 0x00, 0x00, 0x00, 0x45, 0x45, 0x47, 0x4e, 
  0x65, 0x74, 0x5f, 0x46, 0x75, 0x6e, 0x63, 0x74, 0x69, 0x6f, 0x6e, 0x61, 
  0x6c, 0x2f, 0x71, 0x75, 0x61, 0x6e, 0x74, 0x5f, 0x61, 0x76, 0x65, 0x72, 
  0x61, 0x67, 0x65, 0x5f, 0x70, 0x6f, 0x6f, 0x6c, 0x69, 0x6e, 0x67, 0x32, 
  0x64, 0x5f, 0x31, 0x2f, 0x41, 0x76, 0x67, 0x50, 0x6f, 0x6f, 0x6c, 0x00, 
  0x04, 0x00, 0x00, 0x00, 0x01, 0x00, 0x00, 0x00, 0x01, 0x00, 0x00, 0x00, 
  0x04, 0x00, 0x00, 0x00, 0x04, 0x00, 0x00, 0x00, 0x1a, 0xe5, 0xff, 0xff, 
  0x00, 0x00, 0x00, 0x01, 0x18, 0x00, 0x00, 0x00, 0x28, 0x00, 0x00, 0x00, 
  0x48, 0x00, 0x00, 0x00, 0x1b, 0x00, 0x00, 0x00, 0x00, 0x00, 0x00, 0x09, 
  0x38, 0x01, 0x00, 0x00, 0x04, 0x00, 0x00, 0x00, 0xff, 0xff, 0xff, 0xff, 
  0x01, 0x00, 0x00, 0x00, 0x20, 0x00, 0x00, 0x00, 0x04, 0x00, 0x00, 0x00, 
  0x04, 0xe5, 0xff, 0xff, 0x08, 0x00, 0x00, 0x00, 0x14, 0x00, 0x00, 0x00, 
  0x01, 0x00, 0x00, 0x00, 0x8d, 0xff, 0xff, 0xff, 0xff, 0xff, 0xff, 0xff, 
  0x00, 0x00, 0x00, 0x00, 0x01, 0x00, 0x00, 0x00, 0xef, 0x66, 0x27, 0x3d, 
  0xf5, 0x00, 0x00, 0x00, 0x45, 0x45, 0x47, 0x4e, 0x65, 0x74, 0x5f, 0x46, 
  0x75, 0x6e, 0x63, 0x74, 0x69, 0x6f, 0x6e, 0x61, 0x6c, 0x2f, 0x71, 0x75, 
  0x61, 0x6e, 0x74, 0x5f, 0x73, 0x65, 0x70, 0x5f, 0x68, 0x73, 0x77, 0x69, 
  0x73, 0x68, 0x2f, 0x6d, 0x75, 0x6c, 0x5f, 0x31, 0x3b, 0x45, 0x45, 0x47, 
  0x4e, 0x65, 0x74, 0x5f, 0x46, 0x75, 0x6e, 0x63, 0x74, 0x69, 0x6f, 0x6e, 
  0x61, 0x6c, 0x2f, 0x71, 0x75, 0x61, 0x6e, 0x74, 0x5f, 0x73, 0x65, 0x70, 
  0x5f, 0x68, 0x73, 0x77, 0x69, 0x73, 0x68, 0x2f, 0x43, 0x61, 0x73, 0x74, 
  0x2f, 0x78, 0x3b, 0x45, 0x45, 0x47, 0x4e, 0x65, 0x74, 0x5f, 0x46, 0x75, 
  0x6e, 0x63, 0x74, 0x69, 0x6f, 0x6e, 0x61, 0x6c, 0x2f, 0x71, 0x75, 0x61, 
  0x6e, 0x74, 0x5f, 0x73, 0x65, 0x70, 0x5f, 0x68, 0x73, 0x77, 0x69, 0x73, 
  0x68, 0x2f, 0x52, 0x65, 0x6c, 0x75, 0x36, 0x3b, 0x45, 0x45, 0x47, 0x4e, 
  0x65, 0x74, 0x5f, 0x46, 0x75, 0x6e, 0x63, 0x74, 0x69, 0x6f, 0x6e, 0x61, 
  0x6c, 0x2f, 0x71, 0x75, 0x61, 0x6e, 0x74, 0x5f, 0x73, 0x65, 0x70, 0x5f, 
  0x68, 0x73, 0x77, 0x69, 0x73, 0x68, 0x2f, 0x61, 0x64, 0x64, 0x3b, 0x45, 
  0x45, 0x47, 0x4e, 0x65, 0x74, 0x5f, 0x46, 0x75, 0x6e, 0x63, 0x74, 0x69, 
  0x6f, 0x6e, 0x61, 0x6c, 0x2f, 0x71, 0x75, 0x61, 0x6e, 0x74, 0x5f, 0x73, 
  0x65, 0x70, 0x5f, 0x68, 0x73, 0x77, 0x69, 0x73, 0x68, 0x2f, 0x6d, 0x75, 
  0x6c, 0x3b, 0x45, 0x45, 0x47, 0x4e, 0x65, 0x74, 0x5f, 0x46, 0x75, 0x6e, 
  0x63, 0x74, 0x69, 0x6f, 0x6e, 0x61, 0x6c, 0x2f, 0x71, 0x75, 0x61, 0x6e, 
  0x74, 0x5f, 0x73, 0x65, 0x70, 0x5f, 0x68, 0x73, 0x77, 0x69, 0x73, 0x68, 
  0x2f, 0x43, 0x61, 0x73, 0x74, 0x5f, 0x31, 0x2f, 0x78, 0x00, 0x00, 0x00, 
  0x04, 0x00, 0x00, 0x00, 0x01, 0x00, 0x00, 0x00, 0x01, 0x00, 0x00, 0x00, 
  0x20, 0x00, 0x00, 0x00, 0x04, 0x00, 0x00, 0x00, 0x82, 0xe6, 0xff, 0xff, 
  0x00, 0x00, 0x00, 0x01, 0x18, 0x00, 0x00, 0x00, 0x28, 0x00, 0x00, 0x00, 
  0x48, 0x00, 0x00, 0x00, 0x1a, 0x00, 0x00, 0x00, 0x00, 0x00, 0x00, 0x09, 
  0xb0, 0x00, 0x00, 0x00, 0x04, 0x00, 0x00, 0x00, 0xff, 0xff, 0xff, 0xff, 
  0x01, 0x00, 0x00, 0x00, 0x20, 0x00, 0x00, 0x00, 0x04, 0x00, 0x00, 0x00, 
  0x6c, 0xe6, 0xff, 0xff, 0x08, 0x00, 0x00, 0x00, 0x14, 0x00, 0x00, 0x00, 
  0x01, 0x00, 0x00, 0x00, 0xdb, 0xff, 0xff, 0xff, 0xff, 0xff, 0xff, 0xff, 
  0x00, 0x00, 0x00, 0x00, 0x01, 0x00, 0x00, 0x00, 0x79, 0xa3, 0x0f, 0x3d, 
  0x6c, 0x00, 0x00, 0x00, 0x45, 0x45, 0x47, 0x4e, 0x65, 0x74, 0x5f, 0x46, 
  0x75, 0x6e, 0x63, 0x74, 0x69, 0x6f, 0x6e, 0x61, 0x6c, 0x2f, 0x62, 0x61, 
  0x74, 0x63, 0x68, 0x5f, 0x6e, 0x6f, 0x72, 0x6d, 0x61, 0x6c, 0x69, 0x7a, 
  0x61, 0x74, 0x69, 0x6f, 0x6e, 0x5f, 0x32, 0x2f, 0x46, 0x75, 0x73, 0x65, 
  0x64, 0x42, 0x61, 0x74, 0x63, 0x68, 0x4e, 0x6f, 0x72, 0x6d, 0x56, 0x33, 
  0x3b, 0x45, 0x45, 0x47, 0x4e, 0x65, 0x74, 0x5f, 0x46, 0x75, 0x6e, 0x63, 
  0x74, 0x69, 0x6f, 0x6e, 0x61, 0x6c, 0x2f, 0x73, 0x65, 0x70, 0x61, 0x72, 
  0x61, 0x62, 0x6c, 0x65, 0x5f, 0x63, 0x6f, 0x6e, 0x76, 0x32, 0x64, 0x2f, 
  0x73, 0x65, 0x70, 0x61, 0x72, 0x61, 0x62, 0x6c, 0x65, 0x5f, 0x63, 0x6f, 
  0x6e, 0x76, 0x32, 0x64, 0x00, 0x00, 0x00, 0x00, 0x04, 0x00, 0x00, 0x00, 
  0x01, 0x00, 0x00, 0x00, 0x01, 0x00, 0x00, 0x00, 0x20, 0x00, 0x00, 0x00, 
  0x04, 0x00, 0x00, 0x00, 0x62, 0xe7, 0xff, 0xff, 0x00, 0x00, 0x00, 0x01, 
  0x18, 0x00, 0x00, 0x00, 0x28, 0x00, 0x00, 0x00, 0x48, 0x00, 0x00, 0x00, 
  0x19, 0x00, 0x00, 0x00, 0x00, 0x00, 0x00, 0x09, 0x80, 0x00, 0x00, 0x00, 
  0x04, 0x00, 0x00, 0x00, 0xff, 0xff, 0xff, 0xff, 0x01, 0x00, 0x00, 0x00, 
  0x20, 0x00, 0x00, 0x00, 0x20, 0x00, 0x00, 0x00, 0x4c, 0xe7, 0xff, 0xff, 
  0x08, 0x00, 0x00, 0x00, 0x14, 0x00, 0x00, 0x00, 0x01, 0x00, 0x00, 0x00, 
  0x21, 0x00, 0x00, 0x00, 0x00, 0x00, 0x00, 0x00, 0x00, 0x00, 0x00, 0x00, 
  0x01, 0x00, 0x00, 0x00, 0xd2, 0xa5, 0x88, 0x3c, 0x3f, 0x00, 0x00, 0x00, 
  0x45, 0x45, 0x47, 0x4e, 0x65, 0x74, 0x5f, 0x46, 0x75, 0x6e, 0x63, 0x74, 
  0x69, 0x6f, 0x6e, 0x61, 0x6c, 0x2f, 0x73, 0x65, 0x70, 0x61, 0x72, 0x61, 
  0x62, 0x6c, 0x65, 0x5f, 0x63, 0x6f, 0x6e, 0x76, 0x32, 0x64, 0x2f, 0x73, 
  0x65, 0x70, 0x61, 0x72, 0x61, 0x62, 0x6c, 0x65, 0x5f, 0x63, 0x6f, 0x6e, 
  0x76, 0x32, 0x64, 0x2f, 0x64, 0x65, 0x70, 0x74, 0x68, 0x77, 0x69, 0x73, 
  0x65, 0x32, 0x31, 0x00, 0x04, 0x00, 0x00, 0x00, 0x01, 0x00, 0x00, 0x00, 
  0x01, 0x00, 0x00, 0x00, 0x20, 0x00, 0x00, 0x00, 0x20, 0x00, 0x00, 0x00, 
  0x12, 0xe8, 0xff, 0xff, 0x00, 0x00, 0x00, 0x01, 0x18, 0x00, 0x00, 0x00, 
  0x28, 0x00, 0x00, 0x00, 0x44, 0x00, 0x00, 0x00, 0x18, 0x00, 0x00, 0x00, 
  0x00, 0x00, 0x00, 0x09, 0x58, 0x01, 0x00, 0x00, 0x04, 0x00, 0x00, 0x00, 
  0xff, 0xff, 0xff, 0xff, 0x01, 0x00, 0x00, 0x00, 0x20, 0x00, 0x00, 0x00, 
  0x20, 0x00, 0x00, 0x00, 0xfc, 0xe7, 0xff, 0xff, 0x08, 0x00, 0x00, 0x00, 
  0x10, 0x00, 0x00, 0x00, 0x01, 0x00, 0x00, 0x00, 0x91, 0xff, 0xff, 0xff, 
  0xff, 0xff, 0xff, 0xff, 0x01, 0x00, 0x00, 0x00, 0xd1, 0x65, 0x07, 0x3d, 
  0x1b, 0x01, 0x00, 0x00, 0x45, 0x45, 0x47, 0x4e, 0x65, 0x74, 0x5f, 0x46, 
  0x75, 0x6e, 0x63, 0x74, 0x69, 0x6f, 0x6e, 0x61, 0x6c, 0x2f, 0x71, 0x75, 
  0x61, 0x6e, 0x74, 0x5f, 0x61, 0x76, 0x65, 0x72, 0x61, 0x67, 0x65, 0x5f, 
  0x70, 0x6f, 0x6f, 0x6c, 0x69, 0x6e, 0x67, 0x32, 0x64, 0x2f, 0x4d, 0x6f, 
  0x76, 0x69, 0x6e, 0x67, 0x41, 0x76, 0x67, 0x51, 0x75, 0x61, 0x6e, 0x74, 
  0x69, 0x7a, 0x65, 0x2f, 0x46, 0x61, 0x6b, 0x65, 0x51, 0x75, 0x61, 0x6e, 
  0x74, 0x57, 0x69, 0x74, 0x68, 0x4d, 0x69, 0x6e, 0x4d, 0x61, 0x78, 0x56, 
  0x61, 0x72, 0x73, 0x3b, 0x45, 0x45, 0x47, 0x4e, 0x65, 0x74, 0x5f, 0x46, 
  0x75, 0x6e, 0x63, 0x74, 0x69, 0x6f, 0x6e, 0x61, 0x6c, 0x2f, 0x71, 0x75, 
  0x61, 0x6e, 0x74, 0x5f, 0x61, 0x76, 0x65, 0x72, 0x61, 0x67, 0x65, 0x5f, 
  0x70, 0x6f, 0x6f, 0x6c, 0x69, 0x6e, 0x67, 0x32, 0x64, 0x2f, 0x4d, 0x6f, 
  0x76, 0x69, 0x6e, 0x67, 0x41, 0x76, 0x67, 0x51, 0x75, 0x61, 0x6e, 0x74, 
  0x69, 0x7a, 0x65, 0x2f, 0x46, 0x61, 0x6b, 0x65, 0x51, 0x75, 0x61, 0x6e, 
  0x74, 0x57, 0x69, 0x74, 0x68, 0x4d, 0x69, 0x6e, 0x4d, 0x61, 0x78, 0x56, 
  0x61, 0x72, 0x73, 0x2f, 0x52, 0x65, 0x61, 0x64, 0x56, 0x61, 0x72, 0x69, 
  0x61, 0x62, 0x6c, 0x65, 0x4f, 0x70, 0x3b, 0x45, 0x45, 0x47, 0x4e, 0x65, 
  0x74, 0x5f, 0x46, 0x75, 0x6e, 0x63, 0x74, 0x69, 0x6f, 0x6e, 0x61, 0x6c, 
  0x2f, 0x71, 0x75, 0x61, 0x6e, 0x74, 0x5f, 0x61, 0x76, 0x65, 0x72, 0x61, 
  0x67, 0x65, 0x5f, 0x70, 0x6f, 0x6f, 0x6c, 0x69, 0x6e, 0x67, 0x32, 0x64, 
  0x2f, 0x4d, 0x6f, 0x76, 0x69, 0x6e, 0x67, 0x41, 0x76, 0x67, 0x51, 0x75, 
  0x61, 0x6e, 0x74, 0x69, 0x7a, 0x65, 0x2f, 0x46, 0x61, 0x6b, 0x65, 0x51, 
  0x75, 0x61, 0x6e, 0x74, 0x57, 0x69, 0x74, 0x68, 0x4d, 0x69, 0x6e, 0x4d, 
  0x61, 0x78, 0x56, 0x61, 0x72, 0x73, 0x2f, 0x52, 0x65, 0x61, 0x64, 0x56, 
  0x61, 0x72, 0x69, 0x61, 0x62, 0x6c, 0x65, 0x4f, 0x70, 0x5f, 0x31, 0x00, 
  0x04, 0x00, 0x00, 0x00, 0x01, 0x00, 0x00, 0x00, 0x01, 0x00, 0x00, 0x00, 
  0x20, 0x00, 0x00, 0x00, 0x20, 0x00, 0x00, 0x00, 0x9a, 0xe9, 0xff, 0xff, 
  0x00, 0x00, 0x00, 0x01, 0x18, 0x00, 0x00, 0x00, 0x28, 0x00, 0x00, 0x00, 
  0x44, 0x00, 0x00, 0x00, 0x17, 0x00, 0x00, 0x00, 0x00, 0x00, 0x00, 0x09, 
  0x70, 0x00, 0x00, 0x00, 0x04, 0x00, 0x00, 0x00, 0xff, 0xff, 0xff, 0xff, 
  0x01, 0x00, 0x00, 0x00, 0x20, 0x00, 0x00, 0x00, 0x20, 0x00, 0x00, 0x00, 
  0x84, 0xe9, 0xff, 0xff, 0x08, 0x00, 0x00, 0x00, 0x10, 0x00, 0x00, 0x00, 
  0x01, 0x00, 0x00, 0x00, 0x89, 0xff, 0xff, 0xff, 0xff, 0xff, 0xff, 0xff, 
  0x01, 0x00, 0x00, 0x00, 0xc3, 0x1b, 0x71, 0x3d, 0x31, 0x00, 0x00, 0x00, 
  0x45, 0x45, 0x47, 0x4e, 0x65, 0x74, 0x5f, 0x46, 0x75, 0x6e, 0x63, 0x74, 
  0x69, 0x6f, 0x6e, 0x61, 0x6c, 0x2f, 0x71, 0x75, 0x61, 0x6e, 0x74, 0x5f, 
  0x61, 0x76, 0x65, 0x72, 0x61, 0x67, 0x65, 0x5f, 0x70, 0x6f, 0x6f, 0x6c, 
  0x69, 0x6e, 0x67, 0x32, 0x64, 0x2f, 0x41, 0x76, 0x67, 0x50, 0x6f, 0x6f, 
  0x6c, 0x00, 0x00, 0x00, 0x04, 0x00, 0x00, 0x00, 0x01, 0x00, 0x00, 0x00, 
  0x01, 0x00, 0x00, 0x00, 0x20, 0x00, 0x00, 0x00, 0x20, 0x00, 0x00, 0x00, 
  0x3a, 0xea, 0xff, 0xff, 0x00, 0x00, 0x00, 0x01, 0x18, 0x00, 0x00, 0x00, 
  0x28, 0x00, 0x00, 0x00, 0x48, 0x00, 0x00, 0x00, 0x16, 0x00, 0x00, 0x00, 
  0x00, 0x00, 0x00, 0x09, 0x48, 0x01, 0x00, 0x00, 0x04, 0x00, 0x00, 0x00, 
  0xff, 0xff, 0xff, 0xff, 0x01, 0x00, 0x00, 0x00, 0x80, 0x00, 0x00, 0x00, 
  0x20, 0x00, 0x00, 0x00, 0x24, 0xea, 0xff, 0xff, 0x08, 0x00, 0x00, 0x00, 
  0x14, 0x00, 0x00, 0x00, 0x01, 0x00, 0x00, 0x00, 0x89, 0xff, 0xff, 0xff, 
  0xff, 0xff, 0xff, 0xff, 0x00, 0x00, 0x00, 0x00, 0x01, 0x00, 0x00, 0x00, 
  0xc3, 0x1b, 0x71, 0x3d, 0x05, 0x01, 0x00, 0x00, 0x45, 0x45, 0x47, 0x4e, 
  0x65, 0x74, 0x5f, 0x46, 0x75, 0x6e, 0x63, 0x74, 0x69, 0x6f, 0x6e, 0x61, 
  0x6c, 0x2f, 0x71, 0x75, 0x61, 0x6e, 0x74, 0x5f, 0x73, 0x70, 0x61, 0x74, 
  0x69, 0x61, 0x6c, 0x5f, 0x68, 0x73, 0x77, 0x69, 0x73, 0x68, 0x2f, 0x6d, 
  0x75, 0x6c, 0x5f, 0x31, 0x3b, 0x45, 0x45, 0x47, 0x4e, 0x65, 0x74, 0x5f, 
  0x46, 0x75, 0x6e, 0x63, 0x74, 0x69, 0x6f, 0x6e, 0x61, 0x6c, 0x2f, 0x71, 
  0x75, 0x61, 0x6e, 0x74, 0x5f, 0x73, 0x65, 0x70, 0x5f, 0x68, 0x73, 0x77, 
  0x69, 0x73, 0x68, 0x2f, 0x43, 0x61, 0x73, 0x74, 0x2f, 0x78, 0x3b, 0x45, 
  0x45, 0x47, 0x4e, 0x65, 0x74, 0x5f, 0x46, 0x75, 0x6e, 0x63, 0x74, 0x69, 
  0x6f, 0x6e, 0x61, 0x6c, 0x2f, 0x71, 0x75, 0x61, 0x6e, 0x74, 0x5f, 0x73, 
  0x70, 0x61, 0x74, 0x69, 0x61, 0x6c, 0x5f, 0x68, 0x73, 0x77, 0x69, 0x73, 
  0x68, 0x2f, 0x52, 0x65, 0x6c, 0x75, 0x36, 0x3b, 0x45, 0x45, 0x47, 0x4e, 
  0x65, 0x74, 0x5f, 0x46, 0x75, 0x6e, 0x63, 0x74, 0x69, 0x6f, 0x6e, 0x61, 
  0x6c, 0x2f, 0x71, 0x75, 0x61, 0x6e, 0x74, 0x5f, 0x73, 0x70, 0x61, 0x74, 
  0x69, 0x61, 0x6c, 0x5f, 0x68, 0x73, 0x77, 0x69, 0x73, 0x68, 0x2f, 0x61, 
  0x64, 0x64, 0x3b, 0x45, 0x45, 0x47, 0x4e, 0x65, 0x74, 0x5f, 0x46, 0x75, 
  0x6e, 0x63, 0x74, 0x69, 0x6f, 0x6e, 0x61, 0x6c, 0x2f, 0x71, 0x75, 0x61, 
  0x6e, 0x74, 0x5f, 0x73, 0x70, 0x61, 0x74, 0x69, 0x61, 0x6c, 0x5f, 0x68, 
  0x73, 0x77, 0x69, 0x73, 0x68, 0x2f, 0x6d, 0x75, 0x6c, 0x3b, 0x45, 0x45, 
  0x47, 0x4e, 0x65, 0x74, 0x5f, 0x46, 0x75, 0x6e, 0x63, 0x74, 0x69, 0x6f, 
  0x6e, 0x61, 0x6c, 0x2f, 0x71, 0x75, 0x61, 0x6e, 0x74, 0x5f, 0x73, 0x65, 
  0x70, 0x5f, 0x68, 0x73, 0x77, 0x69, 0x73, 0x68, 0x2f, 0x43, 0x61, 0x73, 
  0x74, 0x5f, 0x31, 0x2f, 0x78, 0x00, 0x00, 0x00, 0x04, 0x00, 0x00, 0x00, 
  0x01, 0x00, 0x00, 0x00, 0x01, 0x00, 0x00, 0x00, 0x80, 0x00, 0x00, 0x00, 
  0x20, 0x00, 0x00, 0x00, 0xb2, 0xeb, 0xff, 0xff, 0x00, 0x00, 0x00, 0x01, 
  0x18, 0x00, 0x00, 0x00, 0x28, 0x00, 0x00, 0x00, 0x44, 0x00, 0x00, 0x00, 
  0x15, 0x00, 0x00, 0x00, 0x00, 0x00, 0x00, 0x09, 0x78, 0x00, 0x00, 0x00, 
  0x04, 0x00, 0x00, 0x00, 0xff, 0xff, 0xff, 0xff, 0x01, 0x00, 0x00, 0x00, 
  0x80, 0x00, 0x00, 0x00, 0x20, 0x00, 0x00, 0x00, 0x9c, 0xeb, 0xff, 0xff, 
  0x08, 0x00, 0x00, 0x00, 0x10, 0x00, 0x00, 0x00, 0x01, 0x00, 0x00, 0x00, 
  0xe8, 0xff, 0xff, 0xff, 0xff, 0xff, 0xff, 0xff, 0x01, 0x00, 0x00, 0x00, 
  0xda, 0x75, 0x96, 0x3d, 0x39, 0x00, 0x00, 0x00, 0x45, 0x45, 0x47, 0x4e, 
  0x65, 0x74, 0x5f, 0x46, 0x75, 0x6e, 0x63, 0x74, 0x69, 0x6f, 0x6e, 0x61, 
  0x6c, 0x2f, 0x62, 0x61, 0x74, 0x63, 0x68, 0x5f, 0x6e, 0x6f, 0x72, 0x6d, 
  0x61, 0x6c, 0x69, 0x7a, 0x61, 0x74, 0x69, 0x6f, 0x6e, 0x5f, 0x31, 0x2f, 
  0x46, 0x75, 0x73, 0x65, 0x64, 0x42, 0x61, 0x74, 0x63, 0x68, 0x4e, 0x6f, 
  0x72, 0x6d, 0x56, 0x33, 0x33, 0x00, 0x00, 0x00, 0x04, 0x00, 0x00, 0x00, 
  0x01, 0x00, 0x00, 0x00, 0x01, 0x00, 0x00, 0x00, 0x80, 0x00, 0x00, 0x00, 
  0x20, 0x00, 0x00, 0x00, 0x5a, 0xec, 0xff, 0xff, 0x00, 0x00, 0x00, 0x01, 
  0x18, 0x00, 0x00, 0x00, 0x28, 0x00, 0x00, 0x00, 0x44, 0x00, 0x00, 0x00, 
  0x14, 0x00, 0x00, 0x00, 0x00, 0x00, 0x00, 0x09, 0x78, 0x00, 0x00, 0x00, 
  0x04, 0x00, 0x00, 0x00, 0xff, 0xff, 0xff, 0xff, 0x01, 0x00, 0x00, 0x00, 
  0x80, 0x00, 0x00, 0x00, 0x20, 0x00, 0x00, 0x00, 0x44, 0xec, 0xff, 0xff, 
  0x08, 0x00, 0x00, 0x00, 0x10, 0x00, 0x00, 0x00, 0x01, 0x00, 0x00, 0x00, 
  0xe9, 0xff, 0xff, 0xff, 0xff, 0xff, 0xff, 0xff, 0x01, 0x00, 0x00, 0x00, 
  0x33, 0xf4, 0x96, 0x3d, 0x39, 0x00, 0x00, 0x00, 0x45, 0x45, 0x47, 0x4e, 
  0x65, 0x74, 0x5f, 0x46, 0x75, 0x6e, 0x63, 0x74, 0x69, 0x6f, 0x6e, 0x61, 
  0x6c, 0x2f, 0x62, 0x61, 0x74, 0x63, 0x68, 0x5f, 0x6e, 0x6f, 0x72, 0x6d, 
  0x61, 0x6c, 0x69, 0x7a, 0x61, 0x74, 0x69, 0x6f, 0x6e, 0x5f, 0x31, 0x2f, 
  0x46, 0x75, 0x73, 0x65, 0x64, 0x42, 0x61, 0x74, 0x63, 0x68, 0x4e, 0x6f, 
  0x72, 0x6d, 0x56, 0x33, 0x32, 0x00, 0x00, 0x00, 0x04, 0x00, 0x00, 0x00, 
  0x01, 0x00, 0x00, 0x00, 0x01, 0x00, 0x00, 0x00, 0x80, 0x00, 0x00, 0x00, 
  0x20, 0x00, 0x00, 0x00, 0x02, 0xed, 0xff, 0xff, 0x00, 0x00, 0x00, 0x01, 
  0x18, 0x00, 0x00, 0x00, 0x28, 0x00, 0x00, 0x00, 0x44, 0x00, 0x00, 0x00, 
  0x13, 0x00, 0x00, 0x00, 0x00, 0x00, 0x00, 0x09, 0x70, 0x00, 0x00, 0x00, 
  0x04, 0x00, 0x00, 0x00, 0xff, 0xff, 0xff, 0xff, 0x01, 0x00, 0x00, 0x00, 
  0x80, 0x00, 0x00, 0x00, 0x20, 0x00, 0x00, 0x00, 0xec, 0xec, 0xff, 0xff, 
  0x08, 0x00, 0x00, 0x00, 0x10, 0x00, 0x00, 0x00, 0x01, 0x00, 0x00, 0x00, 
  0xff, 0xff, 0xff, 0xff, 0xff, 0xff, 0xff, 0xff, 0x01, 0x00, 0x00, 0x00, 
  0x37, 0x65, 0x07, 0x3d, 0x32, 0x00, 0x00, 0x00, 0x45, 0x45, 0x47, 0x4e, 
  0x65, 0x74, 0x5f, 0x46, 0x75, 0x6e, 0x63, 0x74, 0x69, 0x6f, 0x6e, 0x61, 
  0x6c, 0x2f, 0x71, 0x75, 0x61, 0x6e, 0x74, 0x5f, 0x64, 0x65, 0x70, 0x74, 
  0x68, 0x77, 0x69, 0x73, 0x65, 0x5f, 0x63, 0x6f, 0x6e, 0x76, 0x32, 0x64, 
  0x2f, 0x64, 0x65, 0x70, 0x74, 0x68, 0x77, 0x69, 0x73, 0x65, 0x00, 0x00, 
  0x04, 0x00, 0x00, 0x00, 0x01, 0x00, 0x00, 0x00, 0x01, 0x00, 0x00, 0x00, 
  0x80, 0x00, 0x00, 0x00, 0x20, 0x00, 0x00, 0x00, 0xa2, 0xed, 0xff, 0xff, 
  0x00, 0x00, 0x00, 0x01, 0x18, 0x00, 0x00, 0x00, 0x28, 0x00, 0x00, 0x00, 
  0x48, 0x00, 0x00, 0x00, 0x12, 0x00, 0x00, 0x00, 0x00, 0x00, 0x00, 0x09, 
  0x78, 0x00, 0x00, 0x00, 0x04, 0x00, 0x00, 0x00, 0xff, 0xff, 0xff, 0xff, 
  0x10, 0x00, 0x00, 0x00, 0x80, 0x00, 0x00, 0x00, 0x10, 0x00, 0x00, 0x00, 
  0x8c, 0xed, 0xff, 0xff, 0x08, 0x00, 0x00, 0x00, 0x14, 0x00, 0x00, 0x00, 
  0x01, 0x00, 0x00, 0x00, 0xfe, 0xff, 0xff, 0xff, 0xff, 0xff, 0xff, 0xff, 
  0x00, 0x00, 0x00, 0x00, 0x01, 0x00, 0x00, 0x00, 0x99, 0x80, 0xa7, 0x3d, 
  0x37, 0x00, 0x00, 0x00, 0x45, 0x45, 0x47, 0x4e, 0x65, 0x74, 0x5f, 0x46, 
  0x75, 0x6e, 0x63, 0x74, 0x69, 0x6f, 0x6e, 0x61, 0x6c, 0x2f, 0x62, 0x61, 
  0x74, 0x63, 0x68, 0x5f, 0x6e, 0x6f, 0x72, 0x6d, 0x61, 0x6c, 0x69, 0x7a, 
  0x61, 0x74, 0x69, 0x6f, 0x6e, 0x2f, 0x46, 0x75, 0x73, 0x65, 0x64, 0x42, 
  0x61, 0x74, 0x63, 0x68, 0x4e, 0x6f, 0x72, 0x6d, 0x56, 0x33, 0x33, 0x00, 
  0x04, 0x00, 0x00, 0x00, 0x01, 0x00, 0x00, 0x00, 0x10, 0x00, 0x00, 0x00, 
  0x80, 0x00, 0x00, 0x00, 0x10, 0x00, 0x00, 0x00, 0x4a, 0xee, 0xff, 0xff, 
  0x00, 0x00, 0x00, 0x01, 0x18, 0x00, 0x00, 0x00, 0x28, 0x00, 0x00, 0x00, 
  0x48, 0x00, 0x00, 0x00, 0x11, 0x00, 0x00, 0x00, 0x00, 0x00, 0x00, 0x09, 
  0x78, 0x00, 0x00, 0x00, 0x04, 0x00, 0x00, 0x00, 0xff, 0xff, 0xff, 0xff, 
  0x10, 0x00, 0x00, 0x00, 0x80, 0x00, 0x00, 0x00, 0x10, 0x00, 0x00, 0x00, 
  0x34, 0xee, 0xff, 0xff, 0x08, 0x00, 0x00, 0x00, 0x14, 0x00, 0x00, 0x00, 
  0x01, 0x00, 0x00, 0x00, 0xfe, 0xff, 0xff, 0xff, 0xff, 0xff, 0xff, 0xff, 
  0x00, 0x00, 0x00, 0x00, 0x01, 0x00, 0x00, 0x00, 0x6a, 0x8d, 0xa7, 0x3d, 
  0x37, 0x00, 0x00, 0x00, 0x45, 0x45, 0x47, 0x4e, 0x65, 0x74, 0x5f, 0x46, 
  0x75, 0x6e, 0x63, 0x74, 0x69, 0x6f, 0x6e, 0x61, 0x6c, 0x2f, 0x62, 0x61, 
  0x74, 0x63, 0x68, 0x5f, 0x6e, 0x6f, 0x72, 0x6d, 0x61, 0x6c, 0x69, 0x7a, 
  0x61, 0x74, 0x69, 0x6f, 0x6e, 0x2f, 0x46, 0x75, 0x73, 0x65, 0x64, 0x42, 
  0x61, 0x74, 0x63, 0x68, 0x4e, 0x6f, 0x72, 0x6d, 0x56, 0x33, 0x32, 0x00, 
  0x04, 0x00, 0x00, 0x00, 0x01, 0x00, 0x00, 0x00, 0x10, 0x00, 0x00, 0x00, 
  0x80, 0x00, 0x00, 0x00, 0x10, 0x00, 0x00, 0x00, 0xf2, 0xee, 0xff, 0xff, 
  0x00, 0x00, 0x00, 0x01, 0x18, 0x00, 0x00, 0x00, 0x28, 0x00, 0x00, 0x00, 
  0x48, 0x00, 0x00, 0x00, 0x10, 0x00, 0x00, 0x00, 0x00, 0x00, 0x00, 0x09, 
  0x68, 0x00, 0x00, 0x00, 0x04, 0x00, 0x00, 0x00, 0xff, 0xff, 0xff, 0xff, 
  0x10, 0x00, 0x00, 0x00, 0x80, 0x00, 0x00, 0x00, 0x10, 0x00, 0x00, 0x00, 
  0xdc, 0xee, 0xff, 0xff, 0x08, 0x00, 0x00, 0x00, 0x14, 0x00, 0x00, 0x00, 
  0x01, 0x00, 0x00, 0x00, 0xff, 0xff, 0xff, 0xff, 0xff, 0xff, 0xff, 0xff, 
  0x00, 0x00, 0x00, 0x00, 0x01, 0x00, 0x00, 0x00, 0x1f, 0x68, 0xa2, 0x3c, 
  0x26, 0x00, 0x00, 0x00, 0x45, 0x45, 0x47, 0x4e, 0x65, 0x74, 0x5f, 0x46, 
  0x75, 0x6e, 0x63, 0x74, 0x69, 0x6f, 0x6e, 0x61, 0x6c, 0x2f, 0x71, 0x75, 
  0x61, 0x6e, 0x74, 0x5f, 0x63, 0x6f, 0x6e, 0x76, 0x32, 0x64, 0x2f, 0x43, 
  0x6f, 0x6e, 0x76, 0x32, 0x44, 0x31, 0x00, 0x00, 0x04, 0x00, 0x00, 0x00, 
  0x01, 0x00, 0x00, 0x00, 0x10, 0x00, 0x00, 0x00, 0x80, 0x00, 0x00, 0x00, 
  0x10, 0x00, 0x00, 0x00, 0xfa, 0xef, 0xff, 0xff, 0x00, 0x00, 0x00, 0x01, 
  0x14, 0x00, 0x00, 0x00, 0xe8, 0x00, 0x00, 0x00, 0x0f, 0x00, 0x00, 0x00, 
  0x00, 0x00, 0x00, 0x02, 0x08, 0x01, 0x00, 0x00, 0x5c, 0xef, 0xff, 0xff, 
  0x08, 0x00, 0x00, 0x00, 0x8c, 0x00, 0x00, 0x00, 0x10, 0x00, 0x00, 0x00, 
  0x00, 0x00, 0x00, 0x00, 0x00, 0x00, 0x00, 0x00, 0x00, 0x00, 0x00, 0x00, 
  0x00, 0x00, 0x00, 0x00, 0x00, 0x00, 0x00, 0x00, 0x00, 0x00, 0x00, 0x00, 
  0x00, 0x00, 0x00, 0x00, 0x00, 0x00, 0x00, 0x00, 0x00, 0x00, 0x00, 0x00, 
  0x00, 0x00, 0x00, 0x00, 0x00, 0x00, 0x00, 0x00, 0x00, 0x00, 0x00, 0x00, 
  0x00, 0x00, 0x00, 0x00, 0x00, 0x00, 0x00, 0x00, 0x00, 0x00, 0x00, 0x00, 
  0x00, 0x00, 0x00, 0x00, 0x00, 0x00, 0x00, 0x00, 0x00, 0x00, 0x00, 0x00, 
  0x00, 0x00, 0x00, 0x00, 0x00, 0x00, 0x00, 0x00, 0x00, 0x00, 0x00, 0x00, 
  0x00, 0x00, 0x00, 0x00, 0x00, 0x00, 0x00, 0x00, 0x00, 0x00, 0x00, 0x00, 
  0x00, 0x00, 0x00, 0x00, 0x00, 0x00, 0x00, 0x00, 0x00, 0x00, 0x00, 0x00, 
  0x00, 0x00, 0x00, 0x00, 0x00, 0x00, 0x00, 0x00, 0x00, 0x00, 0x00, 0x00, 
  0x00, 0x00, 0x00, 0x00, 0x00, 0x00, 0x00, 0x00, 0x00, 0x00, 0x00, 0x00, 
  0x10, 0x00, 0x00, 0x00, 0xd3, 0x8a, 0x9e, 0x38, 0xe0, 0x6f, 0x89, 0x38, 
  0xdb, 0x08, 0x98, 0x38, 0x8d, 0x5a, 0x78, 0x38, 0x3d, 0xca, 0xb7, 0x38, 
  0x60, 0x7a, 0x75, 0x38, 0xac, 0xa1, 0x6b, 0x38, 0x1e, 0x6b, 0xa2, 0x38, 
  0x01, 0x9f, 0x8a, 0x38, 0x3b, 0x0f, 0xbe, 0x38, 0x19, 0x88, 0xab, 0x38, 
  0xcd, 0xdd, 0x87, 0x38, 0x9e, 0x52, 0x97, 0x38, 0x02, 0xd5, 0x7c, 0x38, 
  0x9c, 0xa8, 0x8b, 0x38, 0x83, 0x3b, 0x67, 0x38, 0x25, 0x00, 0x00, 0x00, 
  0x45, 0x45, 0x47, 0x4e, 0x65, 0x74, 0x5f, 0x46, 0x75, 0x6e, 0x63, 0x74, 
  0x69, 0x6f, 0x6e, 0x61, 0x6c, 0x2f, 0x71, 0x75, 0x61, 0x6e, 0x74, 0x5f, 
  0x63, 0x6f, 0x6e, 0x76, 0x32, 0x64, 0x2f, 0x43, 0x6f, 0x6e, 0x76, 0x32, 
  0x44, 0x00, 0x00, 0x00, 0x01, 0x00, 0x00, 0x00, 0x10, 0x00, 0x00, 0x00, 
  0x22, 0xf1, 0xff, 0xff, 0x00, 0x00, 0x00, 0x01, 0x14, 0x00, 0x00, 0x00, 
  0xe4, 0x00, 0x00, 0x00, 0x0e, 0x00, 0x00, 0x00, 0x00, 0x00, 0x00, 0x09, 
  0x54, 0x01, 0x00, 0x00, 0x84, 0xf0, 0xff, 0xff, 0x08, 0x00, 0x00, 0x00, 
  0x88, 0x00, 0x00, 0x00, 0x10, 0x00, 0x00, 0x00, 0x00, 0x00, 0x00, 0x00, 
  0x00, 0x00, 0x00, 0x00, 0x00, 0x00, 0x00, 0x00, 0x00, 0x00, 0x00, 0x00, 
  0x00, 0x00, 0x00, 0x00, 0x00, 0x00, 0x00, 0x00, 0x00, 0x00, 0x00, 0x00, 
  0x00, 0x00, 0x00, 0x00, 0x00, 0x00, 0x00, 0x00, 0x00, 0x00, 0x00, 0x00, 
  0x00, 0x00, 0x00, 0x00, 0x00, 0x00, 0x00, 0x00, 0x00, 0x00, 0x00, 0x00, 
  0x00, 0x00, 0x00, 0x00, 0x00, 0x00, 0x00, 0x00, 0x00, 0x00, 0x00, 0x00, 
  0x00, 0x00, 0x00, 0x00, 0x00, 0x00, 0x00, 0x00, 0x00, 0x00, 0x00, 0x00, 
  0x00, 0x00, 0x00, 0x00, 0x00, 0x00, 0x00, 0x00, 0x00, 0x00, 0x00, 0x00, 
  0x00, 0x00, 0x00, 0x00, 0x00, 0x00, 0x00, 0x00, 0x00, 0x00, 0x00, 0x00, 
  0x00, 0x00, 0x00, 0x00, 0x00, 0x00, 0x00, 0x00, 0x00, 0x00, 0x00, 0x00, 
  0x00, 0x00, 0x00, 0x00, 0x00, 0x00, 0x00, 0x00, 0x00, 0x00, 0x00, 0x00, 
  0x00, 0x00, 0x00, 0x00, 0x10, 0x00, 0x00, 0x00, 0xf9, 0x96, 0x65, 0x3a, 
  0xcf, 0x06, 0x47, 0x3a, 0x70, 0x2a, 0x5c, 0x3a, 0xfc, 0xd2, 0x33, 0x3a, 
  0x6b, 0x13, 0x85, 0x3a, 0xf2, 0xbd, 0x31, 0x3a, 0xcc, 0x9c, 0x2a, 0x3a, 
  0xf1, 0x33, 0x6b, 0x3a, 0xc7, 0xbd, 0x48, 0x3a, 0x89, 0x9d, 0x89, 0x3a, 
  0x67, 0x66, 0x78, 0x3a, 0x8d, 0xc0, 0x44, 0x3a, 0x88, 0x22, 0x5b, 0x3a, 
  0x18, 0x11, 0x37, 0x3a, 0x68, 0x3e, 0x4a, 0x3a, 0x62, 0x6d, 0x27, 0x3a, 
  0x75, 0x00, 0x00, 0x00, 0x45, 0x45, 0x47, 0x4e, 0x65, 0x74, 0x5f, 0x46, 
  0x75, 0x6e, 0x63, 0x74, 0x69, 0x6f, 0x6e, 0x61, 0x6c, 0x2f, 0x71, 0x75, 
  0x61, 0x6e, 0x74, 0x5f, 0x63, 0x6f, 0x6e, 0x76, 0x32, 0x64, 0x2f, 0x43, 
  0x6f, 0x6e, 0x76, 0x32, 0x44, 0x3b, 0x45, 0x45, 0x47, 0x4e, 0x65, 0x74, 
  0x5f, 0x46, 0x75, 0x6e, 0x63, 0x74, 0x69, 0x6f, 0x6e, 0x61, 0x6c, 0x2f, 
  0x71, 0x75, 0x61, 0x6e, 0x74, 0x5f, 0x63, 0x6f, 0x6e, 0x76, 0x32, 0x64, 
  0x2f, 0x4c, 0x61, 0x73, 0x74, 0x56, 0x61, 0x6c, 0x75, 0x65, 0x51, 0x75, 
  0x61, 0x6e, 0x74, 0x2f, 0x46, 0x61, 0x6b, 0x65, 0x51, 0x75, 0x61, 0x6e, 
  0x74, 0x57, 0x69, 0x74, 0x68, 0x4d, 0x69, 0x6e, 0x4d, 0x61, 0x78, 0x56, 
  0x61, 0x72, 0x73, 0x50, 0x65, 0x72, 0x43, 0x68, 0x61, 0x6e, 0x6e, 0x65, 
  0x6c, 0x00, 0x00, 0x00, 0x04, 0x00, 0x00, 0x00, 0x10, 0x00, 0x00, 0x00, 
  0x01, 0x00, 0x00, 0x00, 0x40, 0x00, 0x00, 0x00, 0x01, 0x00, 0x00, 0x00, 
  0x32, 0xf2, 0xff, 0xff, 0x00, 0x00, 0x00, 0x01, 0x18, 0x00, 0x00, 0x00, 
  0x28, 0x00, 0x00, 0x00, 0x44, 0x00, 0x00, 0x00, 0x0d, 0x00, 0x00, 0x00, 
  0x00, 0x00, 0x00, 0x09, 0x40, 0x01, 0x00, 0x00, 0x04, 0x00, 0x00, 0x00, 
  0xff, 0xff, 0xff, 0xff, 0x10, 0x00, 0x00, 0x00, 0x80, 0x00, 0x00, 0x00, 
  0x01, 0x00, 0x00, 0x00, 0x1c, 0xf2, 0xff, 0xff, 0x08, 0x00, 0x00, 0x00, 
  0x10, 0x00, 0x00, 0x00, 0x01, 0x00, 0x00, 0x00, 0xff, 0xff, 0xff, 0xff, 
  0xff, 0xff, 0xff, 0xff, 0x01, 0x00, 0x00, 0x00, 0xa0, 0xc7, 0xb0, 0x3d, 
  0x00, 0x01, 0x00, 0x00, 0x45, 0x45, 0x47, 0x4e, 0x65, 0x74, 0x5f, 0x46, 
  0x75, 0x6e, 0x63, 0x74, 0x69, 0x6f, 0x6e, 0x61, 0x6c, 0x2f, 0x71, 0x75, 
  0x61, 0x6e, 0x74, 0x69, 0x7a, 0x65, 0x5f, 0x6c, 0x61, 0x79, 0x65, 0x72, 
  0x2f, 0x41, 0x6c, 0x6c, 0x56, 0x61, 0x6c, 0x75, 0x65, 0x73, 0x51, 0x75, 
  0x61, 0x6e, 0x74, 0x69, 0x7a, 0x65, 0x2f, 0x46, 0x61, 0x6b, 0x65, 0x51, 
  0x75, 0x61, 0x6e, 0x74, 0x57, 0x69, 0x74, 0x68, 0x4d, 0x69, 0x6e, 0x4d, 
  0x61, 0x78, 0x56, 0x61, 0x72, 0x73, 0x3b, 0x45, 0x45, 0x47, 0x4e, 0x65, 
  0x74, 0x5f, 0x46, 0x75, 0x6e, 0x63, 0x74, 0x69, 0x6f, 0x6e, 0x61, 0x6c, 
  0x2f, 0x71, 0x75, 0x61, 0x6e, 0x74, 0x69, 0x7a, 0x65, 0x5f, 0x6c, 0x61, 
  0x79, 0x65, 0x72, 0x2f, 0x41, 0x6c, 0x6c, 0x56, 0x61, 0x6c, 0x75, 0x65, 
  0x73, 0x51, 0x75, 0x61, 0x6e, 0x74, 0x69, 0x7a, 0x65, 0x2f, 0x46, 0x61, 
  0x6b, 0x65, 0x51, 0x75, 0x61, 0x6e, 0x74, 0x57, 0x69, 0x74, 0x68, 0x4d, 
  0x69, 0x6e, 0x4d, 0x61, 0x78, 0x56, 0x61, 0x72, 0x73, 0x2f, 0x52, 0x65, 
  0x61, 0x64, 0x56, 0x61, 0x72, 0x69, 0x61, 0x62, 0x6c, 0x65, 0x4f, 0x70, 
  0x3b, 0x45, 0x45, 0x47, 0x4e, 0x65, 0x74, 0x5f, 0x46, 0x75, 0x6e, 0x63, 
  0x74, 0x69, 0x6f, 0x6e, 0x61, 0x6c, 0x2f, 0x71, 0x75, 0x61, 0x6e, 0x74, 
  0x69, 0x7a, 0x65, 0x5f, 0x6c, 0x61, 0x79, 0x65, 0x72, 0x2f, 0x41, 0x6c, 
  0x6c, 0x56, 0x61, 0x6c, 0x75, 0x65, 0x73, 0x51, 0x75, 0x61, 0x6e, 0x74, 
  0x69, 0x7a, 0x65, 0x2f, 0x46, 0x61, 0x6b, 0x65, 0x51, 0x75, 0x61, 0x6e, 
  0x74, 0x57, 0x69, 0x74, 0x68, 0x4d, 0x69, 0x6e, 0x4d, 0x61, 0x78, 0x56, 
  0x61, 0x72, 0x73, 0x2f, 0x52, 0x65, 0x61, 0x64, 0x56, 0x61, 0x72, 0x69, 
  0x61, 0x62, 0x6c, 0x65, 0x4f, 0x70, 0x5f, 0x31, 0x00, 0x00, 0x00, 0x00, 
  0x04, 0x00, 0x00, 0x00, 0x01, 0x00, 0x00, 0x00, 0x10, 0x00, 0x00, 0x00, 
  0x80, 0x00, 0x00, 0x00, 0x01, 0x00, 0x00, 0x00, 0x12, 0xf4, 0xff, 0xff, 
  0x00, 0x00, 0x00, 0x01, 0x14, 0x00, 0x00, 0x00, 0x30, 0x00, 0x00, 0x00, 
  0x0c, 0x00, 0x00, 0x00, 0x00, 0x00, 0x00, 0x09, 0x60, 0x00, 0x00, 0x00, 
  0x74, 0xf3, 0xff, 0xff, 0x08, 0x00, 0x00, 0x00, 0x10, 0x00, 0x00, 0x00, 
  0x01, 0x00, 0x00, 0x00, 0x80, 0xff, 0xff, 0xff, 0xff, 0xff, 0xff, 0xff, 
  0x01, 0x00, 0x00, 0x00, 0x53, 0xb3, 0xc9, 0x3c, 0x36, 0x00, 0x00, 0x00, 
  0x45, 0x45, 0x47, 0x4e, 0x65, 0x74, 0x5f, 0x46, 0x75, 0x6e, 0x63, 0x74, 
  0x69, 0x6f, 0x6e, 0x61, 0x6c, 0x2f, 0x62, 0x61, 0x74, 0x63, 0x68, 0x5f, 
  0x6e, 0x6f, 0x72, 0x6d, 0x61, 0x6c, 0x69, 0x7a, 0x61, 0x74, 0x69, 0x6f, 
  0x6e, 0x2f, 0x46, 0x75, 0x73, 0x65, 0x64, 0x42, 0x61, 0x74, 0x63, 0x68, 
  0x4e, 0x6f, 0x72, 0x6d, 0x56, 0x33, 0x00, 0x00, 0x01, 0x00, 0x00, 0x00, 
  0x10, 0x00, 0x00, 0x00, 0x92, 0xf4, 0xff, 0xff, 0x00, 0x00, 0x00, 0x01, 
  0x14, 0x00, 0x00, 0x00, 0x34, 0x00, 0x00, 0x00, 0x0b, 0x00, 0x00, 0x00, 
  0x00, 0x00, 0x00, 0x09, 0x64, 0x00, 0x00, 0x00, 0xf4, 0xf3, 0xff, 0xff, 
  0x08, 0x00, 0x00, 0x00, 0x14, 0x00, 0x00, 0x00, 0x01, 0x00, 0x00, 0x00, 
  0x4b, 0x00, 0x00, 0x00, 0x00, 0x00, 0x00, 0x00, 0x00, 0x00, 0x00, 0x00, 
  0x01, 0x00, 0x00, 0x00, 0x24, 0xce, 0xfa, 0x38, 0x37, 0x00, 0x00, 0x00, 
  0x45, 0x45, 0x47, 0x4e, 0x65, 0x74, 0x5f, 0x46, 0x75, 0x6e, 0x63, 0x74, 
  0x69, 0x6f, 0x6e, 0x61, 0x6c, 0x2f, 0x62, 0x61, 0x74, 0x63, 0x68, 0x5f, 
  0x6e, 0x6f, 0x72, 0x6d, 0x61, 0x6c, 0x69, 0x7a, 0x61, 0x74, 0x69, 0x6f, 
  0x6e, 0x2f, 0x46, 0x75, 0x73, 0x65, 0x64, 0x42, 0x61, 0x74, 0x63, 0x68, 
  0x4e, 0x6f, 0x72, 0x6d, 0x56, 0x33, 0x31, 0x00, 0x01, 0x00, 0x00, 0x00, 
  0x10, 0x00, 0x00, 0x00, 0x16, 0xf5, 0xff, 0xff, 0x00, 0x00, 0x00, 0x01, 
  0x14, 0x00, 0x00, 0x00, 0xa8, 0x01, 0x00, 0x00, 0x0a, 0x00, 0x00, 0x00, 
  0x00, 0x00, 0x00, 0x09, 0x30, 0x02, 0x00, 0x00, 0x92, 0xf8, 0xff, 0xff, 
  0x03, 0x00, 0x00, 0x00, 0x08, 0x00, 0x00, 0x00, 0x08, 0x01, 0x00, 0x00, 
  0x20, 0x00, 0x00, 0x00, 0x00, 0x00, 0x00, 0x00, 0x00, 0x00, 0x00, 0x00, 
  0x00, 0x00, 0x00, 0x00, 0x00, 0x00, 0x00, 0x00, 0x00, 0x00, 0x00, 0x00, 
  0x00, 0x00, 0x00, 0x00, 0x00, 0x00, 0x00, 0x00, 0x00, 0x00, 0x00, 0x00, 
  0x00, 0x00, 0x00, 0x00, 0x00, 0x00, 0x00, 0x00, 0x00, 0x00, 0x00, 0x00, 
  0x00, 0x00, 0x00, 0x00, 0x00, 0x00, 0x00, 0x00, 0x00, 0x00, 0x00, 0x00, 
  0x00, 0x00, 0x00, 0x00, 0x00, 0x00, 0x00, 0x00, 0x00, 0x00, 0x00, 0x00, 
  0x00, 0x00, 0x00, 0x00, 0x00, 0x00, 0x00, 0x00, 0x00, 0x00, 0x00, 0x00, 
  0x00, 0x00, 0x00, 0x00, 0x00, 0x00, 0x00, 0x00, 0x00, 0x00, 0x00, 0x00, 
  0x00, 0x00, 0x00, 0x00, 0x00, 0x00, 0x00, 0x00, 0x00, 0x00, 0x00, 0x00, 
  0x00, 0x00, 0x00, 0x00, 0x00, 0x00, 0x00, 0x00, 0x00, 0x00, 0x00, 0x00, 
  0x00, 0x00, 0x00, 0x00, 0x00, 0x00, 0x00, 0x00, 0x00, 0x00, 0x00, 0x00, 
  0x00, 0x00, 0x00, 0x00, 0x00, 0x00, 0x00, 0x00, 0x00, 0x00, 0x00, 0x00, 
  0x00, 0x00, 0x00, 0x00, 0x00, 0x00, 0x00, 0x00, 0x00, 0x00, 0x00, 0x00, 
  0x00, 0x00, 0x00, 0x00, 0x00, 0x00, 0x00, 0x00, 0x00, 0x00, 0x00, 0x00, 
  0x00, 0x00, 0x00, 0x00, 0x00, 0x00, 0x00, 0x00, 0x00, 0x00, 0x00, 0x00, 
  0x00, 0x00, 0x00, 0x00, 0x00, 0x00, 0x00, 0x00, 0x00, 0x00, 0x00, 0x00, 
  0x00, 0x00, 0x00, 0x00, 0x00, 0x00, 0x00, 0x00, 0x00, 0x00, 0x00, 0x00, 
  0x00, 0x00, 0x00, 0x00, 0x00, 0x00, 0x00, 0x00, 0x00, 0x00, 0x00, 0x00, 
  0x00, 0x00, 0x00, 0x00, 0x00, 0x00, 0x00, 0x00, 0x00, 0x00, 0x00, 0x00, 
  0x00, 0x00, 0x00, 0x00, 0x00, 0x00, 0x00, 0x00, 0x00, 0x00, 0x00, 0x00, 
  0x00, 0x00, 0x00, 0x00, 0x00, 0x00, 0x00, 0x00, 0x00, 0x00, 0x00, 0x00, 
  0x00, 0x00, 0x00, 0x00, 0x00, 0x00, 0x00, 0x00, 0x20, 0x00, 0x00, 0x00, 
  0xde, 0x68, 0xaa, 0x3a, 0x5e, 0x1b, 0xa1, 0x3a, 0x47, 0x95, 0x9d, 0x3a, 
  0x10, 0xa2, 0xd1, 0x3a, 0x8f, 0x0e, 0xcf, 0x3a, 0x28, 0xb1, 0xcf, 0x3a, 
  0xd0, 0x8d, 0xd4, 0x3a, 0xcd, 0x1a, 0xc2, 0x3a, 0xb6, 0xbb, 0xbc, 0x3a, 
  0x19, 0x94, 0x91, 0x3a, 0x09, 0x13, 0xae, 0x3a, 0x02, 0x85, 0x93, 0x3a, 
  0x09, 0x13, 0xae, 0x3a, 0x86, 0xed, 0xc7, 0x3a, 0xf0, 0x40, 0x96, 0x3a, 
  0x5a, 0x75, 0xb6, 0x3a, 0xb6, 0xbb, 0xbc, 0x3a, 0xd6, 0x0c, 0x82, 0x3a, 
  0xe6, 0x62, 0xd6, 0x3a, 0x97, 0xb0, 0xf0, 0x3a, 0xf4, 0x3d, 0xac, 0x3a, 
  0x10, 0xa2, 0xd1, 0x3a, 0xf4, 0x3d, 0xac, 0x3a, 0x3f, 0xc0, 0xcd, 0x3a, 
  0x9d, 0xe9, 0xa4, 0x3a, 0x9b, 0x56, 0xdb, 0x3a, 0xbe, 0xb5, 0xe8, 0x3a, 
  0x8c, 0x39, 0x9d, 0x3a, 0x22, 0xe5, 0xc5, 0x3a, 0x51, 0x83, 0xf6, 0x3a, 
  0xda, 0x6b, 0x94, 0x3a, 0x2b, 0x57, 0xba, 0x3a, 0x8c, 0x00, 0x00, 0x00, 
  0x45, 0x45, 0x47, 0x4e, 0x65, 0x74, 0x5f, 0x46, 0x75, 0x6e, 0x63, 0x74, 
  0x69, 0x6f, 0x6e, 0x61, 0x6c, 0x2f, 0x71, 0x75, 0x61, 0x6e, 0x74, 0x5f, 
  0x64, 0x65, 0x70, 0x74, 0x68, 0x77, 0x69, 0x73, 0x65, 0x5f, 0x63, 0x6f, 
  0x6e, 0x76, 0x32, 0x64, 0x2f, 0x64, 0x65, 0x70, 0x74, 0x68, 0x77, 0x69, 
  0x73, 0x65, 0x3b, 0x45, 0x45, 0x47, 0x4e, 0x65, 0x74, 0x5f, 0x46, 0x75, 
  0x6e, 0x63, 0x74, 0x69, 0x6f, 0x6e, 0x61, 0x6c, 0x2f, 0x71, 0x75, 0x61, 
  0x6e, 0x74, 0x5f, 0x64, 0x65, 0x70, 0x74, 0x68, 0x77, 0x69, 0x73, 0x65, 
  0x5f, 0x63, 0x6f, 0x6e, 0x76, 0x32, 0x64, 0x2f, 0x4c, 0x61, 0x73, 0x74, 
  0x56, 0x61, 0x6c, 0x75, 0x65, 0x51, 0x75, 0x61, 0x6e, 0x74, 0x2f, 0x46, 
  0x61, 0x6b, 0x65, 0x51, 0x75, 0x61, 0x6e, 0x74, 0x57, 0x69, 0x74, 0x68, 
  0x4d, 0x69, 0x6e, 0x4d, 0x61, 0x78, 0x56, 0x61, 0x72, 0x73, 0x50, 0x65, 
  0x72, 0x43, 0x68, 0x61, 0x6e, 0x6e, 0x65, 0x6c, 0x00, 0x00, 0x00, 0x00, 
  0x04, 0x00, 0x00, 0x00, 0x01, 0x00, 0x00, 0x00, 0x10, 0x00, 0x00, 0x00, 
  0x01, 0x00, 0x00, 0x00, 0x20, 0x00, 0x00, 0x00, 0x72, 0xf7, 0xff, 0xff, 
  0x00, 0x00, 0x00, 0x01, 0x14, 0x00, 0x00, 0x00, 0xa8, 0x01, 0x00, 0x00, 
  0x08, 0x00, 0x00, 0x00, 0x00, 0x00, 0x00, 0x02, 0xe0, 0x01, 0x00, 0x00, 
  0xd4, 0xf6, 0xff, 0xff, 0x08, 0x00, 0x00, 0x00, 0x0c, 0x01, 0x00, 0x00, 
  0x20, 0x00, 0x00, 0x00, 0x00, 0x00, 0x00, 0x00, 0x00, 0x00, 0x00, 0x00, 
  0x00, 0x00, 0x00, 0x00, 0x00, 0x00, 0x00, 0x00, 0x00, 0x00, 0x00, 0x00, 
  0x00, 0x00, 0x00, 0x00, 0x00, 0x00, 0x00, 0x00, 0x00, 0x00, 0x00, 0x00, 
  0x00, 0x00, 0x00, 0x00, 0x00, 0x00, 0x00, 0x00, 0x00, 0x00, 0x00, 0x00, 
  0x00, 0x00, 0x00, 0x00, 0x00, 0x00, 0x00, 0x00, 0x00, 0x00, 0x00, 0x00, 
  0x00, 0x00, 0x00, 0x00, 0x00, 0x00, 0x00, 0x00, 0x00, 0x00, 0x00, 0x00, 
  0x00, 0x00, 0x00, 0x00, 0x00, 0x00, 0x00, 0x00, 0x00, 0x00, 0x00, 0x00, 
  0x00, 0x00, 0x00, 0x00, 0x00, 0x00, 0x00, 0x00, 0x00, 0x00, 0x00, 0x00, 
  0x00, 0x00, 0x00, 0x00, 0x00, 0x00, 0x00, 0x00, 0x00, 0x00, 0x00, 0x00, 
  0x00, 0x00, 0x00, 0x00, 0x00, 0x00, 0x00, 0x00, 0x00, 0x00, 0x00, 0x00, 
  0x00, 0x00, 0x00, 0x00, 0x00, 0x00, 0x00, 0x00, 0x00, 0x00, 0x00, 0x00, 
  0x00, 0x00, 0x00, 0x00, 0x00, 0x00, 0x00, 0x00, 0x00, 0x00, 0x00, 0x00, 
  0x00, 0x00, 0x00, 0x00, 0x00, 0x00, 0x00, 0x00, 0x00, 0x00, 0x00, 0x00, 
  0x00, 0x00, 0x00, 0x00, 0x00, 0x00, 0x00, 0x00, 0x00, 0x00, 0x00, 0x00, 
  0x00, 0x00, 0x00, 0x00, 0x00, 0x00, 0x00, 0x00, 0x00, 0x00, 0x00, 0x00, 
  0x00, 0x00, 0x00, 0x00, 0x00, 0x00, 0x00, 0x00, 0x00, 0x00, 0x00, 0x00, 
  0x00, 0x00, 0x00, 0x00, 0x00, 0x00, 0x00, 0x00, 0x00, 0x00, 0x00, 0x00, 
  0x00, 0x00, 0x00, 0x00, 0x00, 0x00, 0x00, 0x00, 0x00, 0x00, 0x00, 0x00, 
  0x00, 0x00, 0x00, 0x00, 0x00, 0x00, 0x00, 0x00, 0x00, 0x00, 0x00, 0x00, 
  0x00, 0x00, 0x00, 0x00, 0x00, 0x00, 0x00, 0x00, 0x00, 0x00, 0x00, 0x00, 
  0x00, 0x00, 0x00, 0x00, 0x00, 0x00, 0x00, 0x00, 0x00, 0x00, 0x00, 0x00, 
  0x00, 0x00, 0x00, 0x00, 0x00, 0x00, 0x00, 0x00, 0x00, 0x00, 0x00, 0x00, 
  0x20, 0x00, 0x00, 0x00, 0x55, 0x79, 0xde, 0x36, 0x54, 0xd5, 0xa2, 0x37, 
  0x0f, 0x98, 0x65, 0x37, 0x3f, 0x52, 0x1f, 0x37, 0xd9, 0x4d, 0xd7, 0x37, 
  0x32, 0x13, 0x90, 0x37, 0x76, 0x5c, 0xab, 0x37, 0x16, 0xc3, 0xc2, 0x37, 
  0xbe, 0xfc, 0xb8, 0x37, 0x0d, 0x6a, 0x91, 0x37, 0x2d, 0x82, 0x97, 0x37, 
  0xc3, 0x53, 0xa0, 0x36, 0xf7, 0x4e, 0x87, 0x37, 0xc2, 0xa6, 0x45, 0x37, 
  0xd9, 0x5e, 0x3d, 0x37, 0xc7, 0x14, 0x81, 0x37, 0x8a, 0x2f, 0xb3, 0x37, 
  0x20, 0xb0, 0x9c, 0x36, 0xe3, 0x79, 0xe3, 0x37, 0x78, 0x04, 0x1c, 0x38, 
  0x1c, 0x83, 0xe4, 0x37, 0x8f, 0xff, 0x66, 0x37, 0xc6, 0x9c, 0x7d, 0x37, 
  0xc2, 0xb2, 0x86, 0x37, 0x97, 0x58, 0x2d, 0x37, 0x37, 0x8b, 0xb4, 0x37, 
  0xdb, 0x9d, 0xa7, 0x37, 0xdb, 0x7c, 0x88, 0x37, 0x2c, 0x09, 0x1a, 0x37, 
  0xdb, 0xce, 0xc1, 0x37, 0x23, 0xa5, 0x94, 0x37, 0xfb, 0xc4, 0xd9, 0x36, 
  0x3e, 0x00, 0x00, 0x00, 0x45, 0x45, 0x47, 0x4e, 0x65, 0x74, 0x5f, 0x46, 
  0x75, 0x6e, 0x63, 0x74, 0x69, 0x6f, 0x6e, 0x61, 0x6c, 0x2f, 0x73, 0x65, 
  0x70, 0x61, 0x72, 0x61, 0x62, 0x6c, 0x65, 0x5f, 0x63, 0x6f, 0x6e, 0x76, 
  0x32, 0x64, 0x2f, 0x73, 0x65, 0x70, 0x61, 0x72, 0x61, 0x62, 0x6c, 0x65, 
  0x5f, 0x63, 0x6f, 0x6e, 0x76, 0x32, 0x64, 0x2f, 0x64, 0x65, 0x70, 0x74, 
  0x68, 0x77, 0x69, 0x73, 0x65, 0x32, 0x00, 0x00, 0x01, 0x00, 0x00, 0x00, 
  0x20, 0x00, 0x00, 0x00, 0x72, 0xf9, 0xff, 0xff, 0x00, 0x00, 0x00, 0x01, 
  0x14, 0x00, 0x00, 0x00, 0xa8, 0x01, 0x00, 0x00, 0x08, 0x00, 0x00, 0x00, 
  0x00, 0x00, 0x00, 0x02, 0xe0, 0x01, 0x00, 0x00, 0xd4, 0xf8, 0xff, 0xff, 
  0x08, 0x00, 0x00, 0x00, 0x0c, 0x01, 0x00, 0x00, 0x20, 0x00, 0x00, 0x00, 
  0x00, 0x00, 0x00, 0x00, 0x00, 0x00, 0x00, 0x00, 0x00, 0x00, 0x00, 0x00, 
  0x00, 0x00, 0x00, 0x00, 0x00, 0x00, 0x00, 0x00, 0x00, 0x00, 0x00, 0x00, 
  0x00, 0x00, 0x00, 0x00, 0x00, 0x00, 0x00, 0x00, 0x00, 0x00, 0x00, 0x00, 
  0x00, 0x00, 0x00, 0x00, 0x00, 0x00, 0x00, 0x00, 0x00, 0x00, 0x00, 0x00, 
  0x00, 0x00, 0x00, 0x00, 0x00, 0x00, 0x00, 0x00, 0x00, 0x00, 0x00, 0x00, 
  0x00, 0x00, 0x00, 0x00, 0x00, 0x00, 0x00, 0x00, 0x00, 0x00, 0x00, 0x00, 
  0x00, 0x00, 0x00, 0x00, 0x00, 0x00, 0x00, 0x00, 0x00, 0x00, 0x00, 0x00, 
  0x00, 0x00, 0x00, 0x00, 0x00, 0x00, 0x00, 0x00, 0x00, 0x00, 0x00, 0x00, 
  0x00, 0x00, 0x00, 0x00, 0x00, 0x00, 0x00, 0x00, 0x00, 0x00, 0x00, 0x00, 
  0x00, 0x00, 0x00, 0x00, 0x00, 0x00, 0x00, 0x00, 0x00, 0x00, 0x00, 0x00, 
  0x00, 0x00, 0x00, 0x00, 0x00, 0x00, 0x00, 0x00, 0x00, 0x00, 0x00, 0x00, 
  0x00, 0x00, 0x00, 0x00, 0x00, 0x00, 0x00, 0x00, 0x00, 0x00, 0x00, 0x00, 
  0x00, 0x00, 0x00, 0x00, 0x00, 0x00, 0x00, 0x00, 0x00, 0x00, 0x00, 0x00, 
  0x00, 0x00, 0x00, 0x00, 0x00, 0x00, 0x00, 0x00, 0x00, 0x00, 0x00, 0x00, 
  0x00, 0x00, 0x00, 0x00, 0x00, 0x00, 0x00, 0x00, 0x00, 0x00, 0x00, 0x00, 
  0x00, 0x00, 0x00, 0x00, 0x00, 0x00, 0x00, 0x00, 0x00, 0x00, 0x00, 0x00, 
  0x00, 0x00, 0x00, 0x00, 0x00, 0x00, 0x00, 0x00, 0x00, 0x00, 0x00, 0x00, 
  0x00, 0x00, 0x00, 0x00, 0x00, 0x00, 0x00, 0x00, 0x00, 0x00, 0x00, 0x00, 
  0x00, 0x00, 0x00, 0x00, 0x00, 0x00, 0x00, 0x00, 0x00, 0x00, 0x00, 0x00, 
  0x00, 0x00, 0x00, 0x00, 0x00, 0x00, 0x00, 0x00, 0x00, 0x00, 0x00, 0x00, 
  0x00, 0x00, 0x00, 0x00, 0x00, 0x00, 0x00, 0x00, 0x00, 0x00, 0x00, 0x00, 
  0x00, 0x00, 0x00, 0x00, 0x00, 0x00, 0x00, 0x00, 0x20, 0x00, 0x00, 0x00, 
  0x06, 0x00, 0xdf, 0x38, 0x91, 0xd3, 0xd2, 0x38, 0x14, 0x37, 0xce, 0x38, 
  0x07, 0x2a, 0x09, 0x39, 0x82, 0x7a, 0x07, 0x39, 0xe6, 0xe4, 0x07, 0x39, 
  0x49, 0x13, 0x0b, 0x39, 0xfa, 0x01, 0xfe, 0x38, 0x85, 0xfa, 0xf6, 0x38, 
  0x7b, 0x81, 0xbe, 0x38, 0xb9, 0xcb, 0xe3, 0x38, 0xbe, 0x0b, 0xc1, 0x38, 
  0xb9, 0xcb, 0xe3, 0x38, 0x61, 0xd0, 0x02, 0x39, 0xae, 0x9f, 0xc4, 0x38, 
  0x6b, 0xc4, 0xee, 0x38, 0x85, 0xfa, 0xf6, 0x38, 0x67, 0x2f, 0xaa, 0x38, 
  0x36, 0x46, 0x0c, 0x39, 0x1b, 0x7c, 0x1d, 0x39, 0xe0, 0x65, 0xe1, 0x38, 
  0x07, 0x2a, 0x09, 0x39, 0xe0, 0x65, 0xe1, 0x38, 0xc4, 0x9f, 0x06, 0x39, 
  0x7a, 0xce, 0xd7, 0x38, 0xae, 0x83, 0x0f, 0x39, 0x75, 0x43, 0x18, 0x39, 
  0x0a, 0xbf, 0xcd, 0x38, 0xe2, 0x7b, 0x01, 0x39, 0x7f, 0x4b, 0x21, 0x39, 
  0xd4, 0x39, 0xc2, 0x38, 0xf0, 0xd8, 0xf3, 0x38, 0x3d, 0x00, 0x00, 0x00, 
  0x45, 0x45, 0x47, 0x4e, 0x65, 0x74, 0x5f, 0x46, 0x75, 0x6e, 0x63, 0x74, 
  0x69, 0x6f, 0x6e, 0x61, 0x6c, 0x2f, 0x73, 0x65, 0x70, 0x61, 0x72, 0x61, 
  0x62, 0x6c, 0x65, 0x5f, 0x63, 0x6f, 0x6e, 0x76, 0x32, 0x64, 0x2f, 0x73, 
  0x65, 0x70, 0x61, 0x72, 0x61, 0x62, 0x6c, 0x65, 0x5f, 0x63, 0x6f, 0x6e, 
  0x76, 0x32, 0x64, 0x2f, 0x64, 0x65, 0x70, 0x74, 0x68, 0x77, 0x69, 0x73, 
  0x65, 0x00, 0x00, 0x00, 0x01, 0x00, 0x00, 0x00, 0x20, 0x00, 0x00, 0x00, 
  0x72, 0xfb, 0xff, 0xff, 0x00, 0x00, 0x00, 0x01, 0x14, 0x00, 0x00, 0x00, 
  0x34, 0x00, 0x00, 0x00, 0x07, 0x00, 0x00, 0x00, 0x00, 0x00, 0x00, 0x09, 
  0x68, 0x00, 0x00, 0x00, 0xd4, 0xfa, 0xff, 0xff, 0x08, 0x00, 0x00, 0x00, 
  0x14, 0x00, 0x00, 0x00, 0x01, 0x00, 0x00, 0x00, 0x80, 0xff, 0xff, 0xff, 
  0xff, 0xff, 0xff, 0xff, 0x00, 0x00, 0x00, 0x00, 0x01, 0x00, 0x00, 0x00, 
  0x4d, 0xdf, 0x08, 0x3d, 0x38, 0x00, 0x00, 0x00, 0x45, 0x45, 0x47, 0x4e, 
  0x65, 0x74, 0x5f, 0x46, 0x75, 0x6e, 0x63, 0x74, 0x69, 0x6f, 0x6e, 0x61, 
  0x6c, 0x2f, 0x62, 0x61, 0x74, 0x63, 0x68, 0x5f, 0x6e, 0x6f, 0x72, 0x6d, 
  0x61, 0x6c, 0x69, 0x7a, 0x61, 0x74, 0x69, 0x6f, 0x6e, 0x5f, 0x31, 0x2f, 
  0x46, 0x75, 0x73, 0x65, 0x64, 0x42, 0x61, 0x74, 0x63, 0x68, 0x4e, 0x6f, 
  0x72, 0x6d, 0x56, 0x33, 0x00, 0x00, 0x00, 0x00, 0x01, 0x00, 0x00, 0x00, 
  0x20, 0x00, 0x00, 0x00, 0xfa, 0xfb, 0xff, 0xff, 0x00, 0x00, 0x00, 0x01, 
  0x14, 0x00, 0x00, 0x00, 0x34, 0x00, 0x00, 0x00, 0x06, 0x00, 0x00, 0x00, 
  0x00, 0x00, 0x00, 0x09, 0x68, 0x00, 0x00, 0x00, 0x5c, 0xfb, 0xff, 0xff, 
  0x08, 0x00, 0x00, 0x00, 0x14, 0x00, 0x00, 0x00, 0x01, 0x00, 0x00, 0x00, 
  0x49, 0x00, 0x00, 0x00, 0x00, 0x00, 0x00, 0x00, 0x00, 0x00, 0x00, 0x00, 
  0x01, 0x00, 0x00, 0x00, 0x16, 0x27, 0x95, 0x3a, 0x39, 0x00, 0x00, 0x00, 
  0x45, 0x45, 0x47, 0x4e, 0x65, 0x74, 0x5f, 0x46, 0x75, 0x6e, 0x63, 0x74, 
  0x69, 0x6f, 0x6e, 0x61, 0x6c, 0x2f, 0x62, 0x61, 0x74, 0x63, 0x68, 0x5f, 
  0x6e, 0x6f, 0x72, 0x6d, 0x61, 0x6c, 0x69, 0x7a, 0x61, 0x74, 0x69, 0x6f, 
  0x6e, 0x5f, 0x31, 0x2f, 0x46, 0x75, 0x73, 0x65, 0x64, 0x42, 0x61, 0x74, 
  0x63, 0x68, 0x4e, 0x6f, 0x72, 0x6d, 0x56, 0x33, 0x31, 0x00, 0x00, 0x00, 
  0x01, 0x00, 0x00, 0x00, 0x20, 0x00, 0x00, 0x00, 0x82, 0xfc, 0xff, 0xff, 
  0x00, 0x00, 0x00, 0x01, 0x28, 0x00, 0x00, 0x00, 0xbc, 0x01, 0x00, 0x00, 
  0x05, 0x00, 0x00, 0x00, 0x00, 0x00, 0x00, 0x09, 0xf4, 0x01, 0x00, 0x00, 
  0x00, 0x00, 0x12, 0x00, 0x10, 0x00, 0x00, 0x00, 0x00, 0x00, 0x0c, 0x00, 
  0x08, 0x00, 0x00, 0x00, 0x00, 0x00, 0x04, 0x00, 0x12, 0x00, 0x00, 0x00, 
  0x03, 0x00, 0x00, 0x00, 0x08, 0x00, 0x00, 0x00, 0x08, 0x01, 0x00, 0x00, 
  0x20, 0x00, 0x00, 0x00, 0x00, 0x00, 0x00, 0x00, 0x00, 0x00, 0x00, 0x00, 
  0x00, 0x00, 0x00, 0x00, 0x00, 0x00, 0x00, 0x00, 0x00, 0x00, 0x00, 0x00, 
  0x00, 0x00, 0x00, 0x00, 0x00, 0x00, 0x00, 0x00, 0x00, 0x00, 0x00, 0x00, 
  0x00, 0x00, 0x00, 0x00, 0x00, 0x00, 0x00, 0x00, 0x00, 0x00, 0x00, 0x00, 
  0x00, 0x00, 0x00, 0x00, 0x00, 0x00, 0x00, 0x00, 0x00, 0x00, 0x00, 0x00, 
  0x00, 0x00, 0x00, 0x00, 0x00, 0x00, 0x00, 0x00, 0x00, 0x00, 0x00, 0x00, 
  0x00, 0x00, 0x00, 0x00, 0x00, 0x00, 0x00, 0x00, 0x00, 0x00, 0x00, 0x00, 
  0x00, 0x00, 0x00, 0x00, 0x00, 0x00, 0x00, 0x00, 0x00, 0x00, 0x00, 0x00, 
  0x00, 0x00, 0x00, 0x00, 0x00, 0x00, 0x00, 0x00, 0x00, 0x00, 0x00, 0x00, 
  0x00, 0x00, 0x00, 0x00, 0x00, 0x00, 0x00, 0x00, 0x00, 0x00, 0x00, 0x00, 
  0x00, 0x00, 0x00, 0x00, 0x00, 0x00, 0x00, 0x00, 0x00, 0x00, 0x00, 0x00, 
  0x00, 0x00, 0x00, 0x00, 0x00, 0x00, 0x00, 0x00, 0x00, 0x00, 0x00, 0x00, 
  0x00, 0x00, 0x00, 0x00, 0x00, 0x00, 0x00, 0x00, 0x00, 0x00, 0x00, 0x00, 
  0x00, 0x00, 0x00, 0x00, 0x00, 0x00, 0x00, 0x00, 0x00, 0x00, 0x00, 0x00, 
  0x00, 0x00, 0x00, 0x00, 0x00, 0x00, 0x00, 0x00, 0x00, 0x00, 0x00, 0x00, 
  0x00, 0x00, 0x00, 0x00, 0x00, 0x00, 0x00, 0x00, 0x00, 0x00, 0x00, 0x00, 
  0x00, 0x00, 0x00, 0x00, 0x00, 0x00, 0x00, 0x00, 0x00, 0x00, 0x00, 0x00, 
  0x00, 0x00, 0x00, 0x00, 0x00, 0x00, 0x00, 0x00, 0x00, 0x00, 0x00, 0x00, 
  0x00, 0x00, 0x00, 0x00, 0x00, 0x00, 0x00, 0x00, 0x00, 0x00, 0x00, 0x00, 
  0x00, 0x00, 0x00, 0x00, 0x00, 0x00, 0x00, 0x00, 0x00, 0x00, 0x00, 0x00, 
  0x00, 0x00, 0x00, 0x00, 0x00, 0x00, 0x00, 0x00, 0x00, 0x00, 0x00, 0x00, 
  0x00, 0x00, 0x00, 0x00, 0x00, 0x00, 0x00, 0x00, 0x20, 0x00, 0x00, 0x00, 
  0xe9, 0x9d, 0x9f, 0x39, 0x5d, 0xa7, 0x69, 0x3a, 0xa6, 0xb9, 0x24, 0x3a, 
  0x3f, 0x9d, 0xe4, 0x39, 0x05, 0x79, 0x9a, 0x3a, 0xa9, 0xbc, 0x4e, 0x3a, 
  0x00, 0xe4, 0x75, 0x3a, 0x0d, 0xbc, 0x8b, 0x3a, 0xb6, 0xb8, 0x84, 0x3a, 
  0xa2, 0xa8, 0x50, 0x3a, 0x4b, 0x67, 0x59, 0x3a, 0xc3, 0x0e, 0x66, 0x39, 
  0x5b, 0x28, 0x42, 0x3a, 0xbd, 0xce, 0x0d, 0x3a, 0xc8, 0xdd, 0x07, 0x3a, 
  0xd0, 0x38, 0x39, 0x3a, 0x22, 0x8f, 0x80, 0x3a, 0xef, 0xd5, 0x60, 0x39, 
  0xa9, 0x34, 0xa3, 0x3a, 0x9f, 0xdf, 0xdf, 0x3a, 0xf3, 0xf2, 0xa3, 0x3a, 
  0x94, 0xbb, 0x25, 0x3a, 0x20, 0xf5, 0x35, 0x3a, 0x36, 0x48, 0x41, 0x3a, 
  0x20, 0xbd, 0xf8, 0x39, 0x94, 0x88, 0x81, 0x3a, 0x79, 0x84, 0x70, 0x3a, 
  0x8c, 0xd9, 0x43, 0x3a, 0xb0, 0x07, 0xdd, 0x39, 0xd3, 0x0c, 0x8b, 0x3a, 
  0x70, 0x4b, 0x55, 0x3a, 0xd5, 0x3d, 0x9c, 0x39, 0x3e, 0x00, 0x00, 0x00, 
  0x45, 0x45, 0x47, 0x4e, 0x65, 0x74, 0x5f, 0x46, 0x75, 0x6e, 0x63, 0x74, 
  0x69, 0x6f, 0x6e, 0x61, 0x6c, 0x2f, 0x73, 0x65, 0x70, 0x61, 0x72, 0x61, 
  0x62, 0x6c, 0x65, 0x5f, 0x63, 0x6f, 0x6e, 0x76, 0x32, 0x64, 0x2f, 0x73, 
  0x65, 0x70, 0x61, 0x72, 0x61, 0x62, 0x6c, 0x65, 0x5f, 0x63, 0x6f, 0x6e, 
  0x76, 0x32, 0x64, 0x2f, 0x64, 0x65, 0x70, 0x74, 0x68, 0x77, 0x69, 0x73, 
  0x65, 0x31, 0x00, 0x00, 0x04, 0x00, 0x00, 0x00, 0x01, 0x00, 0x00, 0x00, 
  0x01, 0x00, 0x00, 0x00, 0x10, 0x00, 0x00, 0x00, 0x20, 0x00, 0x00, 0x00, 
  0xa2, 0xfe, 0xff, 0xff, 0x00, 0x00, 0x00, 0x01, 0x14, 0x00, 0x00, 0x00, 
  0x58, 0x00, 0x00, 0x00, 0x04, 0x00, 0x00, 0x00, 0x00, 0x00, 0x00, 0x09, 
  0x84, 0x00, 0x00, 0x00, 0x04, 0xfe, 0xff, 0xff, 0x08, 0x00, 0x00, 0x00, 
  0x2c, 0x00, 0x00, 0x00, 0x04, 0x00, 0x00, 0x00, 0x00, 0x00, 0x00, 0x00, 
  0x00, 0x00, 0x00, 0x00, 0x00, 0x00, 0x00, 0x00, 0x00, 0x00, 0x00, 0x00, 
  0x00, 0x00, 0x00, 0x00, 0x00, 0x00, 0x00, 0x00, 0x00, 0x00, 0x00, 0x00, 
  0x00, 0x00, 0x00, 0x00, 0x00, 0x00, 0x00, 0x00, 0x04, 0x00, 0x00, 0x00, 
  0x47, 0xad, 0x7a, 0x3c, 0xb3, 0xba, 0x92, 0x3c, 0x89, 0x3d, 0x8c, 0x3c, 
  0x98, 0x9c, 0x5f, 0x3c, 0x33, 0x00, 0x00, 0x00, 0x45, 0x45, 0x47, 0x4e, 
  0x65, 0x74, 0x5f, 0x46, 0x75, 0x6e, 0x63, 0x74, 0x69, 0x6f, 0x6e, 0x61, 
  0x6c, 0x2f, 0x73, 0x65, 0x70, 0x61, 0x72, 0x61, 0x62, 0x6c, 0x65, 0x5f, 
  0x63, 0x6f, 0x6e, 0x76, 0x32, 0x64, 0x2f, 0x73, 0x65, 0x70, 0x61, 0x72, 
  0x61, 0x62, 0x6c, 0x65, 0x5f, 0x63, 0x6f, 0x6e, 0x76, 0x32, 0x64, 0x00, 
  0x04, 0x00, 0x00, 0x00, 0x04, 0x00, 0x00, 0x00, 0x01, 0x00, 0x00, 0x00, 
  0x01, 0x00, 0x00, 0x00, 0x20, 0x00, 0x00, 0x00, 0x52, 0xff, 0xff, 0xff, 
  0x00, 0x00, 0x00, 0x01, 0x14, 0x00, 0x00, 0x00, 0x58, 0x00, 0x00, 0x00, 
  0x03, 0x00, 0x00, 0x00, 0x00, 0x00, 0x00, 0x02, 0x8c, 0x00, 0x00, 0x00, 
  0xb4, 0xfe, 0xff, 0xff, 0x08, 0x00, 0x00, 0x00, 0x2c, 0x00, 0x00, 0x00, 
  0x04, 0x00, 0x00, 0x00, 0x00, 0x00, 0x00, 0x00, 0x00, 0x00, 0x00, 0x00, 
  0x00, 0x00, 0x00, 0x00, 0x00, 0x00, 0x00, 0x00, 0x00, 0x00, 0x00, 0x00, 
  0x00, 0x00, 0x00, 0x00, 0x00, 0x00, 0x00, 0x00, 0x00, 0x00, 0x00, 0x00, 
  0x00, 0x00, 0x00, 0x00, 0x04, 0x00, 0x00, 0x00, 0x6d, 0xce, 0x85, 0x39, 
  0x74, 0xa4, 0x9c, 0x39, 0x0f, 0xb7, 0x95, 0x39, 0x10, 0xb8, 0x6e, 0x39, 
  0x38, 0x00, 0x00, 0x00, 0x45, 0x45, 0x47, 0x4e, 0x65, 0x74, 0x5f, 0x46, 
  0x75, 0x6e, 0x63, 0x74, 0x69, 0x6f, 0x6e, 0x61, 0x6c, 0x2f, 0x62, 0x61, 
  0x74, 0x63, 0x68, 0x5f, 0x6e, 0x6f, 0x72, 0x6d, 0x61, 0x6c, 0x69, 0x7a, 
  0x61, 0x74, 0x69, 0x6f, 0x6e, 0x5f, 0x32, 0x2f, 0x46, 0x75, 0x73, 0x65, 
  0x64, 0x42, 0x61, 0x74, 0x63, 0x68, 0x4e, 0x6f, 0x72, 0x6d, 0x56, 0x33, 
  0x00, 0x00, 0x00, 0x00, 0x01, 0x00, 0x00, 0x00, 0x04, 0x00, 0x00, 0x00, 
  0x00, 0x00, 0x16, 0x00, 0x1c, 0x00, 0x18, 0x00, 0x17, 0x00, 0x10, 0x00, 
  0x0c, 0x00, 0x08, 0x00, 0x00, 0x00, 0x00, 0x00, 0x00, 0x00, 0x07, 0x00, 
  0x16, 0x00, 0x00, 0x00, 0x00, 0x00, 0x00, 0x01, 0x18, 0x00, 0x00, 0x00, 
  0x18, 0x00, 0x00, 0x00, 0x02, 0x00, 0x00, 0x00, 0x00, 0x00, 0x00, 0x02, 
  0x38, 0x00, 0x00, 0x00, 0x04, 0x00, 0x04, 0x00, 0x04, 0x00, 0x00, 0x00, 
  0x25, 0x00, 0x00, 0x00, 0x45, 0x45, 0x47, 0x4e, 0x65, 0x74, 0x5f, 0x46, 
  0x75, 0x6e, 0x63, 0x74, 0x69, 0x6f, 0x6e, 0x61, 0x6c, 0x2f, 0x71, 0x75, 
  0x61, 0x6e, 0x74, 0x5f, 0x66, 0x6c, 0x61, 0x74, 0x74, 0x65, 0x6e, 0x2f, 
  0x43, 0x6f, 0x6e, 0x73, 0x74, 0x00, 0x00, 0x00, 0x01, 0x00, 0x00, 0x00, 
  0x02, 0x00, 0x00, 0x00, 0x00, 0x00, 0x16, 0x00, 0x20, 0x00, 0x1c, 0x00, 
  0x1b, 0x00, 0x14, 0x00, 0x10, 0x00, 0x0c, 0x00, 0x00, 0x00, 0x00, 0x00, 
  0x08, 0x00, 0x07, 0x00, 0x16, 0x00, 0x00, 0x00, 0x00, 0x00, 0x00, 0x01, 
  0x18, 0x00, 0x00, 0x00, 0x34, 0x00, 0x00, 0x00, 0x50, 0x00, 0x00, 0x00, 
  0x01, 0x00, 0x00, 0x00, 0x00, 0x00, 0x00, 0x03, 0x64, 0x00, 0x00, 0x00, 
  0x04, 0x00, 0x00, 0x00, 0xff, 0xff, 0xff, 0xff, 0x10, 0x00, 0x00, 0x00, 
  0x80, 0x00, 0x00, 0x00, 0x01, 0x00, 0x00, 0x00, 0x0c, 0x00, 0x0c, 0x00, 
  0x00, 0x00, 0x00, 0x00, 0x08, 0x00, 0x04, 0x00, 0x0c, 0x00, 0x00, 0x00, 
  0x08, 0x00, 0x00, 0x00, 0x10, 0x00, 0x00, 0x00, 0x01, 0x00, 0x00, 0x00, 
  0x7f, 0x00, 0x00, 0x00, 0x00, 0x00, 0x00, 0x00, 0x01, 0x00, 0x00, 0x00, 
  0xa0, 0xc7, 0xb0, 0x3d, 0x19, 0x00, 0x00, 0x00, 0x73, 0x65, 0x72, 0x76, 
  0x69, 0x6e, 0x67, 0x5f, 0x64, 0x65, 0x66, 0x61, 0x75, 0x6c, 0x74, 0x5f, 
  0x69, 0x6e, 0x70, 0x75, 0x74, 0x5f, 0x31, 0x3a, 0x30, 0x00, 0x00, 0x00, 
  0x04, 0x00, 0x00, 0x00, 0x01, 0x00, 0x00, 0x00, 0x10, 0x00, 0x00, 0x00, 
  0x80, 0x00, 0x00, 0x00, 0x01, 0x00, 0x00, 0x00, 0x08, 0x00, 0x00, 0x00, 
  0xac, 0x00, 0x00, 0x00, 0x8c, 0x00, 0x00, 0x00, 0x6c, 0x00, 0x00, 0x00, 
  0x60, 0x00, 0x00, 0x00, 0x44, 0x00, 0x00, 0x00, 0x28, 0x00, 0x00, 0x00, 
  0x14, 0x00, 0x00, 0x00, 0x04, 0x00, 0x00, 0x00, 0x80, 0xff, 0xff, 0xff, 
  0x16, 0x00, 0x00, 0x00, 0x00, 0x00, 0x00, 0x16, 0xa8, 0xff, 0xff, 0xff, 
  0x01, 0x00, 0x00, 0x00, 0x02, 0x00, 0x00, 0x00, 0x00, 0x00, 0x00, 0x01, 
  0x9c, 0xff, 0xff, 0xff, 0x75, 0x00, 0x00, 0x00, 0x00, 0x00, 0x00, 0x75, 
  0x0c, 0x00, 0x0e, 0x00, 0x0d, 0x00, 0x00, 0x00, 0x08, 0x00, 0x04, 0x00, 
  0x0c, 0x00, 0x00, 0x00, 0x04, 0x00, 0x00, 0x00, 0x03, 0x00, 0x00, 0x00, 
  0x00, 0x04, 0x0a, 0x00, 0x08, 0x00, 0x00, 0x00, 0x00, 0x00, 0x04, 0x00, 
  0x0a, 0x00, 0x00, 0x00, 0x02, 0x00, 0x00, 0x00, 0xf0, 0xff, 0xff, 0xff, 
  0x12, 0x00, 0x00, 0x00, 0x02, 0x00, 0x00, 0x00, 0x00, 0x00, 0x00, 0x12, 
  0x0c, 0x00, 0x10, 0x00, 0x0f, 0x00, 0x00, 0x00, 0x08, 0x00, 0x04, 0x00, 
  0x0c, 0x00, 0x00, 0x00, 0x03, 0x00, 0x00, 0x00, 0x03, 0x00, 0x00, 0x00, 
  0x00, 0x00, 0x00, 0x03, 0x0c, 0x00, 0x0c, 0x00, 0x0b, 0x00, 0x00, 0x00, 
  0x00, 0x00, 0x04, 0x00, 0x0c, 0x00, 0x00, 0x00, 0x72, 0x00, 0x00, 0x00, 
  0x00, 0x00, 0x00, 0x72, 
};
