const unsigned char eegnet[] = {
  0x20, 0x00, 0x00, 0x00, 0x54, 0x46, 0x4c, 0x33, 0x00, 0x00, 0x00, 0x00, 
  0x14, 0x00, 0x20, 0x00, 0x1c, 0x00, 0x18, 0x00, 0x14, 0x00, 0x10, 0x00, 
  0x0c, 0x00, 0x00, 0x00, 0x08, 0x00, 0x04, 0x00, 0x14, 0x00, 0x00, 0x00, 
  0x1c, 0x00, 0x00, 0x00, 0x88, 0x00, 0x00, 0x00, 0xe0, 0x00, 0x00, 0x00, 
  0x8c, 0x0c, 0x00, 0x00, 0x9c, 0x0c, 0x00, 0x00, 0x4c, 0x2f, 0x00, 0x00, 
  0x03, 0x00, 0x00, 0x00, 0x01, 0x00, 0x00, 0x00, 0x04, 0x00, 0x00, 0x00, 
  0x32, 0xf1, 0xff, 0xff, 0x0c, 0x00, 0x00, 0x00, 0x1c, 0x00, 0x00, 0x00, 
  0x40, 0x00, 0x00, 0x00, 0x0f, 0x00, 0x00, 0x00, 0x73, 0x65, 0x72, 0x76, 
  0x69, 0x6e, 0x67, 0x5f, 0x64, 0x65, 0x66, 0x61, 0x75, 0x6c, 0x74, 0x00, 
  0x01, 0x00, 0x00, 0x00, 0x04, 0x00, 0x00, 0x00, 0x94, 0xff, 0xff, 0xff, 
  0x1e, 0x00, 0x00, 0x00, 0x04, 0x00, 0x00, 0x00, 0x0d, 0x00, 0x00, 0x00, 
  0x71, 0x75, 0x61, 0x6e, 0x74, 0x5f, 0x66, 0x6c, 0x61, 0x74, 0x74, 0x65, 
  0x6e, 0x00, 0x00, 0x00, 0x01, 0x00, 0x00, 0x00, 0x04, 0x00, 0x00, 0x00, 
  0x02, 0xf4, 0xff, 0xff, 0x04, 0x00, 0x00, 0x00, 0x07, 0x00, 0x00, 0x00, 
  0x69, 0x6e, 0x70, 0x75, 0x74, 0x5f, 0x31, 0x00, 0x02, 0x00, 0x00, 0x00, 
  0x34, 0x00, 0x00, 0x00, 0x04, 0x00, 0x00, 0x00, 0xdc, 0xff, 0xff, 0xff, 
  0x21, 0x00, 0x00, 0x00, 0x04, 0x00, 0x00, 0x00, 0x13, 0x00, 0x00, 0x00, 
  0x43, 0x4f, 0x4e, 0x56, 0x45, 0x52, 0x53, 0x49, 0x4f, 0x4e, 0x5f, 0x4d, 
  0x45, 0x54, 0x41, 0x44, 0x41, 0x54, 0x41, 0x00, 0x08, 0x00, 0x0c, 0x00, 
  0x08, 0x00, 0x04, 0x00, 0x08, 0x00, 0x00, 0x00, 0x20, 0x00, 0x00, 0x00, 
  0x04, 0x00, 0x00, 0x00, 0x13, 0x00, 0x00, 0x00, 0x6d, 0x69, 0x6e, 0x5f, 
  0x72, 0x75, 0x6e, 0x74, 0x69, 0x6d, 0x65, 0x5f, 0x76, 0x65, 0x72, 0x73, 
  0x69, 0x6f, 0x6e, 0x00, 0x22, 0x00, 0x00, 0x00, 0xa8, 0x0b, 0x00, 0x00, 
  0xa0, 0x0b, 0x00, 0x00, 0x88, 0x0b, 0x00, 0x00, 0x60, 0x0b, 0x00, 0x00, 
  0xd0, 0x0a, 0x00, 0x00, 0xc0, 0x08, 0x00, 0x00, 0x90, 0x08, 0x00, 0x00, 
  0x60, 0x08, 0x00, 0x00, 0xd0, 0x07, 0x00, 0x00, 0xc8, 0x07, 0x00, 0x00, 
  0xb8, 0x05, 0x00, 0x00, 0x98, 0x05, 0x00, 0x00, 0x78, 0x05, 0x00, 0x00, 
  0x70, 0x05, 0x00, 0x00, 0x60, 0x01, 0x00, 0x00, 0x10, 0x01, 0x00, 0x00, 
  0x08, 0x01, 0x00, 0x00, 0x00, 0x01, 0x00, 0x00, 0xf8, 0x00, 0x00, 0x00, 
  0xf0, 0x00, 0x00, 0x00, 0xe8, 0x00, 0x00, 0x00, 0xe0, 0x00, 0x00, 0x00, 
  0xd8, 0x00, 0x00, 0x00, 0xd0, 0x00, 0x00, 0x00, 0xc8, 0x00, 0x00, 0x00, 
  0xc0, 0x00, 0x00, 0x00, 0xb8, 0x00, 0x00, 0x00, 0xb0, 0x00, 0x00, 0x00, 
  0xa8, 0x00, 0x00, 0x00, 0xa0, 0x00, 0x00, 0x00, 0x98, 0x00, 0x00, 0x00, 
  0x90, 0x00, 0x00, 0x00, 0x70, 0x00, 0x00, 0x00, 0x04, 0x00, 0x00, 0x00, 
  0xfe, 0xf4, 0xff, 0xff, 0x04, 0x00, 0x00, 0x00, 0x5c, 0x00, 0x00, 0x00, 
  0x0c, 0x00, 0x00, 0x00, 0x08, 0x00, 0x0e, 0x00, 0x08, 0x00, 0x04, 0x00, 
  0x08, 0x00, 0x00, 0x00, 0x10, 0x00, 0x00, 0x00, 0x2c, 0x00, 0x00, 0x00, 
  0x00, 0x00, 0x06, 0x00, 0x08, 0x00, 0x04, 0x00, 0x06, 0x00, 0x00, 0x00, 
  0x04, 0x00, 0x00, 0x00, 0x02, 0x00, 0x00, 0x00, 0xeb, 0x03, 0x00, 0x00, 
  0xd0, 0x07, 0x00, 0x00, 0x00, 0x00, 0x0a, 0x00, 0x10, 0x00, 0x0c, 0x00, 
  0x08, 0x00, 0x04, 0x00, 0x0a, 0x00, 0x00, 0x00, 0x02, 0x00, 0x00, 0x00, 
  0x02, 0x00, 0x00, 0x00, 0x04, 0x00, 0x00, 0x00, 0x06, 0x00, 0x00, 0x00, 
  0x32, 0x2e, 0x31, 0x34, 0x2e, 0x31, 0x00, 0x00, 0x66, 0xf5, 0xff, 0xff, 
  0x04, 0x00, 0x00, 0x00, 0x10, 0x00, 0x00, 0x00, 0x31, 0x2e, 0x31, 0x35, 
  0x2e, 0x30, 0x00, 0x00, 0x00, 0x00, 0x00, 0x00, 0x00, 0x00, 0x00, 0x00, 
  0x80, 0xd3, 0xff, 0xff, 0x84, 0xd3, 0xff, 0xff, 0x88, 0xd3, 0xff, 0xff, 
  0x8c, 0xd3, 0xff, 0xff, 0x90, 0xd3, 0xff, 0xff, 0x94, 0xd3, 0xff, 0xff, 
  0x98, 0xd3, 0xff, 0xff, 0x9c, 0xd3, 0xff, 0xff, 0xa0, 0xd3, 0xff, 0xff, 
  0xa4, 0xd3, 0xff, 0xff, 0xa8, 0xd3, 0xff, 0xff, 0xac, 0xd3, 0xff, 0xff, 
  0xb0, 0xd3, 0xff, 0xff, 0xb4, 0xd3, 0xff, 0xff, 0xb8, 0xd3, 0xff, 0xff, 
  0xbc, 0xd3, 0xff, 0xff, 0xc2, 0xf5, 0xff, 0xff, 0x04, 0x00, 0x00, 0x00, 
  0x40, 0x00, 0x00, 0x00, 0x00, 0x00, 0x00, 0x00, 0x00, 0x00, 0x00, 0x00, 
  0x00, 0x00, 0x00, 0x00, 0x00, 0x00, 0x00, 0x00, 0x00, 0x00, 0x00, 0x00, 
  0x00, 0x00, 0x00, 0x00, 0x00, 0x00, 0x00, 0x00, 0x00, 0x00, 0x00, 0x00, 
  0x00, 0x00, 0x00, 0x00, 0x00, 0x00, 0x00, 0x00, 0x00, 0x00, 0x00, 0x00, 
  0x00, 0x00, 0x00, 0x00, 0x00, 0x00, 0x00, 0x00, 0x00, 0x00, 0x00, 0x00, 
  0x00, 0x00, 0x00, 0x00, 0x00, 0x00, 0x00, 0x00, 0x0e, 0xf6, 0xff, 0xff, 
  0x04, 0x00, 0x00, 0x00, 0x00, 0x04, 0x00, 0x00, 0x0b, 0x52, 0x1b, 0x2e, 
  0x57, 0x0b, 0x09, 0x01, 0x48, 0xca, 0x31, 0x6e, 0x26, 0xdb, 0x0b, 0x2c, 
  0xdb, 0x3b, 0x82, 0xdd, 0xdc, 0x7f, 0x16, 0xc9, 0xe7, 0xcf, 0xaa, 0x26, 
  0xfa, 0x06, 0x6a, 0xb2, 0xd7, 0x19, 0xef, 0xe4, 0x39, 0x22, 0xd4, 0x3e, 
  0x20, 0x34, 0x2e, 0x5f, 0xae, 0x66, 0x18, 0xd9, 0x58, 0x5f, 0x2c, 0xe1, 
  0xc4, 0xd4, 0x41, 0x35, 0xcd, 0xf0, 0xb6, 0x03, 0x4a, 0x6d, 0x92, 0xe1, 
  0x1e, 0xf4, 0x17, 0xd1, 0xb8, 0x47, 0xcf, 0xac, 0x60, 0x15, 0xb5, 0x4d, 
  0x3f, 0xbd, 0x11, 0x53, 0xf7, 0xc6, 0x0f, 0x18, 0xd4, 0x81, 0x2c, 0x4d, 
  0xbc, 0xbc, 0xdb, 0x73, 0x46, 0xb1, 0x32, 0x26, 0x2d, 0xec, 0xc8, 0x1a, 
  0x36, 0xc3, 0xa1, 0xd6, 0x5d, 0x07, 0xa8, 0xe1, 0x3a, 0x70, 0x00, 0xd3, 
  0x0b, 0x11, 0x53, 0xce, 0xc4, 0xd9, 0x26, 0x14, 0x25, 0x8a, 0x11, 0xab, 
  0x3c, 0x28, 0x5b, 0xc8, 0x12, 0xba, 0x61, 0x16, 0x1b, 0x05, 0xf8, 0xf6, 
  0x24, 0x1b, 0xf8, 0xd6, 0xe2, 0xdd, 0x37, 0x3b, 0x3a, 0x28, 0xf7, 0xd5, 
  0xe9, 0xd7, 0x47, 0x26, 0xd4, 0xc4, 0xef, 0x5f, 0xf1, 0x30, 0xed, 0x67, 
  0x14, 0xa4, 0xb9, 0x04, 0x51, 0xd7, 0xd2, 0x43, 0xe5, 0x63, 0x00, 0xf5, 
  0x00, 0x2b, 0x18, 0x8d, 0x0b, 0x37, 0x09, 0x9f, 0xf8, 0x65, 0x11, 0x47, 
  0xe9, 0xf2, 0x2c, 0xf9, 0x81, 0xfc, 0x16, 0x48, 0x1d, 0xfa, 0xbc, 0x0f, 
  0xe7, 0x3a, 0x16, 0xd7, 0xfd, 0x20, 0xef, 0x01, 0xf7, 0xf2, 0x1c, 0x3b, 
  0xc5, 0xe2, 0xf7, 0x40, 0xe9, 0xb1, 0x3a, 0x36, 0xcd, 0x09, 0x11, 0xfe, 
  0xde, 0x15, 0xca, 0x3d, 0x73, 0x9d, 0xad, 0xfa, 0x5e, 0xf9, 0x5c, 0xb0, 
  0xad, 0x59, 0x31, 0xa0, 0x3b, 0x50, 0x81, 0xd2, 0x5e, 0x3e, 0xc8, 0xb9, 
  0x10, 0x5b, 0xd7, 0xbc, 0x41, 0x24, 0xc8, 0xeb, 0x39, 0xe9, 0x0b, 0xe1, 
  0xe6, 0xc9, 0xe1, 0x4c, 0x37, 0x37, 0xf8, 0x8a, 0xf5, 0xf9, 0x54, 0xfc, 
  0x3b, 0xc7, 0xf3, 0x3d, 0xeb, 0xf2, 0xe9, 0xf5, 0x01, 0xf9, 0x35, 0xda, 
  0x09, 0xef, 0x40, 0xa2, 0xee, 0xfd, 0x09, 0x78, 0x30, 0xd6, 0x97, 0xb0, 
  0x3c, 0x41, 0x62, 0x46, 0x81, 0xbf, 0xce, 0x01, 0x57, 0x41, 0xeb, 0xfd, 
  0x99, 0xbb, 0x65, 0x4d, 0xf5, 0xef, 0xf6, 0x85, 0x4a, 0x11, 0x40, 0xd3, 
  0x3b, 0x9f, 0x41, 0xe4, 0xec, 0x05, 0x3f, 0xe2, 0x48, 0xe3, 0xd6, 0x03, 
  0xe0, 0x01, 0xc9, 0x45, 0x07, 0xf0, 0xa5, 0xfe, 0x1e, 0x98, 0x11, 0xde, 
  0x14, 0xda, 0xdd, 0xe1, 0x34, 0x0b, 0x28, 0xed, 0xe5, 0x69, 0x49, 0xfb, 
  0x39, 0x49, 0xef, 0x45, 0x45, 0xfa, 0x16, 0x32, 0x28, 0x27, 0xb2, 0xf9, 
  0xcb, 0xbf, 0x09, 0xdf, 0x8d, 0xf9, 0x81, 0xf1, 0xed, 0xc4, 0x1b, 0x8d, 
  0x01, 0xd0, 0xc8, 0x40, 0xfd, 0xe4, 0x21, 0x12, 0xa2, 0x0f, 0x1d, 0x60, 
  0xfe, 0xb2, 0xaa, 0x3c, 0x44, 0x1c, 0xe2, 0x9a, 0xd7, 0x26, 0x26, 0x2d, 
  0xbf, 0xa2, 0x40, 0x15, 0x23, 0xb9, 0xf5, 0x33, 0x08, 0x37, 0x81, 0x05, 
  0xed, 0x57, 0xe6, 0x2f, 0xb8, 0xaa, 0xdd, 0x59, 0x32, 0x03, 0xc0, 0xbc, 
  0x1f, 0x41, 0xdf, 0xeb, 0x50, 0xe3, 0xf3, 0xeb, 0xe1, 0x46, 0x09, 0x58, 
  0xd5, 0xc6, 0xd7, 0x4a, 0xc1, 0x65, 0xd0, 0xdd, 0xe9, 0xdf, 0x2c, 0x11, 
  0x36, 0xf5, 0xdd, 0xf2, 0x4a, 0x22, 0xe2, 0xed, 0xce, 0x20, 0xdc, 0xd9, 
  0xbf, 0xf3, 0x27, 0xf7, 0x2c, 0x5e, 0x34, 0xf3, 0x14, 0x0d, 0xc6, 0xa7, 
  0xf4, 0xd0, 0xe8, 0xdd, 0x65, 0x32, 0x17, 0xff, 0xfc, 0xd2, 0x1e, 0xe9, 
  0x36, 0x26, 0x1e, 0x30, 0xba, 0x99, 0x24, 0xc1, 0xa2, 0xc8, 0x54, 0x7f, 
  0x73, 0x04, 0xc0, 0x37, 0xcf, 0xf0, 0xac, 0xf3, 0x04, 0xe2, 0x22, 0x0f, 
  0x4e, 0xeb, 0xd5, 0xe1, 0x56, 0x3a, 0xb8, 0x66, 0x02, 0xd1, 0x05, 0xe3, 
  0xa7, 0x03, 0x84, 0xc5, 0x29, 0xfa, 0xc5, 0x47, 0x1a, 0x4c, 0x0e, 0xe4, 
  0x0d, 0x28, 0xa0, 0xf1, 0x0a, 0xfb, 0xaa, 0x06, 0x21, 0x29, 0xf8, 0x3f, 
  0x4f, 0xba, 0x2d, 0x16, 0xf8, 0xe1, 0xdc, 0xba, 0x22, 0x8c, 0xe6, 0x33, 
  0x9f, 0x52, 0xf6, 0x20, 0x6c, 0xfe, 0x63, 0x5a, 0xbc, 0x2e, 0x00, 0xf0, 
  0x81, 0xf0, 0x28, 0xae, 0xc2, 0x09, 0xe5, 0x21, 0xaf, 0xd2, 0x44, 0xef, 
  0x35, 0xea, 0xd8, 0x46, 0xb2, 0xe9, 0xe4, 0x0a, 0x20, 0x32, 0xa8, 0xc6, 
  0xfc, 0x24, 0x31, 0x0a, 0x2b, 0xa3, 0xd6, 0x5c, 0xed, 0xfe, 0x4e, 0x37, 
  0xb5, 0xa5, 0x60, 0x24, 0xa2, 0x1c, 0x0f, 0xfa, 0xdf, 0x6b, 0x0b, 0x3a, 
  0xed, 0xda, 0x57, 0xf9, 0x19, 0xee, 0x93, 0xe2, 0x7f, 0x3d, 0xb2, 0x1e, 
  0x24, 0x36, 0x47, 0xc2, 0x03, 0xfd, 0x22, 0xd3, 0x00, 0x02, 0xde, 0x32, 
  0xf5, 0xfa, 0xdf, 0x10, 0xee, 0x3b, 0x5b, 0xd6, 0x26, 0xa1, 0xd6, 0xeb, 
  0xeb, 0xd4, 0x0f, 0x7f, 0x13, 0x1c, 0xef, 0x06, 0xda, 0x09, 0x0a, 0x5a, 
  0x0d, 0xce, 0xa6, 0x1e, 0x01, 0x85, 0xfd, 0x57, 0xf2, 0x47, 0xe6, 0x79, 
  0x1c, 0xd7, 0x11, 0xee, 0xfa, 0x04, 0xdb, 0xca, 0x0c, 0x0b, 0xd6, 0x4c, 
  0x17, 0xf6, 0xdb, 0x52, 0x23, 0x02, 0xf4, 0x13, 0x1e, 0xd3, 0xad, 0x19, 
  0x04, 0xd8, 0x26, 0x1a, 0x24, 0x2b, 0xe3, 0x3d, 0xe6, 0xfd, 0xdf, 0x05, 
  0xae, 0x1a, 0x19, 0xd0, 0xb1, 0x77, 0xc8, 0xc5, 0x07, 0x5a, 0x57, 0xc3, 
  0x3e, 0xc0, 0x34, 0xa0, 0x1b, 0x25, 0xbd, 0x19, 0xb2, 0xfb, 0xf4, 0xd4, 
  0x57, 0x56, 0x00, 0x0a, 0xff, 0x3f, 0x2b, 0xc6, 0x41, 0x88, 0x34, 0xce, 
  0x9d, 0xcd, 0x3d, 0xbf, 0xd7, 0x37, 0xd6, 0x62, 0x2f, 0xe1, 0x7f, 0xbd, 
  0x48, 0x01, 0x52, 0xea, 0xcd, 0xc0, 0xfc, 0xbb, 0xf6, 0x3f, 0xc6, 0x10, 
  0x01, 0xa7, 0x1e, 0xdd, 0x14, 0xde, 0xdb, 0x35, 0x0f, 0xd9, 0x0d, 0xc8, 
  0x08, 0x58, 0xe3, 0x01, 0x09, 0x38, 0x0d, 0x31, 0x08, 0x25, 0x32, 0x54, 
  0x02, 0x30, 0x4d, 0x21, 0xcf, 0x66, 0x11, 0x6b, 0xe4, 0x67, 0xf7, 0x39, 
  0xcd, 0x24, 0xdb, 0xe1, 0x0c, 0x1d, 0x01, 0xc5, 0x24, 0xe1, 0x9f, 0xea, 
  0x99, 0xc1, 0xdc, 0xc2, 0xea, 0xb9, 0xed, 0xbb, 0xfd, 0x81, 0xfd, 0xa7, 
  0x1a, 0x09, 0x19, 0xeb, 0x09, 0x2e, 0xc7, 0xd0, 0x02, 0x2e, 0xd6, 0xe0, 
  0xcf, 0x48, 0x21, 0xcc, 0xed, 0x31, 0x55, 0xfb, 0x02, 0xe6, 0xd1, 0x2d, 
  0xfc, 0xd6, 0xbe, 0xe3, 0x1c, 0x17, 0xe1, 0x26, 0xda, 0x17, 0x70, 0x1e, 
  0xd0, 0xf4, 0x14, 0xde, 0x02, 0x81, 0xe6, 0x1b, 0x3b, 0x20, 0xfc, 0xcd, 
  0x3c, 0x25, 0x18, 0x01, 0x09, 0xcd, 0x42, 0xa6, 0x08, 0x91, 0x01, 0x37, 
  0x31, 0x1a, 0x1d, 0xd7, 0xfd, 0x23, 0xda, 0xdb, 0x17, 0x05, 0x0c, 0x11, 
  0xe8, 0xcd, 0x4d, 0xf4, 0xdc, 0xdb, 0xee, 0x38, 0x4d, 0x01, 0xa7, 0xfd, 
  0x08, 0x41, 0x05, 0xcd, 0xb1, 0x4b, 0x13, 0x14, 0xed, 0xc3, 0x1c, 0x36, 
  0xca, 0xe9, 0xf3, 0x27, 0x09, 0x3c, 0xb2, 0x31, 0xed, 0x06, 0xfa, 0xec, 
  0x06, 0x15, 0x06, 0xdd, 0xee, 0x2a, 0x2d, 0xbe, 0xc4, 0x49, 0xcc, 0xf1, 
  0x72, 0xb4, 0xdf, 0x7f, 0xbe, 0x08, 0xc7, 0x29, 0x03, 0x42, 0x13, 0x3d, 
  0x13, 0xda, 0xfe, 0xfd, 0xd9, 0x05, 0x0e, 0x47, 0x5b, 0x18, 0x1f, 0xe9, 
  0xd9, 0xc9, 0xe7, 0x11, 0x0e, 0x41, 0x4e, 0x1e, 0xfd, 0xe7, 0xba, 0xcd, 
  0xcc, 0xdd, 0x1e, 0x1f, 0x1a, 0xf7, 0x1d, 0xdf, 0xba, 0x81, 0xd9, 0xe2, 
  0x11, 0xf1, 0xe6, 0x55, 0xd2, 0xd6, 0xf0, 0xa1, 0xcf, 0xad, 0xf5, 0x2f, 
  0xf3, 0x11, 0xfb, 0xdb, 0x21, 0xaa, 0xc9, 0xe6, 0x10, 0x00, 0x3c, 0x01, 
  0x18, 0xd8, 0xff, 0xff, 0x1e, 0xfa, 0xff, 0xff, 0x04, 0x00, 0x00, 0x00, 
  0x10, 0x00, 0x00, 0x00, 0x04, 0x30, 0x1e, 0x7f, 0x2f, 0xe7, 0x56, 0xf3, 
  0x01, 0x3a, 0x0b, 0x13, 0xcf, 0x08, 0x69, 0xe7, 0x3a, 0xfa, 0xff, 0xff, 
  0x04, 0x00, 0x00, 0x00, 0x10, 0x00, 0x00, 0x00, 0x3c, 0x1e, 0x45, 0x7f, 
  0xca, 0x41, 0x54, 0x4b, 0x5c, 0x3d, 0x41, 0x43, 0x3c, 0x3d, 0x80, 0x36, 
  0x56, 0xfa, 0xff, 0xff, 0x04, 0x00, 0x00, 0x00, 0x00, 0x02, 0x00, 0x00, 
  0x2d, 0x2c, 0x34, 0xfb, 0x3c, 0x1d, 0xda, 0xa3, 0x4f, 0x20, 0x6d, 0x92, 
  0x26, 0xe1, 0xa4, 0x81, 0x36, 0xd7, 0x1c, 0x9e, 0xf9, 0xe0, 0x13, 0x3e, 
  0xf6, 0x2c, 0xd2, 0x3a, 0x2a, 0x81, 0x81, 0x5e, 0x23, 0xd8, 0x28, 0x7d, 
  0xf1, 0xd7, 0x06, 0x81, 0x2b, 0x14, 0xc5, 0x7f, 0x81, 0x36, 0x3c, 0x00, 
  0x10, 0x55, 0x3a, 0x59, 0xba, 0x81, 0xe9, 0xbc, 0xf6, 0xe7, 0xbe, 0xa9, 
  0x4c, 0x13, 0xfb, 0x0b, 0xd5, 0x63, 0xb2, 0x14, 0xc6, 0xc6, 0x15, 0x3e, 
  0x40, 0x5e, 0x7f, 0xe5, 0xe6, 0x8b, 0x18, 0x51, 0x0e, 0x2d, 0x10, 0x44, 
  0x81, 0x14, 0x2b, 0x1f, 0xfa, 0xbe, 0xd0, 0x90, 0xeb, 0x28, 0x3b, 0xf1, 
  0xc3, 0x81, 0x64, 0x88, 0x00, 0x38, 0x0e, 0xc3, 0xf8, 0x04, 0x13, 0xbf, 
  0x23, 0x5b, 0xf3, 0xa9, 0x4c, 0xe7, 0x14, 0xd8, 0xcb, 0xb7, 0x3e, 0x0c, 
  0xf6, 0x54, 0xcc, 0x7e, 0xe7, 0xb4, 0xed, 0xf7, 0x99, 0xcf, 0xe7, 0x95, 
  0x26, 0x2a, 0x7d, 0x89, 0xbd, 0xfb, 0x29, 0x01, 0x0e, 0xaf, 0x15, 0x04, 
  0xba, 0xb1, 0xf1, 0x26, 0xef, 0xa6, 0x81, 0x86, 0xce, 0xee, 0x21, 0x4e, 
  0x39, 0x05, 0x73, 0x81, 0x7f, 0xc3, 0x43, 0xa9, 0x2e, 0x57, 0x7f, 0x91, 
  0xb5, 0xb7, 0xf6, 0x2d, 0x1e, 0x81, 0xb5, 0x79, 0x27, 0xfd, 0xd3, 0x0d, 
  0x5f, 0x49, 0x64, 0xde, 0x32, 0xe5, 0x81, 0x81, 0xf9, 0x58, 0xe9, 0x3b, 
  0x40, 0xc4, 0x81, 0xf6, 0x24, 0xf6, 0x15, 0x01, 0xd0, 0x8b, 0xca, 0x52, 
  0xc2, 0xea, 0x50, 0x97, 0x0c, 0x7f, 0x3c, 0x1f, 0x0b, 0xd0, 0x26, 0x36, 
  0xf2, 0x55, 0x6d, 0x3f, 0x81, 0x8e, 0xc7, 0x2c, 0xd1, 0x57, 0xda, 0xab, 
  0x08, 0x0d, 0x2b, 0x13, 0xe8, 0xc2, 0xc9, 0x39, 0x14, 0x0b, 0xaf, 0x14, 
  0x34, 0xb6, 0x1c, 0x2a, 0x30, 0x22, 0x52, 0xeb, 0x7f, 0x81, 0x9c, 0xf7, 
  0xe2, 0xe2, 0x31, 0xe9, 0x07, 0x1b, 0x26, 0xc7, 0xdb, 0x38, 0xea, 0xcb, 
  0xd7, 0xb7, 0x07, 0xf2, 0x58, 0x8f, 0x2a, 0x44, 0x33, 0x21, 0xa8, 0xf6, 
  0x39, 0x49, 0x42, 0xb8, 0xa8, 0x39, 0x1d, 0x2e, 0x31, 0xc5, 0x99, 0x08, 
  0x2a, 0x9e, 0x08, 0x9c, 0xdb, 0xed, 0x0a, 0x96, 0x5e, 0x52, 0xdc, 0xed, 
  0x0a, 0x43, 0x3f, 0xe7, 0xd8, 0xbe, 0x93, 0xee, 0x0c, 0xec, 0xb6, 0x6d, 
  0xfa, 0x08, 0x42, 0x43, 0x3d, 0x50, 0xd6, 0x29, 0xbb, 0x60, 0xfa, 0xcf, 
  0xe5, 0x81, 0xf0, 0x2d, 0xe3, 0x9b, 0x08, 0xcc, 0xff, 0xd3, 0x81, 0xee, 
  0x19, 0x16, 0xe6, 0xb4, 0x85, 0x1b, 0x21, 0x7f, 0xbf, 0xf3, 0xff, 0xf6, 
  0x0b, 0x4b, 0x99, 0x46, 0xda, 0x0c, 0x08, 0x81, 0xc4, 0x65, 0x0d, 0x1b, 
  0xf3, 0xc2, 0x10, 0x54, 0x6c, 0xe5, 0x16, 0xfa, 0x73, 0x27, 0xe4, 0x81, 
  0x03, 0x33, 0x9a, 0x40, 0xa9, 0x12, 0x50, 0x18, 0x55, 0x0e, 0xc3, 0xd9, 
  0xcf, 0x78, 0xe5, 0xf6, 0x2b, 0x08, 0x0a, 0x9c, 0xb5, 0xfa, 0x43, 0x00, 
  0xa9, 0x49, 0x0e, 0x02, 0x81, 0x90, 0x2d, 0x33, 0x37, 0x15, 0xcd, 0x25, 
  0xca, 0x24, 0xe5, 0x2b, 0xce, 0x3e, 0x6e, 0x00, 0xd6, 0x8e, 0xa1, 0x47, 
  0x1f, 0x13, 0xf1, 0x08, 0x7f, 0x81, 0xef, 0xba, 0x2a, 0x13, 0x16, 0xf7, 
  0xd3, 0xec, 0xf6, 0xff, 0x3d, 0xd9, 0xcc, 0xed, 0x3c, 0xc9, 0xe4, 0x06, 
  0x31, 0x2e, 0x57, 0xc3, 0x0a, 0x44, 0xcd, 0x56, 0x95, 0xdc, 0xe6, 0xee, 
  0x4c, 0xf0, 0xd4, 0xdb, 0x95, 0x96, 0xa4, 0xeb, 0xb9, 0xaa, 0xb6, 0x08, 
  0xf7, 0xb7, 0x07, 0x08, 0xcd, 0x66, 0x55, 0x12, 0x56, 0xfd, 0x4b, 0xee, 
  0x22, 0x44, 0xd0, 0x55, 0x81, 0x98, 0xec, 0x3a, 0xcd, 0x2e, 0xf9, 0xfd, 
  0xc2, 0x20, 0xc9, 0xe2, 0x3e, 0x7f, 0x81, 0x5b, 0x8d, 0xbd, 0x55, 0xe9, 
  0x22, 0xbf, 0xf7, 0x48, 0x37, 0x91, 0x15, 0xe6, 0x60, 0xda, 0xff, 0xff, 
  0x66, 0xfc, 0xff, 0xff, 0x04, 0x00, 0x00, 0x00, 0x80, 0x00, 0x00, 0x00, 
  0x00, 0x00, 0x00, 0x00, 0x00, 0x00, 0x00, 0x00, 0x00, 0x00, 0x00, 0x00, 
  0x00, 0x00, 0x00, 0x00, 0x00, 0x00, 0x00, 0x00, 0x00, 0x00, 0x00, 0x00, 
  0x00, 0x00, 0x00, 0x00, 0x00, 0x00, 0x00, 0x00, 0x00, 0x00, 0x00, 0x00, 
  0x00, 0x00, 0x00, 0x00, 0x00, 0x00, 0x00, 0x00, 0x00, 0x00, 0x00, 0x00, 
  0x00, 0x00, 0x00, 0x00, 0x00, 0x00, 0x00, 0x00, 0x00, 0x00, 0x00, 0x00, 
  0x00, 0x00, 0x00, 0x00, 0x00, 0x00, 0x00, 0x00, 0x00, 0x00, 0x00, 0x00, 
  0x00, 0x00, 0x00, 0x00, 0x00, 0x00, 0x00, 0x00, 0x00, 0x00, 0x00, 0x00, 
  0x00, 0x00, 0x00, 0x00, 0x00, 0x00, 0x00, 0x00, 0x00, 0x00, 0x00, 0x00, 
  0x00, 0x00, 0x00, 0x00, 0x00, 0x00, 0x00, 0x00, 0x00, 0x00, 0x00, 0x00, 
  0x00, 0x00, 0x00, 0x00, 0x00, 0x00, 0x00, 0x00, 0x00, 0x00, 0x00, 0x00, 
  0x00, 0x00, 0x00, 0x00, 0x00, 0x00, 0x00, 0x00, 0xf2, 0xfc, 0xff, 0xff, 
  0x04, 0x00, 0x00, 0x00, 0x20, 0x00, 0x00, 0x00, 0xd5, 0xe4, 0xdc, 0x19, 
  0xed, 0xf6, 0x7f, 0xe5, 0x16, 0xe8, 0xcc, 0x1b, 0xf5, 0x16, 0xfe, 0x0a, 
  0xc8, 0x27, 0xca, 0x01, 0xc4, 0xfa, 0xe1, 0x05, 0xce, 0x03, 0xc5, 0xfe, 
  0xea, 0x0e, 0x14, 0x1f, 0x1e, 0xfd, 0xff, 0xff, 0x04, 0x00, 0x00, 0x00, 
  0x20, 0x00, 0x00, 0x00, 0x7f, 0x60, 0x3f, 0x15, 0x3c, 0x25, 0x80, 0x69, 
  0x61, 0x2c, 0x64, 0x58, 0x4b, 0x36, 0xf9, 0x1f, 0x67, 0x0c, 0x48, 0xea, 
  0x38, 0x29, 0x36, 0x29, 0x69, 0x3c, 0x15, 0x5a, 0x55, 0x58, 0xd3, 0x1b, 
  0x4a, 0xfd, 0xff, 0xff, 0x04, 0x00, 0x00, 0x00, 0x00, 0x02, 0x00, 0x00, 
  0xc2, 0x43, 0x06, 0x15, 0xfa, 0xf1, 0xb9, 0x8a, 0xa8, 0x70, 0xe9, 0x19, 
  0x0e, 0xd5, 0x4d, 0x49, 0x25, 0xc0, 0x36, 0xfe, 0xad, 0xbc, 0xfd, 0x1e, 
  0xe1, 0x63, 0xfe, 0x4a, 0x36, 0xa9, 0xce, 0x3b, 0xc2, 0x2d, 0x7f, 0xb0, 
  0x0c, 0x26, 0xad, 0xe5, 0xd8, 0x5f, 0x49, 0x24, 0x29, 0xb0, 0x5a, 0x42, 
  0x0b, 0xb7, 0x18, 0xe5, 0x05, 0xc2, 0xd8, 0x26, 0xf2, 0x10, 0x65, 0x3b, 
  0x18, 0x94, 0xa9, 0x4a, 0xdb, 0x79, 0x41, 0xb6, 0x13, 0xfd, 0x8a, 0x21, 
  0x12, 0x28, 0xde, 0x21, 0x57, 0xca, 0x7f, 0x41, 0x1f, 0xaa, 0x4a, 0x94, 
  0x1b, 0xc0, 0x23, 0x21, 0xc4, 0x3d, 0x20, 0x1e, 0x74, 0x81, 0x91, 0x51, 
  0xec, 0x27, 0x0a, 0xe4, 0xe0, 0xd5, 0xb8, 0x00, 0xf4, 0x7b, 0x0a, 0x07, 
  0x0c, 0xe6, 0x43, 0x34, 0x0a, 0x98, 0x66, 0xbe, 0x34, 0xbc, 0xe7, 0x24, 
  0xc5, 0x3a, 0x6d, 0x52, 0x76, 0x97, 0xc8, 0x45, 0xcc, 0x02, 0xfa, 0xf5, 
  0xd7, 0x01, 0xa0, 0xff, 0xba, 0x55, 0x21, 0x39, 0x10, 0xe6, 0x4b, 0x46, 
  0xfa, 0xb8, 0x2f, 0xae, 0x5c, 0xc0, 0xa0, 0x51, 0xb9, 0x23, 0x6d, 0x42, 
  0x40, 0x8c, 0xd1, 0x2d, 0xfd, 0xc1, 0xe1, 0xab, 0xa2, 0x14, 0x94, 0x64, 
  0xdb, 0x3e, 0x27, 0x16, 0xfa, 0xcc, 0x16, 0x29, 0x2e, 0x98, 0x6d, 0xe2, 
  0xdd, 0xcb, 0xc0, 0x67, 0xda, 0x4c, 0x24, 0x49, 0x7a, 0xa6, 0xe4, 0x12, 
  0xf4, 0x52, 0xd5, 0xc1, 0xc0, 0x4d, 0xaa, 0x20, 0xe2, 0x7f, 0x07, 0x2d, 
  0x20, 0xbf, 0x73, 0x22, 0x0a, 0x9b, 0x3a, 0x81, 0x29, 0x81, 0xb9, 0x34, 
  0xca, 0x4f, 0x2c, 0x5a, 0x3c, 0xb4, 0xd6, 0x3f, 0xe5, 0x00, 0xfa, 0x88, 
  0xb7, 0x34, 0x88, 0x54, 0xec, 0x49, 0x3e, 0x34, 0xf0, 0xf3, 0x3c, 0x21, 
  0x06, 0x8d, 0x2b, 0xdf, 0xdc, 0xe3, 0xc0, 0x7a, 0xa7, 0x17, 0x30, 0xfc, 
  0x5f, 0xc4, 0xa4, 0x40, 0x38, 0x0b, 0x29, 0x89, 0xe9, 0x34, 0x81, 0x7f, 
  0xdf, 0x4d, 0x4a, 0x20, 0x6e, 0xa7, 0x6a, 0x31, 0xd5, 0x96, 0xfc, 0xa0, 
  0xe3, 0x92, 0x3a, 0x45, 0x8f, 0x4a, 0xe3, 0x38, 0x1c, 0xa1, 0x96, 0x7a, 
  0x29, 0xd6, 0x52, 0xa7, 0xef, 0x08, 0x91, 0xf4, 0xf4, 0x7e, 0x50, 0x47, 
  0x05, 0x8b, 0x67, 0x74, 0xce, 0x81, 0x7f, 0xf2, 0x19, 0xb4, 0x7f, 0x46, 
  0x04, 0x60, 0x45, 0x3e, 0x74, 0xba, 0x9b, 0x23, 0x29, 0xc6, 0x39, 0xdd, 
  0xa8, 0x06, 0x9a, 0x42, 0xbb, 0x7b, 0x42, 0x47, 0x73, 0xdf, 0x3b, 0x7e, 
  0xda, 0xa4, 0x30, 0xba, 0xc8, 0xef, 0x55, 0x58, 0x81, 0x5a, 0x08, 0x39, 
  0x36, 0xbd, 0xbd, 0x31, 0x43, 0x10, 0x2f, 0xa8, 0xc6, 0x5e, 0x8c, 0x78, 
  0xc1, 0x54, 0x73, 0x45, 0xfc, 0xd5, 0x35, 0x30, 0xd7, 0xb6, 0x45, 0x9a, 
  0x33, 0xb1, 0x4c, 0x79, 0xcb, 0x4c, 0xcd, 0x7b, 0x4b, 0xdd, 0x81, 0x4d, 
  0x7f, 0x81, 0x1d, 0xc8, 0xb2, 0x70, 0xd3, 0xc7, 0xca, 0x6a, 0x2f, 0x4e, 
  0x59, 0x95, 0x3a, 0x34, 0xb5, 0xaf, 0x7f, 0xac, 0x7f, 0xc1, 0x5d, 0x7f, 
  0x90, 0x3d, 0xac, 0x24, 0x7f, 0xc6, 0xbf, 0x5f, 0x48, 0xd3, 0x33, 0xaa, 
  0x81, 0x81, 0x8a, 0xdf, 0xce, 0x4e, 0x6a, 0x32, 0x50, 0x81, 0x5e, 0x1b, 
  0x93, 0xc0, 0xf3, 0xce, 0x0d, 0xb0, 0xe6, 0x3d, 0x8d, 0x72, 0x63, 0x6e, 
  0x32, 0xe9, 0xeb, 0x2a, 0x7a, 0xd6, 0x25, 0x81, 0xa1, 0xad, 0xa8, 0x3d, 
  0x81, 0x5f, 0x7f, 0x11, 0x7f, 0x8c, 0x45, 0x7f, 0x09, 0xa6, 0x78, 0x8b, 
  0xd3, 0x9f, 0xf1, 0x3c, 0xca, 0x1e, 0x5a, 0x7f, 0x3e, 0xb9, 0xa5, 0x5e, 
  0x74, 0x0e, 0xfc, 0xb5, 0xa3, 0x39, 0xcb, 0x44, 0xca, 0x2b, 0x10, 0x7f, 
  0x71, 0xe5, 0x61, 0x76, 0x81, 0xbc, 0x50, 0xae, 0x3a, 0xa6, 0x3b, 0xe7, 
  0xd4, 0x7f, 0x7f, 0x25, 0x52, 0xc7, 0xa9, 0x7f, 0x56, 0xff, 0xff, 0xff, 
  0x04, 0x00, 0x00, 0x00, 0x80, 0x00, 0x00, 0x00, 0xc3, 0xd5, 0x08, 0xe5, 
  0xc9, 0x20, 0x7f, 0x1e, 0x31, 0x13, 0xd4, 0xb1, 0x1e, 0x6c, 0xa8, 0x01, 
  0x46, 0xbb, 0x90, 0x64, 0x02, 0x5a, 0xda, 0xd9, 0xf2, 0x1b, 0xbe, 0x3c, 
  0x57, 0x9e, 0x41, 0xac, 0x23, 0xdc, 0x50, 0x9b, 0x91, 0x56, 0xe7, 0x42, 
  0x6a, 0xb6, 0xc8, 0xad, 0x37, 0x8d, 0x41, 0x48, 0x42, 0x2c, 0x29, 0xc5, 
  0x1f, 0xe6, 0x1a, 0xd0, 0x0f, 0xcc, 0x11, 0x51, 0xb8, 0x40, 0xda, 0x7f, 
  0xfa, 0xca, 0x14, 0xd3, 0x81, 0xeb, 0xab, 0x02, 0xc5, 0xbb, 0x30, 0xd0, 
  0x4e, 0x48, 0x13, 0x53, 0xf9, 0x3d, 0x68, 0x93, 0xf4, 0xa8, 0xd0, 0x0f, 
  0x2e, 0xc8, 0x1e, 0xbc, 0xcc, 0x4b, 0xc0, 0x79, 0x6b, 0xcb, 0xf9, 0xfd, 
  0xd9, 0xa4, 0x5a, 0xcb, 0xf9, 0x1a, 0x72, 0x71, 0xd5, 0x45, 0x05, 0x07, 
  0xa3, 0x92, 0x0b, 0x56, 0x0d, 0x25, 0x2d, 0x7f, 0x88, 0x6c, 0xb5, 0x22, 
  0x48, 0xcc, 0x26, 0x24, 0xe2, 0xff, 0xff, 0xff, 0x04, 0x00, 0x00, 0x00, 
  0x10, 0x00, 0x00, 0x00, 0xd2, 0x04, 0x00, 0x00, 0x63, 0xfd, 0xff, 0xff, 
  0x62, 0xfd, 0xff, 0xff, 0xb1, 0xef, 0xff, 0xff, 0x00, 0x00, 0x06, 0x00, 
  0x08, 0x00, 0x04, 0x00, 0x06, 0x00, 0x00, 0x00, 0x04, 0x00, 0x00, 0x00, 
  0x08, 0x00, 0x00, 0x00, 0xff, 0xff, 0xff, 0xff, 0x10, 0x00, 0x00, 0x00, 
  0x18, 0xde, 0xff, 0xff, 0x1c, 0xde, 0xff, 0xff, 0x0f, 0x00, 0x00, 0x00, 
  0x4d, 0x4c, 0x49, 0x52, 0x20, 0x43, 0x6f, 0x6e, 0x76, 0x65, 0x72, 0x74, 
  0x65, 0x64, 0x2e, 0x00, 0x01, 0x00, 0x00, 0x00, 0x14, 0x00, 0x00, 0x00, 
  0x00, 0x00, 0x0e, 0x00, 0x18, 0x00, 0x14, 0x00, 0x10, 0x00, 0x0c, 0x00, 
  0x08, 0x00, 0x04, 0x00, 0x0e, 0x00, 0x00, 0x00, 0x14, 0x00, 0x00, 0x00, 
  0x1c, 0x00, 0x00, 0x00, 0xd0, 0x03, 0x00, 0x00, 0xd4, 0x03, 0x00, 0x00, 
  0xd8, 0x03, 0x00, 0x00, 0x04, 0x00, 0x00, 0x00, 0x6d, 0x61, 0x69, 0x6e, 
  0x00, 0x00, 0x00, 0x00, 0x11, 0x00, 0x00, 0x00, 0x98, 0x03, 0x00, 0x00, 
  0x4c, 0x03, 0x00, 0x00, 0x08, 0x03, 0x00, 0x00, 0xd4, 0x02, 0x00, 0x00, 
  0x80, 0x02, 0x00, 0x00, 0x4c, 0x02, 0x00, 0x00, 0x18, 0x02, 0x00, 0x00, 
  0xf4, 0x01, 0x00, 0x00, 0x94, 0x01, 0x00, 0x00, 0x74, 0x01, 0x00, 0x00, 
  0x24, 0x01, 0x00, 0x00, 0xd4, 0x00, 0x00, 0x00, 0xb0, 0x00, 0x00, 0x00, 
  0x6c, 0x00, 0x00, 0x00, 0x4c, 0x00, 0x00, 0x00, 0x24, 0x00, 0x00, 0x00, 
  0x04, 0x00, 0x00, 0x00, 0xb6, 0xfc, 0xff, 0xff, 0x08, 0x00, 0x00, 0x00, 
  0x0c, 0x00, 0x00, 0x00, 0x01, 0x00, 0x00, 0x00, 0x1e, 0x00, 0x00, 0x00, 
  0x01, 0x00, 0x00, 0x00, 0x1d, 0x00, 0x00, 0x00, 0x5a, 0xfe, 0xff, 0xff, 
  0x0c, 0x00, 0x00, 0x00, 0x10, 0x00, 0x00, 0x00, 0x07, 0x00, 0x00, 0x00, 
  0x01, 0x00, 0x00, 0x00, 0x1d, 0x00, 0x00, 0x00, 0x02, 0x00, 0x00, 0x00, 
  0x1c, 0x00, 0x00, 0x00, 0x01, 0x00, 0x00, 0x00, 0xf6, 0xfc, 0xff, 0xff, 
  0x08, 0x00, 0x00, 0x00, 0x0c, 0x00, 0x00, 0x00, 0x01, 0x00, 0x00, 0x00, 
  0x1c, 0x00, 0x00, 0x00, 0x01, 0x00, 0x00, 0x00, 0x1b, 0x00, 0x00, 0x00, 
  0x5e, 0xfd, 0xff, 0xff, 0x14, 0x00, 0x00, 0x00, 0x00, 0x00, 0x00, 0x05, 
  0x24, 0x00, 0x00, 0x00, 0x28, 0x00, 0x00, 0x00, 0x06, 0x00, 0x00, 0x00, 
  0xea, 0xfe, 0xff, 0xff, 0x01, 0x00, 0x00, 0x00, 0x08, 0x00, 0x00, 0x00, 
  0x01, 0x00, 0x00, 0x00, 0x08, 0x00, 0x00, 0x00, 0x00, 0x00, 0x00, 0x01, 
  0x01, 0x00, 0x00, 0x00, 0x1b, 0x00, 0x00, 0x00, 0x01, 0x00, 0x00, 0x00, 
  0x1a, 0x00, 0x00, 0x00, 0xda, 0xfe, 0xff, 0xff, 0x0c, 0x00, 0x00, 0x00, 
  0x10, 0x00, 0x00, 0x00, 0x05, 0x00, 0x00, 0x00, 0x01, 0x00, 0x00, 0x00, 
  0x1a, 0x00, 0x00, 0x00, 0x01, 0x00, 0x00, 0x00, 0x19, 0x00, 0x00, 0x00, 
  0xbe, 0xfd, 0xff, 0xff, 0x20, 0x00, 0x00, 0x00, 0x00, 0x00, 0x00, 0x01, 
  0x28, 0x00, 0x00, 0x00, 0x2c, 0x00, 0x00, 0x00, 0x01, 0x00, 0x00, 0x00, 
  0x00, 0x00, 0x0a, 0x00, 0x10, 0x00, 0x0f, 0x00, 0x08, 0x00, 0x04, 0x00, 
  0x0a, 0x00, 0x00, 0x00, 0x01, 0x00, 0x00, 0x00, 0x01, 0x00, 0x00, 0x00, 
  0x00, 0x00, 0x00, 0x01, 0x01, 0x00, 0x00, 0x00, 0x19, 0x00, 0x00, 0x00, 
  0x03, 0x00, 0x00, 0x00, 0x18, 0x00, 0x00, 0x00, 0x03, 0x00, 0x00, 0x00, 
  0x02, 0x00, 0x00, 0x00, 0x0a, 0xfe, 0xff, 0xff, 0x20, 0x00, 0x00, 0x00, 
  0x00, 0x00, 0x00, 0x02, 0x28, 0x00, 0x00, 0x00, 0x2c, 0x00, 0x00, 0x00, 
  0x04, 0x00, 0x00, 0x00, 0x0c, 0x00, 0x10, 0x00, 0x00, 0x00, 0x0c, 0x00, 
  0x08, 0x00, 0x04, 0x00, 0x0c, 0x00, 0x00, 0x00, 0x01, 0x00, 0x00, 0x00, 
  0x01, 0x00, 0x00, 0x00, 0x01, 0x00, 0x00, 0x00, 0x01, 0x00, 0x00, 0x00, 
  0x18, 0x00, 0x00, 0x00, 0x03, 0x00, 0x00, 0x00, 0x17, 0x00, 0x00, 0x00, 
  0x04, 0x00, 0x00, 0x00, 0x08, 0x00, 0x00, 0x00, 0x0a, 0xfe, 0xff, 0xff, 
  0x08, 0x00, 0x00, 0x00, 0x0c, 0x00, 0x00, 0x00, 0x01, 0x00, 0x00, 0x00, 
  0x17, 0x00, 0x00, 0x00, 0x01, 0x00, 0x00, 0x00, 0x16, 0x00, 0x00, 0x00, 
  0x72, 0xfe, 0xff, 0xff, 0x24, 0x00, 0x00, 0x00, 0x00, 0x00, 0x00, 0x05, 
  0x34, 0x00, 0x00, 0x00, 0x38, 0x00, 0x00, 0x00, 0x06, 0x00, 0x00, 0x00, 
  0x00, 0x00, 0x0e, 0x00, 0x18, 0x00, 0x17, 0x00, 0x10, 0x00, 0x0c, 0x00, 
  0x08, 0x00, 0x04, 0x00, 0x0e, 0x00, 0x00, 0x00, 0x01, 0x00, 0x00, 0x00, 
  0x04, 0x00, 0x00, 0x00, 0x01, 0x00, 0x00, 0x00, 0x04, 0x00, 0x00, 0x00, 
  0x00, 0x00, 0x00, 0x01, 0x01, 0x00, 0x00, 0x00, 0x16, 0x00, 0x00, 0x00, 
  0x01, 0x00, 0x00, 0x00, 0x15, 0x00, 0x00, 0x00, 0x00, 0x00, 0x0a, 0x00, 
  0x10, 0x00, 0x0c, 0x00, 0x08, 0x00, 0x04, 0x00, 0x0a, 0x00, 0x00, 0x00, 
  0x0c, 0x00, 0x00, 0x00, 0x10, 0x00, 0x00, 0x00, 0x05, 0x00, 0x00, 0x00, 
  0x01, 0x00, 0x00, 0x00, 0x15, 0x00, 0x00, 0x00, 0x01, 0x00, 0x00, 0x00, 
  0x14, 0x00, 0x00, 0x00, 0xee, 0xfe, 0xff, 0xff, 0x14, 0x00, 0x00, 0x00, 
  0x00, 0x00, 0x00, 0x0b, 0x10, 0x00, 0x00, 0x00, 0x14, 0x00, 0x00, 0x00, 
  0x03, 0x00, 0x00, 0x00, 0xbc, 0xe0, 0xff, 0xff, 0x01, 0x00, 0x00, 0x00, 
  0x14, 0x00, 0x00, 0x00, 0x02, 0x00, 0x00, 0x00, 0x13, 0x00, 0x00, 0x00, 
  0x05, 0x00, 0x00, 0x00, 0x1e, 0xff, 0xff, 0xff, 0x14, 0x00, 0x00, 0x00, 
  0x00, 0x00, 0x00, 0x15, 0x10, 0x00, 0x00, 0x00, 0x14, 0x00, 0x00, 0x00, 
  0x02, 0x00, 0x00, 0x00, 0xec, 0xe0, 0xff, 0xff, 0x01, 0x00, 0x00, 0x00, 
  0x13, 0x00, 0x00, 0x00, 0x02, 0x00, 0x00, 0x00, 0x12, 0x00, 0x00, 0x00, 
  0x06, 0x00, 0x00, 0x00, 0x4e, 0xff, 0xff, 0xff, 0x20, 0x00, 0x00, 0x00, 
  0x00, 0x00, 0x00, 0x02, 0x2c, 0x00, 0x00, 0x00, 0x30, 0x00, 0x00, 0x00, 
  0x04, 0x00, 0x00, 0x00, 0x0c, 0x00, 0x14, 0x00, 0x13, 0x00, 0x0c, 0x00, 
  0x08, 0x00, 0x04, 0x00, 0x0c, 0x00, 0x00, 0x00, 0x02, 0x00, 0x00, 0x00, 
  0x01, 0x00, 0x00, 0x00, 0x01, 0x00, 0x00, 0x00, 0x00, 0x00, 0x00, 0x01, 
  0x01, 0x00, 0x00, 0x00, 0x12, 0x00, 0x00, 0x00, 0x03, 0x00, 0x00, 0x00, 
  0x11, 0x00, 0x00, 0x00, 0x09, 0x00, 0x00, 0x00, 0x07, 0x00, 0x00, 0x00, 
  0x9e, 0xff, 0xff, 0xff, 0x14, 0x00, 0x00, 0x00, 0x00, 0x00, 0x00, 0x0b, 
  0x10, 0x00, 0x00, 0x00, 0x14, 0x00, 0x00, 0x00, 0x03, 0x00, 0x00, 0x00, 
  0x6c, 0xe1, 0xff, 0xff, 0x01, 0x00, 0x00, 0x00, 0x11, 0x00, 0x00, 0x00, 
  0x02, 0x00, 0x00, 0x00, 0x10, 0x00, 0x00, 0x00, 0x0a, 0x00, 0x00, 0x00, 
  0xce, 0xff, 0xff, 0xff, 0x14, 0x00, 0x00, 0x00, 0x00, 0x00, 0x00, 0x15, 
  0x10, 0x00, 0x00, 0x00, 0x14, 0x00, 0x00, 0x00, 0x02, 0x00, 0x00, 0x00, 
  0x9c, 0xe1, 0xff, 0xff, 0x01, 0x00, 0x00, 0x00, 0x10, 0x00, 0x00, 0x00, 
  0x02, 0x00, 0x00, 0x00, 0x0f, 0x00, 0x00, 0x00, 0x0b, 0x00, 0x00, 0x00, 
  0x00, 0x00, 0x0e, 0x00, 0x18, 0x00, 0x14, 0x00, 0x10, 0x00, 0x0c, 0x00, 
  0x0b, 0x00, 0x04, 0x00, 0x0e, 0x00, 0x00, 0x00, 0x14, 0x00, 0x00, 0x00, 
  0x00, 0x00, 0x00, 0x01, 0x18, 0x00, 0x00, 0x00, 0x1c, 0x00, 0x00, 0x00, 
  0x01, 0x00, 0x00, 0x00, 0xda, 0xff, 0xff, 0xff, 0x01, 0x00, 0x00, 0x00, 
  0x01, 0x00, 0x00, 0x00, 0x01, 0x00, 0x00, 0x00, 0x0f, 0x00, 0x00, 0x00, 
  0x03, 0x00, 0x00, 0x00, 0x0c, 0x00, 0x00, 0x00, 0x0d, 0x00, 0x00, 0x00, 
  0x0e, 0x00, 0x00, 0x00, 0x00, 0x00, 0x0a, 0x00, 0x0c, 0x00, 0x00, 0x00, 
  0x08, 0x00, 0x04, 0x00, 0x0a, 0x00, 0x00, 0x00, 0x08, 0x00, 0x00, 0x00, 
  0x0c, 0x00, 0x00, 0x00, 0x01, 0x00, 0x00, 0x00, 0x0c, 0x00, 0x00, 0x00, 
  0x01, 0x00, 0x00, 0x00, 0x00, 0x00, 0x00, 0x00, 0x01, 0x00, 0x00, 0x00, 
  0x1e, 0x00, 0x00, 0x00, 0x01, 0x00, 0x00, 0x00, 0x00, 0x00, 0x00, 0x00, 
  0x1f, 0x00, 0x00, 0x00, 0x18, 0x1e, 0x00, 0x00, 0xa4, 0x1d, 0x00, 0x00, 
  0xdc, 0x1c, 0x00, 0x00, 0x28, 0x1c, 0x00, 0x00, 0x04, 0x1a, 0x00, 0x00, 
  0x78, 0x19, 0x00, 0x00, 0xec, 0x18, 0x00, 0x00, 0xe8, 0x16, 0x00, 0x00, 
  0xe4, 0x14, 0x00, 0x00, 0x84, 0x12, 0x00, 0x00, 0xfc, 0x11, 0x00, 0x00, 
  0x78, 0x11, 0x00, 0x00, 0x04, 0x10, 0x00, 0x00, 0x80, 0x0e, 0x00, 0x00, 
  0x54, 0x0d, 0x00, 0x00, 0xb8, 0x0c, 0x00, 0x00, 0x0c, 0x0c, 0x00, 0x00, 
  0x60, 0x0b, 0x00, 0x00, 0xbc, 0x0a, 0x00, 0x00, 0x10, 0x0a, 0x00, 0x00, 
  0x64, 0x09, 0x00, 0x00, 0xe8, 0x07, 0x00, 0x00, 0x44, 0x07, 0x00, 0x00, 
  0xb8, 0x05, 0x00, 0x00, 0x04, 0x05, 0x00, 0x00, 0x20, 0x04, 0x00, 0x00, 
  0xb4, 0x02, 0x00, 0x00, 0x10, 0x02, 0x00, 0x00, 0x64, 0x01, 0x00, 0x00, 
  0x80, 0x00, 0x00, 0x00, 0x04, 0x00, 0x00, 0x00, 0x7a, 0xe2, 0xff, 0xff, 
  0x00, 0x00, 0x00, 0x01, 0x18, 0x00, 0x00, 0x00, 0x20, 0x00, 0x00, 0x00, 
  0x3c, 0x00, 0x00, 0x00, 0x1f, 0x00, 0x00, 0x00, 0x00, 0x00, 0x00, 0x03, 
  0x50, 0x00, 0x00, 0x00, 0x02, 0x00, 0x00, 0x00, 0xff, 0xff, 0xff, 0xff, 
  0x10, 0x00, 0x00, 0x00, 0x5c, 0xe2, 0xff, 0xff, 0x08, 0x00, 0x00, 0x00, 
  0x10, 0x00, 0x00, 0x00, 0x01, 0x00, 0x00, 0x00, 0x12, 0x00, 0x00, 0x00, 
  0x00, 0x00, 0x00, 0x00, 0x01, 0x00, 0x00, 0x00, 0xa1, 0x04, 0xfc, 0x3c, 
  0x19, 0x00, 0x00, 0x00, 0x53, 0x74, 0x61, 0x74, 0x65, 0x66, 0x75, 0x6c, 
  0x50, 0x61, 0x72, 0x74, 0x69, 0x74, 0x69, 0x6f, 0x6e, 0x65, 0x64, 0x43, 
  0x61, 0x6c, 0x6c, 0x3a, 0x30, 0x00, 0x00, 0x00, 0x02, 0x00, 0x00, 0x00, 
  0x01, 0x00, 0x00, 0x00, 0x10, 0x00, 0x00, 0x00, 0xf2, 0xe2, 0xff, 0xff, 
  0x00, 0x00, 0x00, 0x01, 0x18, 0x00, 0x00, 0x00, 0x20, 0x00, 0x00, 0x00, 
  0x40, 0x00, 0x00, 0x00, 0x1e, 0x00, 0x00, 0x00, 0x00, 0x00, 0x00, 0x09, 
  0xb8, 0x00, 0x00, 0x00, 0x02, 0x00, 0x00, 0x00, 0xff, 0xff, 0xff, 0xff, 
  0x10, 0x00, 0x00, 0x00, 0xd4, 0xe2, 0xff, 0xff, 0x08, 0x00, 0x00, 0x00, 
  0x14, 0x00, 0x00, 0x00, 0x01, 0x00, 0x00, 0x00, 0x92, 0xff, 0xff, 0xff, 
  0xff, 0xff, 0xff, 0xff, 0x00, 0x00, 0x00, 0x00, 0x01, 0x00, 0x00, 0x00, 
  0xa1, 0x04, 0xfc, 0x3c, 0x7d, 0x00, 0x00, 0x00, 0x45, 0x45, 0x47, 0x4e, 
  0x65, 0x74, 0x5f, 0x46, 0x75, 0x6e, 0x63, 0x74, 0x69, 0x6f, 0x6e, 0x61, 
  0x6c, 0x2f, 0x71, 0x75, 0x61, 0x6e, 0x74, 0x5f, 0x66, 0x6c, 0x61, 0x74, 
  0x74, 0x65, 0x6e, 0x2f, 0x52, 0x65, 0x73, 0x68, 0x61, 0x70, 0x65, 0x3b, 
  0x45, 0x45, 0x47, 0x4e, 0x65, 0x74, 0x5f, 0x46, 0x75, 0x6e, 0x63, 0x74, 
  0x69, 0x6f, 0x6e, 0x61, 0x6c, 0x2f, 0x71, 0x75, 0x61, 0x6e, 0x74, 0x5f, 
  0x61, 0x76, 0x65, 0x72, 0x61, 0x67, 0x65, 0x5f, 0x70, 0x6f, 0x6f, 0x6c, 
  0x69, 0x6e, 0x67, 0x32, 0x64, 0x5f, 0x31, 0x2f, 0x4d, 0x6f, 0x76, 0x69, 
  0x6e, 0x67, 0x41, 0x76, 0x67, 0x51, 0x75, 0x61, 0x6e, 0x74, 0x69, 0x7a, 
  0x65, 0x2f, 0x46, 0x61, 0x6b, 0x65, 0x51, 0x75, 0x61, 0x6e, 0x74, 0x57, 
  0x69, 0x74, 0x68, 0x4d, 0x69, 0x6e, 0x4d, 0x61, 0x78, 0x56, 0x61, 0x72, 
  0x73, 0x00, 0x00, 0x00, 0x02, 0x00, 0x00, 0x00, 0x01, 0x00, 0x00, 0x00, 
  0x10, 0x00, 0x00, 0x00, 0xd2, 0xe3, 0xff, 0xff, 0x00, 0x00, 0x00, 0x01, 
  0x18, 0x00, 0x00, 0x00, 0x28, 0x00, 0x00, 0x00, 0x48, 0x00, 0x00, 0x00, 
  0x1d, 0x00, 0x00, 0x00, 0x00, 0x00, 0x00, 0x09, 0x78, 0x00, 0x00, 0x00, 
  0x04, 0x00, 0x00, 0x00, 0xff, 0xff, 0xff, 0xff, 0x01, 0x00, 0x00, 0x00, 
  0x04, 0x00, 0x00, 0x00, 0x04, 0x00, 0x00, 0x00, 0xbc, 0xe3, 0xff, 0xff, 
  0x08, 0x00, 0x00, 0x00, 0x14, 0x00, 0x00, 0x00, 0x01, 0x00, 0x00, 0x00, 
  0x92, 0xff, 0xff, 0xff, 0xff, 0xff, 0xff, 0xff, 0x00, 0x00, 0x00, 0x00, 
  0x01, 0x00, 0x00, 0x00, 0xa1, 0x04, 0xfc, 0x3c, 0x34, 0x00, 0x00, 0x00, 
  0x45, 0x45, 0x47, 0x4e, 0x65, 0x74, 0x5f, 0x46, 0x75, 0x6e, 0x63, 0x74, 
  0x69, 0x6f, 0x6e, 0x61, 0x6c, 0x2f, 0x71, 0x75, 0x61, 0x6e, 0x74, 0x5f, 
  0x61, 0x76, 0x65, 0x72, 0x61, 0x67, 0x65, 0x5f, 0x70, 0x6f, 0x6f, 0x6c, 
  0x69, 0x6e, 0x67, 0x32, 0x64, 0x5f, 0x31, 0x2f, 0x41, 0x76, 0x67, 0x50, 
  0x6f, 0x6f, 0x6c, 0x31, 0x00, 0x00, 0x00, 0x00, 0x04, 0x00, 0x00, 0x00, 
  0x01, 0x00, 0x00, 0x00, 0x01, 0x00, 0x00, 0x00, 0x04, 0x00, 0x00, 0x00, 
  0x04, 0x00, 0x00, 0x00, 0x7a, 0xe4, 0xff, 0xff, 0x00, 0x00, 0x00, 0x01, 
  0x18, 0x00, 0x00, 0x00, 0x28, 0x00, 0x00, 0x00, 0x44, 0x00, 0x00, 0x00, 
  0x1c, 0x00, 0x00, 0x00, 0x00, 0x00, 0x00, 0x09, 0x70, 0x00, 0x00, 0x00, 
  0x04, 0x00, 0x00, 0x00, 0xff, 0xff, 0xff, 0xff, 0x01, 0x00, 0x00, 0x00, 
  0x04, 0x00, 0x00, 0x00, 0x04, 0x00, 0x00, 0x00, 0x64, 0xe4, 0xff, 0xff, 
  0x08, 0x00, 0x00, 0x00, 0x10, 0x00, 0x00, 0x00, 0x01, 0x00, 0x00, 0x00, 
  0x8e, 0xff, 0xff, 0xff, 0xff, 0xff, 0xff, 0xff, 0x01, 0x00, 0x00, 0x00, 
  0xfa, 0x70, 0x1f, 0x3d, 0x33, 0x00, 0x00, 0x00, 0x45, 0x45, 0x47, 0x4e, 
  0x65, 0x74, 0x5f, 0x46, 0x75, 0x6e, 0x63, 0x74, 0x69, 0x6f, 0x6e, 0x61, 
  0x6c, 0x2f, 0x71, 0x75, 0x61, 0x6e, 0x74, 0x5f, 0x61, 0x76, 0x65, 0x72, 
  0x61, 0x67, 0x65, 0x5f, 0x70, 0x6f, 0x6f, 0x6c, 0x69, 0x6e, 0x67, 0x32, 
  0x64, 0x5f, 0x31, 0x2f, 0x41, 0x76, 0x67, 0x50, 0x6f, 0x6f, 0x6c, 0x00, 
  0x04, 0x00, 0x00, 0x00, 0x01, 0x00, 0x00, 0x00, 0x01, 0x00, 0x00, 0x00, 
  0x04, 0x00, 0x00, 0x00, 0x04, 0x00, 0x00, 0x00, 0x1a, 0xe5, 0xff, 0xff, 
  0x00, 0x00, 0x00, 0x01, 0x18, 0x00, 0x00, 0x00, 0x28, 0x00, 0x00, 0x00, 
  0x48, 0x00, 0x00, 0x00, 0x1b, 0x00, 0x00, 0x00, 0x00, 0x00, 0x00, 0x09, 
  0x38, 0x01, 0x00, 0x00, 0x04, 0x00, 0x00, 0x00, 0xff, 0xff, 0xff, 0xff, 
  0x01, 0x00, 0x00, 0x00, 0x20, 0x00, 0x00, 0x00, 0x04, 0x00, 0x00, 0x00, 
  0x04, 0xe5, 0xff, 0xff, 0x08, 0x00, 0x00, 0x00, 0x14, 0x00, 0x00, 0x00, 
  0x01, 0x00, 0x00, 0x00, 0x8e, 0xff, 0xff, 0xff, 0xff, 0xff, 0xff, 0xff, 
  0x00, 0x00, 0x00, 0x00, 0x01, 0x00, 0x00, 0x00, 0xfa, 0x70, 0x1f, 0x3d, 
  0xf5, 0x00, 0x00, 0x00, 0x45, 0x45, 0x47, 0x4e, 0x65, 0x74, 0x5f, 0x46, 
  0x75, 0x6e, 0x63, 0x74, 0x69, 0x6f, 0x6e, 0x61, 0x6c, 0x2f, 0x71, 0x75, 
  0x61, 0x6e, 0x74, 0x5f, 0x73, 0x65, 0x70, 0x5f, 0x68, 0x73, 0x77, 0x69, 
  0x73, 0x68, 0x2f, 0x6d, 0x75, 0x6c, 0x5f, 0x31, 0x3b, 0x45, 0x45, 0x47, 
  0x4e, 0x65, 0x74, 0x5f, 0x46, 0x75, 0x6e, 0x63, 0x74, 0x69, 0x6f, 0x6e, 
  0x61, 0x6c, 0x2f, 0x71, 0x75, 0x61, 0x6e, 0x74, 0x5f, 0x73, 0x65, 0x70, 
  0x5f, 0x68, 0x73, 0x77, 0x69, 0x73, 0x68, 0x2f, 0x43, 0x61, 0x73, 0x74, 
  0x2f, 0x78, 0x3b, 0x45, 0x45, 0x47, 0x4e, 0x65, 0x74, 0x5f, 0x46, 0x75, 
  0x6e, 0x63, 0x74, 0x69, 0x6f, 0x6e, 0x61, 0x6c, 0x2f, 0x71, 0x75, 0x61, 
  0x6e, 0x74, 0x5f, 0x73, 0x65, 0x70, 0x5f, 0x68, 0x73, 0x77, 0x69, 0x73, 
  0x68, 0x2f, 0x52, 0x65, 0x6c, 0x75, 0x36, 0x3b, 0x45, 0x45, 0x47, 0x4e, 
  0x65, 0x74, 0x5f, 0x46, 0x75, 0x6e, 0x63, 0x74, 0x69, 0x6f, 0x6e, 0x61, 
  0x6c, 0x2f, 0x71, 0x75, 0x61, 0x6e, 0x74, 0x5f, 0x73, 0x65, 0x70, 0x5f, 
  0x68, 0x73, 0x77, 0x69, 0x73, 0x68, 0x2f, 0x61, 0x64, 0x64, 0x3b, 0x45, 
  0x45, 0x47, 0x4e, 0x65, 0x74, 0x5f, 0x46, 0x75, 0x6e, 0x63, 0x74, 0x69, 
  0x6f, 0x6e, 0x61, 0x6c, 0x2f, 0x71, 0x75, 0x61, 0x6e, 0x74, 0x5f, 0x73, 
  0x65, 0x70, 0x5f, 0x68, 0x73, 0x77, 0x69, 0x73, 0x68, 0x2f, 0x6d, 0x75, 
  0x6c, 0x3b, 0x45, 0x45, 0x47, 0x4e, 0x65, 0x74, 0x5f, 0x46, 0x75, 0x6e, 
  0x63, 0x74, 0x69, 0x6f, 0x6e, 0x61, 0x6c, 0x2f, 0x71, 0x75, 0x61, 0x6e, 
  0x74, 0x5f, 0x73, 0x65, 0x70, 0x5f, 0x68, 0x73, 0x77, 0x69, 0x73, 0x68, 
  0x2f, 0x43, 0x61, 0x73, 0x74, 0x5f, 0x31, 0x2f, 0x78, 0x00, 0x00, 0x00, 
  0x04, 0x00, 0x00, 0x00, 0x01, 0x00, 0x00, 0x00, 0x01, 0x00, 0x00, 0x00, 
  0x20, 0x00, 0x00, 0x00, 0x04, 0x00, 0x00, 0x00, 0x82, 0xe6, 0xff, 0xff, 
  0x00, 0x00, 0x00, 0x01, 0x18, 0x00, 0x00, 0x00, 0x28, 0x00, 0x00, 0x00, 
  0x48, 0x00, 0x00, 0x00, 0x1a, 0x00, 0x00, 0x00, 0x00, 0x00, 0x00, 0x09, 
  0xb0, 0x00, 0x00, 0x00, 0x04, 0x00, 0x00, 0x00, 0xff, 0xff, 0xff, 0xff, 
  0x01, 0x00, 0x00, 0x00, 0x20, 0x00, 0x00, 0x00, 0x04, 0x00, 0x00, 0x00, 
  0x6c, 0xe6, 0xff, 0xff, 0x08, 0x00, 0x00, 0x00, 0x14, 0x00, 0x00, 0x00, 
  0x01, 0x00, 0x00, 0x00, 0xf0, 0xff, 0xff, 0xff, 0xff, 0xff, 0xff, 0xff, 
  0x00, 0x00, 0x00, 0x00, 0x01, 0x00, 0x00, 0x00, 0x5d, 0xcb, 0xf2, 0x3c, 
  0x6c, 0x00, 0x00, 0x00, 0x45, 0x45, 0x47, 0x4e, 0x65, 0x74, 0x5f, 0x46, 
  0x75, 0x6e, 0x63, 0x74, 0x69, 0x6f, 0x6e, 0x61, 0x6c, 0x2f, 0x62, 0x61, 
  0x74, 0x63, 0x68, 0x5f, 0x6e, 0x6f, 0x72, 0x6d, 0x61, 0x6c, 0x69, 0x7a, 
  0x61, 0x74, 0x69, 0x6f, 0x6e, 0x5f, 0x32, 0x2f, 0x46, 0x75, 0x73, 0x65, 
  0x64, 0x42, 0x61, 0x74, 0x63, 0x68, 0x4e, 0x6f, 0x72, 0x6d, 0x56, 0x33, 
  0x3b, 0x45, 0x45, 0x47, 0x4e, 0x65, 0x74, 0x5f, 0x46, 0x75, 0x6e, 0x63, 
  0x74, 0x69, 0x6f, 0x6e, 0x61, 0x6c, 0x2f, 0x73, 0x65, 0x70, 0x61, 0x72, 
  0x61, 0x62, 0x6c, 0x65, 0x5f, 0x63, 0x6f, 0x6e, 0x76, 0x32, 0x64, 0x2f, 
  0x73, 0x65, 0x70, 0x61, 0x72, 0x61, 0x62, 0x6c, 0x65, 0x5f, 0x63, 0x6f, 
  0x6e, 0x76, 0x32, 0x64, 0x00, 0x00, 0x00, 0x00, 0x04, 0x00, 0x00, 0x00, 
  0x01, 0x00, 0x00, 0x00, 0x01, 0x00, 0x00, 0x00, 0x20, 0x00, 0x00, 0x00, 
  0x04, 0x00, 0x00, 0x00, 0x62, 0xe7, 0xff, 0xff, 0x00, 0x00, 0x00, 0x01, 
  0x18, 0x00, 0x00, 0x00, 0x28, 0x00, 0x00, 0x00, 0x48, 0x00, 0x00, 0x00, 
  0x19, 0x00, 0x00, 0x00, 0x00, 0x00, 0x00, 0x09, 0x80, 0x00, 0x00, 0x00, 
  0x04, 0x00, 0x00, 0x00, 0xff, 0xff, 0xff, 0xff, 0x01, 0x00, 0x00, 0x00, 
  0x20, 0x00, 0x00, 0x00, 0x20, 0x00, 0x00, 0x00, 0x4c, 0xe7, 0xff, 0xff, 
  0x08, 0x00, 0x00, 0x00, 0x14, 0x00, 0x00, 0x00, 0x01, 0x00, 0x00, 0x00, 
  0x13, 0x00, 0x00, 0x00, 0x00, 0x00, 0x00, 0x00, 0x00, 0x00, 0x00, 0x00, 
  0x01, 0x00, 0x00, 0x00, 0x4c, 0x9f, 0x69, 0x3c, 0x3f, 0x00, 0x00, 0x00, 
  0x45, 0x45, 0x47, 0x4e, 0x65, 0x74, 0x5f, 0x46, 0x75, 0x6e, 0x63, 0x74, 
  0x69, 0x6f, 0x6e, 0x61, 0x6c, 0x2f, 0x73, 0x65, 0x70, 0x61, 0x72, 0x61, 
  0x62, 0x6c, 0x65, 0x5f, 0x63, 0x6f, 0x6e, 0x76, 0x32, 0x64, 0x2f, 0x73, 
  0x65, 0x70, 0x61, 0x72, 0x61, 0x62, 0x6c, 0x65, 0x5f, 0x63, 0x6f, 0x6e, 
  0x76, 0x32, 0x64, 0x2f, 0x64, 0x65, 0x70, 0x74, 0x68, 0x77, 0x69, 0x73, 
  0x65, 0x32, 0x31, 0x00, 0x04, 0x00, 0x00, 0x00, 0x01, 0x00, 0x00, 0x00, 
  0x01, 0x00, 0x00, 0x00, 0x20, 0x00, 0x00, 0x00, 0x20, 0x00, 0x00, 0x00, 
  0x12, 0xe8, 0xff, 0xff, 0x00, 0x00, 0x00, 0x01, 0x18, 0x00, 0x00, 0x00, 
  0x28, 0x00, 0x00, 0x00, 0x44, 0x00, 0x00, 0x00, 0x18, 0x00, 0x00, 0x00, 
  0x00, 0x00, 0x00, 0x09, 0x58, 0x01, 0x00, 0x00, 0x04, 0x00, 0x00, 0x00, 
  0xff, 0xff, 0xff, 0xff, 0x01, 0x00, 0x00, 0x00, 0x20, 0x00, 0x00, 0x00, 
  0x20, 0x00, 0x00, 0x00, 0xfc, 0xe7, 0xff, 0xff, 0x08, 0x00, 0x00, 0x00, 
  0x10, 0x00, 0x00, 0x00, 0x01, 0x00, 0x00, 0x00, 0x92, 0xff, 0xff, 0xff, 
  0xff, 0xff, 0xff, 0xff, 0x01, 0x00, 0x00, 0x00, 0xdb, 0xc9, 0xf2, 0x3c, 
  0x1b, 0x01, 0x00, 0x00, 0x45, 0x45, 0x47, 0x4e, 0x65, 0x74, 0x5f, 0x46, 
  0x75, 0x6e, 0x63, 0x74, 0x69, 0x6f, 0x6e, 0x61, 0x6c, 0x2f, 0x71, 0x75, 
  0x61, 0x6e, 0x74, 0x5f, 0x61, 0x76, 0x65, 0x72, 0x61, 0x67, 0x65, 0x5f, 
  0x70, 0x6f, 0x6f, 0x6c, 0x69, 0x6e, 0x67, 0x32, 0x64, 0x2f, 0x4d, 0x6f, 
  0x76, 0x69, 0x6e, 0x67, 0x41, 0x76, 0x67, 0x51, 0x75, 0x61, 0x6e, 0x74, 
  0x69, 0x7a, 0x65, 0x2f, 0x46, 0x61, 0x6b, 0x65, 0x51, 0x75, 0x61, 0x6e, 
  0x74, 0x57, 0x69, 0x74, 0x68, 0x4d, 0x69, 0x6e, 0x4d, 0x61, 0x78, 0x56, 
  0x61, 0x72, 0x73, 0x3b, 0x45, 0x45, 0x47, 0x4e, 0x65, 0x74, 0x5f, 0x46, 
  0x75, 0x6e, 0x63, 0x74, 0x69, 0x6f, 0x6e, 0x61, 0x6c, 0x2f, 0x71, 0x75, 
  0x61, 0x6e, 0x74, 0x5f, 0x61, 0x76, 0x65, 0x72, 0x61, 0x67, 0x65, 0x5f, 
  0x70, 0x6f, 0x6f, 0x6c, 0x69, 0x6e, 0x67, 0x32, 0x64, 0x2f, 0x4d, 0x6f, 
  0x76, 0x69, 0x6e, 0x67, 0x41, 0x76, 0x67, 0x51, 0x75, 0x61, 0x6e, 0x74, 
  0x69, 0x7a, 0x65, 0x2f, 0x46, 0x61, 0x6b, 0x65, 0x51, 0x75, 0x61, 0x6e, 
  0x74, 0x57, 0x69, 0x74, 0x68, 0x4d, 0x69, 0x6e, 0x4d, 0x61, 0x78, 0x56, 
  0x61, 0x72, 0x73, 0x2f, 0x52, 0x65, 0x61, 0x64, 0x56, 0x61, 0x72, 0x69, 
  0x61, 0x62, 0x6c, 0x65, 0x4f, 0x70, 0x3b, 0x45, 0x45, 0x47, 0x4e, 0x65, 
  0x74, 0x5f, 0x46, 0x75, 0x6e, 0x63, 0x74, 0x69, 0x6f, 0x6e, 0x61, 0x6c, 
  0x2f, 0x71, 0x75, 0x61, 0x6e, 0x74, 0x5f, 0x61, 0x76, 0x65, 0x72, 0x61, 
  0x67, 0x65, 0x5f, 0x70, 0x6f, 0x6f, 0x6c, 0x69, 0x6e, 0x67, 0x32, 0x64, 
  0x2f, 0x4d, 0x6f, 0x76, 0x69, 0x6e, 0x67, 0x41, 0x76, 0x67, 0x51, 0x75, 
  0x61, 0x6e, 0x74, 0x69, 0x7a, 0x65, 0x2f, 0x46, 0x61, 0x6b, 0x65, 0x51, 
  0x75, 0x61, 0x6e, 0x74, 0x57, 0x69, 0x74, 0x68, 0x4d, 0x69, 0x6e, 0x4d, 
  0x61, 0x78, 0x56, 0x61, 0x72, 0x73, 0x2f, 0x52, 0x65, 0x61, 0x64, 0x56, 
  0x61, 0x72, 0x69, 0x61, 0x62, 0x6c, 0x65, 0x4f, 0x70, 0x5f, 0x31, 0x00, 
  0x04, 0x00, 0x00, 0x00, 0x01, 0x00, 0x00, 0x00, 0x01, 0x00, 0x00, 0x00, 
  0x20, 0x00, 0x00, 0x00, 0x20, 0x00, 0x00, 0x00, 0x9a, 0xe9, 0xff, 0xff, 
  0x00, 0x00, 0x00, 0x01, 0x18, 0x00, 0x00, 0x00, 0x28, 0x00, 0x00, 0x00, 
  0x44, 0x00, 0x00, 0x00, 0x17, 0x00, 0x00, 0x00, 0x00, 0x00, 0x00, 0x09, 
  0x70, 0x00, 0x00, 0x00, 0x04, 0x00, 0x00, 0x00, 0xff, 0xff, 0xff, 0xff, 
  0x01, 0x00, 0x00, 0x00, 0x20, 0x00, 0x00, 0x00, 0x20, 0x00, 0x00, 0x00, 
  0x84, 0xe9, 0xff, 0xff, 0x08, 0x00, 0x00, 0x00, 0x10, 0x00, 0x00, 0x00, 
  0x01, 0x00, 0x00, 0x00, 0x89, 0xff, 0xff, 0xff, 0xff, 0xff, 0xff, 0xff, 
  0x01, 0x00, 0x00, 0x00, 0x39, 0x8d, 0x65, 0x3d, 0x31, 0x00, 0x00, 0x00, 
  0x45, 0x45, 0x47, 0x4e, 0x65, 0x74, 0x5f, 0x46, 0x75, 0x6e, 0x63, 0x74, 
  0x69, 0x6f, 0x6e, 0x61, 0x6c, 0x2f, 0x71, 0x75, 0x61, 0x6e, 0x74, 0x5f, 
  0x61, 0x76, 0x65, 0x72, 0x61, 0x67, 0x65, 0x5f, 0x70, 0x6f, 0x6f, 0x6c, 
  0x69, 0x6e, 0x67, 0x32, 0x64, 0x2f, 0x41, 0x76, 0x67, 0x50, 0x6f, 0x6f, 
  0x6c, 0x00, 0x00, 0x00, 0x04, 0x00, 0x00, 0x00, 0x01, 0x00, 0x00, 0x00, 
  0x01, 0x00, 0x00, 0x00, 0x20, 0x00, 0x00, 0x00, 0x20, 0x00, 0x00, 0x00, 
  0x3a, 0xea, 0xff, 0xff, 0x00, 0x00, 0x00, 0x01, 0x18, 0x00, 0x00, 0x00, 
  0x28, 0x00, 0x00, 0x00, 0x48, 0x00, 0x00, 0x00, 0x16, 0x00, 0x00, 0x00, 
  0x00, 0x00, 0x00, 0x09, 0x48, 0x01, 0x00, 0x00, 0x04, 0x00, 0x00, 0x00, 
  0xff, 0xff, 0xff, 0xff, 0x01, 0x00, 0x00, 0x00, 0x80, 0x00, 0x00, 0x00, 
  0x20, 0x00, 0x00, 0x00, 0x24, 0xea, 0xff, 0xff, 0x08, 0x00, 0x00, 0x00, 
  0x14, 0x00, 0x00, 0x00, 0x01, 0x00, 0x00, 0x00, 0x89, 0xff, 0xff, 0xff, 
  0xff, 0xff, 0xff, 0xff, 0x00, 0x00, 0x00, 0x00, 0x01, 0x00, 0x00, 0x00, 
  0x39, 0x8d, 0x65, 0x3d, 0x05, 0x01, 0x00, 0x00, 0x45, 0x45, 0x47, 0x4e, 
  0x65, 0x74, 0x5f, 0x46, 0x75, 0x6e, 0x63, 0x74, 0x69, 0x6f, 0x6e, 0x61, 
  0x6c, 0x2f, 0x71, 0x75, 0x61, 0x6e, 0x74, 0x5f, 0x73, 0x70, 0x61, 0x74, 
  0x69, 0x61, 0x6c, 0x5f, 0x68, 0x73, 0x77, 0x69, 0x73, 0x68, 0x2f, 0x6d, 
  0x75, 0x6c, 0x5f, 0x31, 0x3b, 0x45, 0x45, 0x47, 0x4e, 0x65, 0x74, 0x5f, 
  0x46, 0x75, 0x6e, 0x63, 0x74, 0x69, 0x6f, 0x6e, 0x61, 0x6c, 0x2f, 0x71, 
  0x75, 0x61, 0x6e, 0x74, 0x5f, 0x73, 0x65, 0x70, 0x5f, 0x68, 0x73, 0x77, 
  0x69, 0x73, 0x68, 0x2f, 0x43, 0x61, 0x73, 0x74, 0x2f, 0x78, 0x3b, 0x45, 
  0x45, 0x47, 0x4e, 0x65, 0x74, 0x5f, 0x46, 0x75, 0x6e, 0x63, 0x74, 0x69, 
  0x6f, 0x6e, 0x61, 0x6c, 0x2f, 0x71, 0x75, 0x61, 0x6e, 0x74, 0x5f, 0x73, 
  0x70, 0x61, 0x74, 0x69, 0x61, 0x6c, 0x5f, 0x68, 0x73, 0x77, 0x69, 0x73, 
  0x68, 0x2f, 0x52, 0x65, 0x6c, 0x75, 0x36, 0x3b, 0x45, 0x45, 0x47, 0x4e, 
  0x65, 0x74, 0x5f, 0x46, 0x75, 0x6e, 0x63, 0x74, 0x69, 0x6f, 0x6e, 0x61, 
  0x6c, 0x2f, 0x71, 0x75, 0x61, 0x6e, 0x74, 0x5f, 0x73, 0x70, 0x61, 0x74, 
  0x69, 0x61, 0x6c, 0x5f, 0x68, 0x73, 0x77, 0x69, 0x73, 0x68, 0x2f, 0x61, 
  0x64, 0x64, 0x3b, 0x45, 0x45, 0x47, 0x4e, 0x65, 0x74, 0x5f, 0x46, 0x75, 
  0x6e, 0x63, 0x74, 0x69, 0x6f, 0x6e, 0x61, 0x6c, 0x2f, 0x71, 0x75, 0x61, 
  0x6e, 0x74, 0x5f, 0x73, 0x70, 0x61, 0x74, 0x69, 0x61, 0x6c, 0x5f, 0x68, 
  0x73, 0x77, 0x69, 0x73, 0x68, 0x2f, 0x6d, 0x75, 0x6c, 0x3b, 0x45, 0x45, 
  0x47, 0x4e, 0x65, 0x74, 0x5f, 0x46, 0x75, 0x6e, 0x63, 0x74, 0x69, 0x6f, 
  0x6e, 0x61, 0x6c, 0x2f, 0x71, 0x75, 0x61, 0x6e, 0x74, 0x5f, 0x73, 0x65, 
  0x70, 0x5f, 0x68, 0x73, 0x77, 0x69, 0x73, 0x68, 0x2f, 0x43, 0x61, 0x73, 
  0x74, 0x5f, 0x31, 0x2f, 0x78, 0x00, 0x00, 0x00, 0x04, 0x00, 0x00, 0x00, 
  0x01, 0x00, 0x00, 0x00, 0x01, 0x00, 0x00, 0x00, 0x80, 0x00, 0x00, 0x00, 
  0x20, 0x00, 0x00, 0x00, 0xb2, 0xeb, 0xff, 0xff, 0x00, 0x00, 0x00, 0x01, 
  0x18, 0x00, 0x00, 0x00, 0x28, 0x00, 0x00, 0x00, 0x44, 0x00, 0x00, 0x00, 
  0x15, 0x00, 0x00, 0x00, 0x00, 0x00, 0x00, 0x09, 0x78, 0x00, 0x00, 0x00, 
  0x04, 0x00, 0x00, 0x00, 0xff, 0xff, 0xff, 0xff, 0x01, 0x00, 0x00, 0x00, 
  0x80, 0x00, 0x00, 0x00, 0x20, 0x00, 0x00, 0x00, 0x9c, 0xeb, 0xff, 0xff, 
  0x08, 0x00, 0x00, 0x00, 0x10, 0x00, 0x00, 0x00, 0x01, 0x00, 0x00, 0x00, 
  0xff, 0xff, 0xff, 0xff, 0xff, 0xff, 0xff, 0xff, 0x01, 0x00, 0x00, 0x00, 
  0xcc, 0xa7, 0xad, 0x3d, 0x39, 0x00, 0x00, 0x00, 0x45, 0x45, 0x47, 0x4e, 
  0x65, 0x74, 0x5f, 0x46, 0x75, 0x6e, 0x63, 0x74, 0x69, 0x6f, 0x6e, 0x61, 
  0x6c, 0x2f, 0x62, 0x61, 0x74, 0x63, 0x68, 0x5f, 0x6e, 0x6f, 0x72, 0x6d, 
  0x61, 0x6c, 0x69, 0x7a, 0x61, 0x74, 0x69, 0x6f, 0x6e, 0x5f, 0x31, 0x2f, 
  0x46, 0x75, 0x73, 0x65, 0x64, 0x42, 0x61, 0x74, 0x63, 0x68, 0x4e, 0x6f, 
  0x72, 0x6d, 0x56, 0x33, 0x33, 0x00, 0x00, 0x00, 0x04, 0x00, 0x00, 0x00, 
  0x01, 0x00, 0x00, 0x00, 0x01, 0x00, 0x00, 0x00, 0x80, 0x00, 0x00, 0x00, 
  0x20, 0x00, 0x00, 0x00, 0x5a, 0xec, 0xff, 0xff, 0x00, 0x00, 0x00, 0x01, 
  0x18, 0x00, 0x00, 0x00, 0x28, 0x00, 0x00, 0x00, 0x44, 0x00, 0x00, 0x00, 
  0x14, 0x00, 0x00, 0x00, 0x00, 0x00, 0x00, 0x09, 0x78, 0x00, 0x00, 0x00, 
  0x04, 0x00, 0x00, 0x00, 0xff, 0xff, 0xff, 0xff, 0x01, 0x00, 0x00, 0x00, 
  0x80, 0x00, 0x00, 0x00, 0x20, 0x00, 0x00, 0x00, 0x44, 0xec, 0xff, 0xff, 
  0x08, 0x00, 0x00, 0x00, 0x10, 0x00, 0x00, 0x00, 0x01, 0x00, 0x00, 0x00, 
  0xfe, 0xff, 0xff, 0xff, 0xff, 0xff, 0xff, 0xff, 0x01, 0x00, 0x00, 0x00, 
  0x9f, 0xf2, 0xad, 0x3d, 0x39, 0x00, 0x00, 0x00, 0x45, 0x45, 0x47, 0x4e, 
  0x65, 0x74, 0x5f, 0x46, 0x75, 0x6e, 0x63, 0x74, 0x69, 0x6f, 0x6e, 0x61, 
  0x6c, 0x2f, 0x62, 0x61, 0x74, 0x63, 0x68, 0x5f, 0x6e, 0x6f, 0x72, 0x6d, 
  0x61, 0x6c, 0x69, 0x7a, 0x61, 0x74, 0x69, 0x6f, 0x6e, 0x5f, 0x31, 0x2f, 
  0x46, 0x75, 0x73, 0x65, 0x64, 0x42, 0x61, 0x74, 0x63, 0x68, 0x4e, 0x6f, 
  0x72, 0x6d, 0x56, 0x33, 0x32, 0x00, 0x00, 0x00, 0x04, 0x00, 0x00, 0x00, 
  0x01, 0x00, 0x00, 0x00, 0x01, 0x00, 0x00, 0x00, 0x80, 0x00, 0x00, 0x00, 
  0x20, 0x00, 0x00, 0x00, 0x02, 0xed, 0xff, 0xff, 0x00, 0x00, 0x00, 0x01, 
  0x18, 0x00, 0x00, 0x00, 0x28, 0x00, 0x00, 0x00, 0x44, 0x00, 0x00, 0x00, 
  0x13, 0x00, 0x00, 0x00, 0x00, 0x00, 0x00, 0x09, 0x70, 0x00, 0x00, 0x00, 
  0x04, 0x00, 0x00, 0x00, 0xff, 0xff, 0xff, 0xff, 0x01, 0x00, 0x00, 0x00, 
  0x80, 0x00, 0x00, 0x00, 0x20, 0x00, 0x00, 0x00, 0xec, 0xec, 0xff, 0xff, 
  0x08, 0x00, 0x00, 0x00, 0x10, 0x00, 0x00, 0x00, 0x01, 0x00, 0x00, 0x00, 
  0xff, 0xff, 0xff, 0xff, 0xff, 0xff, 0xff, 0xff, 0x01, 0x00, 0x00, 0x00, 
  0x74, 0x1b, 0x01, 0x3d, 0x32, 0x00, 0x00, 0x00, 0x45, 0x45, 0x47, 0x4e, 
  0x65, 0x74, 0x5f, 0x46, 0x75, 0x6e, 0x63, 0x74, 0x69, 0x6f, 0x6e, 0x61, 
  0x6c, 0x2f, 0x71, 0x75, 0x61, 0x6e, 0x74, 0x5f, 0x64, 0x65, 0x70, 0x74, 
  0x68, 0x77, 0x69, 0x73, 0x65, 0x5f, 0x63, 0x6f, 0x6e, 0x76, 0x32, 0x64, 
  0x2f, 0x64, 0x65, 0x70, 0x74, 0x68, 0x77, 0x69, 0x73, 0x65, 0x00, 0x00, 
  0x04, 0x00, 0x00, 0x00, 0x01, 0x00, 0x00, 0x00, 0x01, 0x00, 0x00, 0x00, 
  0x80, 0x00, 0x00, 0x00, 0x20, 0x00, 0x00, 0x00, 0xa2, 0xed, 0xff, 0xff, 
  0x00, 0x00, 0x00, 0x01, 0x18, 0x00, 0x00, 0x00, 0x28, 0x00, 0x00, 0x00, 
  0x48, 0x00, 0x00, 0x00, 0x12, 0x00, 0x00, 0x00, 0x00, 0x00, 0x00, 0x09, 
  0x78, 0x00, 0x00, 0x00, 0x04, 0x00, 0x00, 0x00, 0xff, 0xff, 0xff, 0xff, 
  0x10, 0x00, 0x00, 0x00, 0x80, 0x00, 0x00, 0x00, 0x10, 0x00, 0x00, 0x00, 
  0x8c, 0xed, 0xff, 0xff, 0x08, 0x00, 0x00, 0x00, 0x14, 0x00, 0x00, 0x00, 
  0x01, 0x00, 0x00, 0x00, 0x01, 0x00, 0x00, 0x00, 0x00, 0x00, 0x00, 0x00, 
  0x00, 0x00, 0x00, 0x00, 0x01, 0x00, 0x00, 0x00, 0x7a, 0x36, 0xa3, 0x3d, 
  0x37, 0x00, 0x00, 0x00, 0x45, 0x45, 0x47, 0x4e, 0x65, 0x74, 0x5f, 0x46, 
  0x75, 0x6e, 0x63, 0x74, 0x69, 0x6f, 0x6e, 0x61, 0x6c, 0x2f, 0x62, 0x61, 
  0x74, 0x63, 0x68, 0x5f, 0x6e, 0x6f, 0x72, 0x6d, 0x61, 0x6c, 0x69, 0x7a, 
  0x61, 0x74, 0x69, 0x6f, 0x6e, 0x2f, 0x46, 0x75, 0x73, 0x65, 0x64, 0x42, 
  0x61, 0x74, 0x63, 0x68, 0x4e, 0x6f, 0x72, 0x6d, 0x56, 0x33, 0x33, 0x00, 
  0x04, 0x00, 0x00, 0x00, 0x01, 0x00, 0x00, 0x00, 0x10, 0x00, 0x00, 0x00, 
  0x80, 0x00, 0x00, 0x00, 0x10, 0x00, 0x00, 0x00, 0x4a, 0xee, 0xff, 0xff, 
  0x00, 0x00, 0x00, 0x01, 0x18, 0x00, 0x00, 0x00, 0x28, 0x00, 0x00, 0x00, 
  0x48, 0x00, 0x00, 0x00, 0x11, 0x00, 0x00, 0x00, 0x00, 0x00, 0x00, 0x09, 
  0x78, 0x00, 0x00, 0x00, 0x04, 0x00, 0x00, 0x00, 0xff, 0xff, 0xff, 0xff, 
  0x10, 0x00, 0x00, 0x00, 0x80, 0x00, 0x00, 0x00, 0x10, 0x00, 0x00, 0x00, 
  0x34, 0xee, 0xff, 0xff, 0x08, 0x00, 0x00, 0x00, 0x14, 0x00, 0x00, 0x00, 
  0x01, 0x00, 0x00, 0x00, 0x01, 0x00, 0x00, 0x00, 0x00, 0x00, 0x00, 0x00, 
  0x00, 0x00, 0x00, 0x00, 0x01, 0x00, 0x00, 0x00, 0xa2, 0x91, 0xa3, 0x3d, 
  0x37, 0x00, 0x00, 0x00, 0x45, 0x45, 0x47, 0x4e, 0x65, 0x74, 0x5f, 0x46, 
  0x75, 0x6e, 0x63, 0x74, 0x69, 0x6f, 0x6e, 0x61, 0x6c, 0x2f, 0x62, 0x61, 
  0x74, 0x63, 0x68, 0x5f, 0x6e, 0x6f, 0x72, 0x6d, 0x61, 0x6c, 0x69, 0x7a, 
  0x61, 0x74, 0x69, 0x6f, 0x6e, 0x2f, 0x46, 0x75, 0x73, 0x65, 0x64, 0x42, 
  0x61, 0x74, 0x63, 0x68, 0x4e, 0x6f, 0x72, 0x6d, 0x56, 0x33, 0x32, 0x00, 
  0x04, 0x00, 0x00, 0x00, 0x01, 0x00, 0x00, 0x00, 0x10, 0x00, 0x00, 0x00, 
  0x80, 0x00, 0x00, 0x00, 0x10, 0x00, 0x00, 0x00, 0xf2, 0xee, 0xff, 0xff, 
  0x00, 0x00, 0x00, 0x01, 0x18, 0x00, 0x00, 0x00, 0x28, 0x00, 0x00, 0x00, 
  0x48, 0x00, 0x00, 0x00, 0x10, 0x00, 0x00, 0x00, 0x00, 0x00, 0x00, 0x09, 
  0x68, 0x00, 0x00, 0x00, 0x04, 0x00, 0x00, 0x00, 0xff, 0xff, 0xff, 0xff, 
  0x10, 0x00, 0x00, 0x00, 0x80, 0x00, 0x00, 0x00, 0x10, 0x00, 0x00, 0x00, 
  0xdc, 0xee, 0xff, 0xff, 0x08, 0x00, 0x00, 0x00, 0x14, 0x00, 0x00, 0x00, 
  0x01, 0x00, 0x00, 0x00, 0xff, 0xff, 0xff, 0xff, 0xff, 0xff, 0xff, 0xff, 
  0x00, 0x00, 0x00, 0x00, 0x01, 0x00, 0x00, 0x00, 0x58, 0xa5, 0x9d, 0x3c, 
  0x26, 0x00, 0x00, 0x00, 0x45, 0x45, 0x47, 0x4e, 0x65, 0x74, 0x5f, 0x46, 
  0x75, 0x6e, 0x63, 0x74, 0x69, 0x6f, 0x6e, 0x61, 0x6c, 0x2f, 0x71, 0x75, 
  0x61, 0x6e, 0x74, 0x5f, 0x63, 0x6f, 0x6e, 0x76, 0x32, 0x64, 0x2f, 0x43, 
  0x6f, 0x6e, 0x76, 0x32, 0x44, 0x31, 0x00, 0x00, 0x04, 0x00, 0x00, 0x00, 
  0x01, 0x00, 0x00, 0x00, 0x10, 0x00, 0x00, 0x00, 0x80, 0x00, 0x00, 0x00, 
  0x10, 0x00, 0x00, 0x00, 0xfa, 0xef, 0xff, 0xff, 0x00, 0x00, 0x00, 0x01, 
  0x14, 0x00, 0x00, 0x00, 0xe8, 0x00, 0x00, 0x00, 0x0f, 0x00, 0x00, 0x00, 
  0x00, 0x00, 0x00, 0x02, 0x08, 0x01, 0x00, 0x00, 0x5c, 0xef, 0xff, 0xff, 
  0x08, 0x00, 0x00, 0x00, 0x8c, 0x00, 0x00, 0x00, 0x10, 0x00, 0x00, 0x00, 
  0x00, 0x00, 0x00, 0x00, 0x00, 0x00, 0x00, 0x00, 0x00, 0x00, 0x00, 0x00, 
  0x00, 0x00, 0x00, 0x00, 0x00, 0x00, 0x00, 0x00, 0x00, 0x00, 0x00, 0x00, 
  0x00, 0x00, 0x00, 0x00, 0x00, 0x00, 0x00, 0x00, 0x00, 0x00, 0x00, 0x00, 
  0x00, 0x00, 0x00, 0x00, 0x00, 0x00, 0x00, 0x00, 0x00, 0x00, 0x00, 0x00, 
  0x00, 0x00, 0x00, 0x00, 0x00, 0x00, 0x00, 0x00, 0x00, 0x00, 0x00, 0x00, 
  0x00, 0x00, 0x00, 0x00, 0x00, 0x00, 0x00, 0x00, 0x00, 0x00, 0x00, 0x00, 
  0x00, 0x00, 0x00, 0x00, 0x00, 0x00, 0x00, 0x00, 0x00, 0x00, 0x00, 0x00, 
  0x00, 0x00, 0x00, 0x00, 0x00, 0x00, 0x00, 0x00, 0x00, 0x00, 0x00, 0x00, 
  0x00, 0x00, 0x00, 0x00, 0x00, 0x00, 0x00, 0x00, 0x00, 0x00, 0x00, 0x00, 
  0x00, 0x00, 0x00, 0x00, 0x00, 0x00, 0x00, 0x00, 0x00, 0x00, 0x00, 0x00, 
  0x00, 0x00, 0x00, 0x00, 0x00, 0x00, 0x00, 0x00, 0x00, 0x00, 0x00, 0x00, 
  0x10, 0x00, 0x00, 0x00, 0x2c, 0x70, 0x83, 0x38, 0xf8, 0xff, 0x88, 0x38, 
  0x9b, 0x10, 0x95, 0x38, 0xc4, 0xef, 0x8b, 0x38, 0xd0, 0x11, 0x8d, 0x38, 
  0xf7, 0xdd, 0x95, 0x38, 0xb1, 0xdb, 0x81, 0x38, 0x05, 0xcb, 0xa0, 0x38, 
  0xc1, 0xfc, 0x83, 0x38, 0xa4, 0x9d, 0x86, 0x38, 0xf9, 0x08, 0xa5, 0x38, 
  0xf8, 0xf2, 0x8a, 0x38, 0x46, 0xff, 0x94, 0x38, 0xe2, 0xc0, 0xa4, 0x38, 
  0xe1, 0xc8, 0xab, 0x38, 0xde, 0x21, 0xa8, 0x38, 0x25, 0x00, 0x00, 0x00, 
  0x45, 0x45, 0x47, 0x4e, 0x65, 0x74, 0x5f, 0x46, 0x75, 0x6e, 0x63, 0x74, 
  0x69, 0x6f, 0x6e, 0x61, 0x6c, 0x2f, 0x71, 0x75, 0x61, 0x6e, 0x74, 0x5f, 
  0x63, 0x6f, 0x6e, 0x76, 0x32, 0x64, 0x2f, 0x43, 0x6f, 0x6e, 0x76, 0x32, 
  0x44, 0x00, 0x00, 0x00, 0x01, 0x00, 0x00, 0x00, 0x10, 0x00, 0x00, 0x00, 
  0x22, 0xf1, 0xff, 0xff, 0x00, 0x00, 0x00, 0x01, 0x14, 0x00, 0x00, 0x00, 
  0xe4, 0x00, 0x00, 0x00, 0x0e, 0x00, 0x00, 0x00, 0x00, 0x00, 0x00, 0x09, 
  0x54, 0x01, 0x00, 0x00, 0x84, 0xf0, 0xff, 0xff, 0x08, 0x00, 0x00, 0x00, 
  0x88, 0x00, 0x00, 0x00, 0x10, 0x00, 0x00, 0x00, 0x00, 0x00, 0x00, 0x00, 
  0x00, 0x00, 0x00, 0x00, 0x00, 0x00, 0x00, 0x00, 0x00, 0x00, 0x00, 0x00, 
  0x00, 0x00, 0x00, 0x00, 0x00, 0x00, 0x00, 0x00, 0x00, 0x00, 0x00, 0x00, 
  0x00, 0x00, 0x00, 0x00, 0x00, 0x00, 0x00, 0x00, 0x00, 0x00, 0x00, 0x00, 
  0x00, 0x00, 0x00, 0x00, 0x00, 0x00, 0x00, 0x00, 0x00, 0x00, 0x00, 0x00, 
  0x00, 0x00, 0x00, 0x00, 0x00, 0x00, 0x00, 0x00, 0x00, 0x00, 0x00, 0x00, 
  0x00, 0x00, 0x00, 0x00, 0x00, 0x00, 0x00, 0x00, 0x00, 0x00, 0x00, 0x00, 
  0x00, 0x00, 0x00, 0x00, 0x00, 0x00, 0x00, 0x00, 0x00, 0x00, 0x00, 0x00, 
  0x00, 0x00, 0x00, 0x00, 0x00, 0x00, 0x00, 0x00, 0x00, 0x00, 0x00, 0x00, 
  0x00, 0x00, 0x00, 0x00, 0x00, 0x00, 0x00, 0x00, 0x00, 0x00, 0x00, 0x00, 
  0x00, 0x00, 0x00, 0x00, 0x00, 0x00, 0x00, 0x00, 0x00, 0x00, 0x00, 0x00, 
  0x00, 0x00, 0x00, 0x00, 0x10, 0x00, 0x00, 0x00, 0x98, 0xa6, 0x3d, 0x3a, 
  0xfa, 0xac, 0x45, 0x3a, 0x8a, 0x15, 0x57, 0x3a, 0xbc, 0xe9, 0x49, 0x3a, 
  0x3d, 0x8c, 0x4b, 0x3a, 0xda, 0x3d, 0x58, 0x3a, 0xfa, 0x5e, 0x3b, 0x3a, 
  0xb0, 0x01, 0x68, 0x3a, 0x71, 0x71, 0x3e, 0x3a, 0x57, 0x3c, 0x42, 0x3a, 
  0x99, 0x20, 0x6e, 0x3a, 0xfa, 0x7c, 0x48, 0x3a, 0x87, 0xfc, 0x56, 0x3a, 
  0x95, 0xb8, 0x6d, 0x3a, 0xc7, 0xdd, 0x77, 0x3a, 0xa8, 0x98, 0x72, 0x3a, 
  0x75, 0x00, 0x00, 0x00, 0x45, 0x45, 0x47, 0x4e, 0x65, 0x74, 0x5f, 0x46, 
  0x75, 0x6e, 0x63, 0x74, 0x69, 0x6f, 0x6e, 0x61, 0x6c, 0x2f, 0x71, 0x75, 
  0x61, 0x6e, 0x74, 0x5f, 0x63, 0x6f, 0x6e, 0x76, 0x32, 0x64, 0x2f, 0x43, 
  0x6f, 0x6e, 0x76, 0x32, 0x44, 0x3b, 0x45, 0x45, 0x47, 0x4e, 0x65, 0x74, 
  0x5f, 0x46, 0x75, 0x6e, 0x63, 0x74, 0x69, 0x6f, 0x6e, 0x61, 0x6c, 0x2f, 
  0x71, 0x75, 0x61, 0x6e, 0x74, 0x5f, 0x63, 0x6f, 0x6e, 0x76, 0x32, 0x64, 
  0x2f, 0x4c, 0x61, 0x73, 0x74, 0x56, 0x61, 0x6c, 0x75, 0x65, 0x51, 0x75, 
  0x61, 0x6e, 0x74, 0x2f, 0x46, 0x61, 0x6b, 0x65, 0x51, 0x75, 0x61, 0x6e, 
  0x74, 0x57, 0x69, 0x74, 0x68, 0x4d, 0x69, 0x6e, 0x4d, 0x61, 0x78, 0x56, 
  0x61, 0x72, 0x73, 0x50, 0x65, 0x72, 0x43, 0x68, 0x61, 0x6e, 0x6e, 0x65, 
  0x6c, 0x00, 0x00, 0x00, 0x04, 0x00, 0x00, 0x00, 0x10, 0x00, 0x00, 0x00, 
  0x01, 0x00, 0x00, 0x00, 0x40, 0x00, 0x00, 0x00, 0x01, 0x00, 0x00, 0x00, 
  0x32, 0xf2, 0xff, 0xff, 0x00, 0x00, 0x00, 0x01, 0x18, 0x00, 0x00, 0x00, 
  0x28, 0x00, 0x00, 0x00, 0x44, 0x00, 0x00, 0x00, 0x0d, 0x00, 0x00, 0x00, 
  0x00, 0x00, 0x00, 0x09, 0x40, 0x01, 0x00, 0x00, 0x04, 0x00, 0x00, 0x00, 
  0xff, 0xff, 0xff, 0xff, 0x10, 0x00, 0x00, 0x00, 0x80, 0x00, 0x00, 0x00, 
  0x01, 0x00, 0x00, 0x00, 0x1c, 0xf2, 0xff, 0xff, 0x08, 0x00, 0x00, 0x00, 
  0x10, 0x00, 0x00, 0x00, 0x01, 0x00, 0x00, 0x00, 0x00, 0x00, 0x00, 0x00, 
  0x00, 0x00, 0x00, 0x00, 0x01, 0x00, 0x00, 0x00, 0xf8, 0x6b, 0xb1, 0x3d, 
  0x00, 0x01, 0x00, 0x00, 0x45, 0x45, 0x47, 0x4e, 0x65, 0x74, 0x5f, 0x46, 
  0x75, 0x6e, 0x63, 0x74, 0x69, 0x6f, 0x6e, 0x61, 0x6c, 0x2f, 0x71, 0x75, 
  0x61, 0x6e, 0x74, 0x69, 0x7a, 0x65, 0x5f, 0x6c, 0x61, 0x79, 0x65, 0x72, 
  0x2f, 0x41, 0x6c, 0x6c, 0x56, 0x61, 0x6c, 0x75, 0x65, 0x73, 0x51, 0x75, 
  0x61, 0x6e, 0x74, 0x69, 0x7a, 0x65, 0x2f, 0x46, 0x61, 0x6b, 0x65, 0x51, 
  0x75, 0x61, 0x6e, 0x74, 0x57, 0x69, 0x74, 0x68, 0x4d, 0x69, 0x6e, 0x4d, 
  0x61, 0x78, 0x56, 0x61, 0x72, 0x73, 0x3b, 0x45, 0x45, 0x47, 0x4e, 0x65, 
  0x74, 0x5f, 0x46, 0x75, 0x6e, 0x63, 0x74, 0x69, 0x6f, 0x6e, 0x61, 0x6c, 
  0x2f, 0x71, 0x75, 0x61, 0x6e, 0x74, 0x69, 0x7a, 0x65, 0x5f, 0x6c, 0x61, 
  0x79, 0x65, 0x72, 0x2f, 0x41, 0x6c, 0x6c, 0x56, 0x61, 0x6c, 0x75, 0x65, 
  0x73, 0x51, 0x75, 0x61, 0x6e, 0x74, 0x69, 0x7a, 0x65, 0x2f, 0x46, 0x61, 
  0x6b, 0x65, 0x51, 0x75, 0x61, 0x6e, 0x74, 0x57, 0x69, 0x74, 0x68, 0x4d, 
  0x69, 0x6e, 0x4d, 0x61, 0x78, 0x56, 0x61, 0x72, 0x73, 0x2f, 0x52, 0x65, 
  0x61, 0x64, 0x56, 0x61, 0x72, 0x69, 0x61, 0x62, 0x6c, 0x65, 0x4f, 0x70, 
  0x3b, 0x45, 0x45, 0x47, 0x4e, 0x65, 0x74, 0x5f, 0x46, 0x75, 0x6e, 0x63, 
  0x74, 0x69, 0x6f, 0x6e, 0x61, 0x6c, 0x2f, 0x71, 0x75, 0x61, 0x6e, 0x74, 
  0x69, 0x7a, 0x65, 0x5f, 0x6c, 0x61, 0x79, 0x65, 0x72, 0x2f, 0x41, 0x6c, 
  0x6c, 0x56, 0x61, 0x6c, 0x75, 0x65, 0x73, 0x51, 0x75, 0x61, 0x6e, 0x74, 
  0x69, 0x7a, 0x65, 0x2f, 0x46, 0x61, 0x6b, 0x65, 0x51, 0x75, 0x61, 0x6e, 
  0x74, 0x57, 0x69, 0x74, 0x68, 0x4d, 0x69, 0x6e, 0x4d, 0x61, 0x78, 0x56, 
  0x61, 0x72, 0x73, 0x2f, 0x52, 0x65, 0x61, 0x64, 0x56, 0x61, 0x72, 0x69, 
  0x61, 0x62, 0x6c, 0x65, 0x4f, 0x70, 0x5f, 0x31, 0x00, 0x00, 0x00, 0x00, 
  0x04, 0x00, 0x00, 0x00, 0x01, 0x00, 0x00, 0x00, 0x10, 0x00, 0x00, 0x00, 
  0x80, 0x00, 0x00, 0x00, 0x01, 0x00, 0x00, 0x00, 0x12, 0xf4, 0xff, 0xff, 
  0x00, 0x00, 0x00, 0x01, 0x14, 0x00, 0x00, 0x00, 0x30, 0x00, 0x00, 0x00, 
  0x0c, 0x00, 0x00, 0x00, 0x00, 0x00, 0x00, 0x09, 0x60, 0x00, 0x00, 0x00, 
  0x74, 0xf3, 0xff, 0xff, 0x08, 0x00, 0x00, 0x00, 0x10, 0x00, 0x00, 0x00, 
  0x01, 0x00, 0x00, 0x00, 0x80, 0xff, 0xff, 0xff, 0xff, 0xff, 0xff, 0xff, 
  0x01, 0x00, 0x00, 0x00, 0x7d, 0xfa, 0xc9, 0x3c, 0x36, 0x00, 0x00, 0x00, 
  0x45, 0x45, 0x47, 0x4e, 0x65, 0x74, 0x5f, 0x46, 0x75, 0x6e, 0x63, 0x74, 
  0x69, 0x6f, 0x6e, 0x61, 0x6c, 0x2f, 0x62, 0x61, 0x74, 0x63, 0x68, 0x5f, 
  0x6e, 0x6f, 0x72, 0x6d, 0x61, 0x6c, 0x69, 0x7a, 0x61, 0x74, 0x69, 0x6f, 
  0x6e, 0x2f, 0x46, 0x75, 0x73, 0x65, 0x64, 0x42, 0x61, 0x74, 0x63, 0x68, 
  0x4e, 0x6f, 0x72, 0x6d, 0x56, 0x33, 0x00, 0x00, 0x01, 0x00, 0x00, 0x00, 
  0x10, 0x00, 0x00, 0x00, 0x92, 0xf4, 0xff, 0xff, 0x00, 0x00, 0x00, 0x01, 
  0x14, 0x00, 0x00, 0x00, 0x34, 0x00, 0x00, 0x00, 0x0b, 0x00, 0x00, 0x00, 
  0x00, 0x00, 0x00, 0x09, 0x64, 0x00, 0x00, 0x00, 0xf4, 0xf3, 0xff, 0xff, 
  0x08, 0x00, 0x00, 0x00, 0x14, 0x00, 0x00, 0x00, 0x01, 0x00, 0x00, 0x00, 
  0x3c, 0x00, 0x00, 0x00, 0x00, 0x00, 0x00, 0x00, 0x00, 0x00, 0x00, 0x00, 
  0x01, 0x00, 0x00, 0x00, 0x6c, 0x99, 0x77, 0x39, 0x37, 0x00, 0x00, 0x00, 
  0x45, 0x45, 0x47, 0x4e, 0x65, 0x74, 0x5f, 0x46, 0x75, 0x6e, 0x63, 0x74, 
  0x69, 0x6f, 0x6e, 0x61, 0x6c, 0x2f, 0x62, 0x61, 0x74, 0x63, 0x68, 0x5f, 
  0x6e, 0x6f, 0x72, 0x6d, 0x61, 0x6c, 0x69, 0x7a, 0x61, 0x74, 0x69, 0x6f, 
  0x6e, 0x2f, 0x46, 0x75, 0x73, 0x65, 0x64, 0x42, 0x61, 0x74, 0x63, 0x68, 
  0x4e, 0x6f, 0x72, 0x6d, 0x56, 0x33, 0x31, 0x00, 0x01, 0x00, 0x00, 0x00, 
  0x10, 0x00, 0x00, 0x00, 0x16, 0xf5, 0xff, 0xff, 0x00, 0x00, 0x00, 0x01, 
  0x14, 0x00, 0x00, 0x00, 0xa8, 0x01, 0x00, 0x00, 0x0a, 0x00, 0x00, 0x00, 
  0x00, 0x00, 0x00, 0x09, 0x30, 0x02, 0x00, 0x00, 0x92, 0xf8, 0xff, 0xff, 
  0x03, 0x00, 0x00, 0x00, 0x08, 0x00, 0x00, 0x00, 0x08, 0x01, 0x00, 0x00, 
  0x20, 0x00, 0x00, 0x00, 0x00, 0x00, 0x00, 0x00, 0x00, 0x00, 0x00, 0x00, 
  0x00, 0x00, 0x00, 0x00, 0x00, 0x00, 0x00, 0x00, 0x00, 0x00, 0x00, 0x00, 
  0x00, 0x00, 0x00, 0x00, 0x00, 0x00, 0x00, 0x00, 0x00, 0x00, 0x00, 0x00, 
  0x00, 0x00, 0x00, 0x00, 0x00, 0x00, 0x00, 0x00, 0x00, 0x00, 0x00, 0x00, 
  0x00, 0x00, 0x00, 0x00, 0x00, 0x00, 0x00, 0x00, 0x00, 0x00, 0x00, 0x00, 
  0x00, 0x00, 0x00, 0x00, 0x00, 0x00, 0x00, 0x00, 0x00, 0x00, 0x00, 0x00, 
  0x00, 0x00, 0x00, 0x00, 0x00, 0x00, 0x00, 0x00, 0x00, 0x00, 0x00, 0x00, 
  0x00, 0x00, 0x00, 0x00, 0x00, 0x00, 0x00, 0x00, 0x00, 0x00, 0x00, 0x00, 
  0x00, 0x00, 0x00, 0x00, 0x00, 0x00, 0x00, 0x00, 0x00, 0x00, 0x00, 0x00, 
  0x00, 0x00, 0x00, 0x00, 0x00, 0x00, 0x00, 0x00, 0x00, 0x00, 0x00, 0x00, 
  0x00, 0x00, 0x00, 0x00, 0x00, 0x00, 0x00, 0x00, 0x00, 0x00, 0x00, 0x00, 
  0x00, 0x00, 0x00, 0x00, 0x00, 0x00, 0x00, 0x00, 0x00, 0x00, 0x00, 0x00, 
  0x00, 0x00, 0x00, 0x00, 0x00, 0x00, 0x00, 0x00, 0x00, 0x00, 0x00, 0x00, 
  0x00, 0x00, 0x00, 0x00, 0x00, 0x00, 0x00, 0x00, 0x00, 0x00, 0x00, 0x00, 
  0x00, 0x00, 0x00, 0x00, 0x00, 0x00, 0x00, 0x00, 0x00, 0x00, 0x00, 0x00, 
  0x00, 0x00, 0x00, 0x00, 0x00, 0x00, 0x00, 0x00, 0x00, 0x00, 0x00, 0x00, 
  0x00, 0x00, 0x00, 0x00, 0x00, 0x00, 0x00, 0x00, 0x00, 0x00, 0x00, 0x00, 
  0x00, 0x00, 0x00, 0x00, 0x00, 0x00, 0x00, 0x00, 0x00, 0x00, 0x00, 0x00, 
  0x00, 0x00, 0x00, 0x00, 0x00, 0x00, 0x00, 0x00, 0x00, 0x00, 0x00, 0x00, 
  0x00, 0x00, 0x00, 0x00, 0x00, 0x00, 0x00, 0x00, 0x00, 0x00, 0x00, 0x00, 
  0x00, 0x00, 0x00, 0x00, 0x00, 0x00, 0x00, 0x00, 0x00, 0x00, 0x00, 0x00, 
  0x00, 0x00, 0x00, 0x00, 0x00, 0x00, 0x00, 0x00, 0x20, 0x00, 0x00, 0x00, 
  0x66, 0x2c, 0xd4, 0x3a, 0xae, 0x4a, 0x85, 0x3a, 0x95, 0x53, 0x92, 0x3a, 
  0x4a, 0xef, 0x98, 0x3a, 0xa9, 0xaf, 0xce, 0x3a, 0x85, 0xc5, 0xa9, 0x3a, 
  0x17, 0x4b, 0xe8, 0x3a, 0xa8, 0xbd, 0x9b, 0x3a, 0x95, 0x53, 0x92, 0x3a, 
  0xb4, 0x2c, 0xab, 0x3a, 0xf3, 0xe1, 0xc1, 0x3a, 0x4a, 0xef, 0x98, 0x3a, 
  0x8b, 0xf5, 0xa0, 0x3a, 0xfc, 0x1c, 0x8f, 0x3a, 0xbe, 0x6b, 0xb1, 0x3a, 
  0x85, 0xc5, 0xa9, 0x3a, 0xfe, 0x3f, 0xb3, 0x3a, 0x97, 0xc1, 0xa2, 0x3a, 
  0x6b, 0xdb, 0xcc, 0x3a, 0xa3, 0x30, 0xb2, 0x3a, 0x42, 0xc3, 0xad, 0x3a, 
  0x73, 0xc9, 0xb0, 0x3a, 0x8b, 0xf5, 0xa0, 0x3a, 0xb4, 0x2c, 0xab, 0x3a, 
  0xf8, 0x90, 0xba, 0x3a, 0xea, 0x20, 0x96, 0x3a, 0x7b, 0xe8, 0xb6, 0x3a, 
  0xa3, 0x85, 0x6e, 0x3a, 0xf8, 0x90, 0xba, 0x3a, 0xf6, 0x8f, 0xa5, 0x3a, 
  0xdf, 0x85, 0x85, 0x3a, 0x73, 0xc9, 0xb0, 0x3a, 0x8c, 0x00, 0x00, 0x00, 
  0x45, 0x45, 0x47, 0x4e, 0x65, 0x74, 0x5f, 0x46, 0x75, 0x6e, 0x63, 0x74, 
  0x69, 0x6f, 0x6e, 0x61, 0x6c, 0x2f, 0x71, 0x75, 0x61, 0x6e, 0x74, 0x5f, 
  0x64, 0x65, 0x70, 0x74, 0x68, 0x77, 0x69, 0x73, 0x65, 0x5f, 0x63, 0x6f, 
  0x6e, 0x76, 0x32, 0x64, 0x2f, 0x64, 0x65, 0x70, 0x74, 0x68, 0x77, 0x69, 
  0x73, 0x65, 0x3b, 0x45, 0x45, 0x47, 0x4e, 0x65, 0x74, 0x5f, 0x46, 0x75, 
  0x6e, 0x63, 0x74, 0x69, 0x6f, 0x6e, 0x61, 0x6c, 0x2f, 0x71, 0x75, 0x61, 
  0x6e, 0x74, 0x5f, 0x64, 0x65, 0x70, 0x74, 0x68, 0x77, 0x69, 0x73, 0x65, 
  0x5f, 0x63, 0x6f, 0x6e, 0x76, 0x32, 0x64, 0x2f, 0x4c, 0x61, 0x73, 0x74, 
  0x56, 0x61, 0x6c, 0x75, 0x65, 0x51, 0x75, 0x61, 0x6e, 0x74, 0x2f, 0x46, 
  0x61, 0x6b, 0x65, 0x51, 0x75, 0x61, 0x6e, 0x74, 0x57, 0x69, 0x74, 0x68, 
  0x4d, 0x69, 0x6e, 0x4d, 0x61, 0x78, 0x56, 0x61, 0x72, 0x73, 0x50, 0x65, 
  0x72, 0x43, 0x68, 0x61, 0x6e, 0x6e, 0x65, 0x6c, 0x00, 0x00, 0x00, 0x00, 
  0x04, 0x00, 0x00, 0x00, 0x01, 0x00, 0x00, 0x00, 0x10, 0x00, 0x00, 0x00, 
  0x01, 0x00, 0x00, 0x00, 0x20, 0x00, 0x00, 0x00, 0x72, 0xf7, 0xff, 0xff, 
  0x00, 0x00, 0x00, 0x01, 0x14, 0x00, 0x00, 0x00, 0xa8, 0x01, 0x00, 0x00, 
  0x08, 0x00, 0x00, 0x00, 0x00, 0x00, 0x00, 0x02, 0xe0, 0x01, 0x00, 0x00, 
  0xd4, 0xf6, 0xff, 0xff, 0x08, 0x00, 0x00, 0x00, 0x0c, 0x01, 0x00, 0x00, 
  0x20, 0x00, 0x00, 0x00, 0x00, 0x00, 0x00, 0x00, 0x00, 0x00, 0x00, 0x00, 
  0x00, 0x00, 0x00, 0x00, 0x00, 0x00, 0x00, 0x00, 0x00, 0x00, 0x00, 0x00, 
  0x00, 0x00, 0x00, 0x00, 0x00, 0x00, 0x00, 0x00, 0x00, 0x00, 0x00, 0x00, 
  0x00, 0x00, 0x00, 0x00, 0x00, 0x00, 0x00, 0x00, 0x00, 0x00, 0x00, 0x00, 
  0x00, 0x00, 0x00, 0x00, 0x00, 0x00, 0x00, 0x00, 0x00, 0x00, 0x00, 0x00, 
  0x00, 0x00, 0x00, 0x00, 0x00, 0x00, 0x00, 0x00, 0x00, 0x00, 0x00, 0x00, 
  0x00, 0x00, 0x00, 0x00, 0x00, 0x00, 0x00, 0x00, 0x00, 0x00, 0x00, 0x00, 
  0x00, 0x00, 0x00, 0x00, 0x00, 0x00, 0x00, 0x00, 0x00, 0x00, 0x00, 0x00, 
  0x00, 0x00, 0x00, 0x00, 0x00, 0x00, 0x00, 0x00, 0x00, 0x00, 0x00, 0x00, 
  0x00, 0x00, 0x00, 0x00, 0x00, 0x00, 0x00, 0x00, 0x00, 0x00, 0x00, 0x00, 
  0x00, 0x00, 0x00, 0x00, 0x00, 0x00, 0x00, 0x00, 0x00, 0x00, 0x00, 0x00, 
  0x00, 0x00, 0x00, 0x00, 0x00, 0x00, 0x00, 0x00, 0x00, 0x00, 0x00, 0x00, 
  0x00, 0x00, 0x00, 0x00, 0x00, 0x00, 0x00, 0x00, 0x00, 0x00, 0x00, 0x00, 
  0x00, 0x00, 0x00, 0x00, 0x00, 0x00, 0x00, 0x00, 0x00, 0x00, 0x00, 0x00, 
  0x00, 0x00, 0x00, 0x00, 0x00, 0x00, 0x00, 0x00, 0x00, 0x00, 0x00, 0x00, 
  0x00, 0x00, 0x00, 0x00, 0x00, 0x00, 0x00, 0x00, 0x00, 0x00, 0x00, 0x00, 
  0x00, 0x00, 0x00, 0x00, 0x00, 0x00, 0x00, 0x00, 0x00, 0x00, 0x00, 0x00, 
  0x00, 0x00, 0x00, 0x00, 0x00, 0x00, 0x00, 0x00, 0x00, 0x00, 0x00, 0x00, 
  0x00, 0x00, 0x00, 0x00, 0x00, 0x00, 0x00, 0x00, 0x00, 0x00, 0x00, 0x00, 
  0x00, 0x00, 0x00, 0x00, 0x00, 0x00, 0x00, 0x00, 0x00, 0x00, 0x00, 0x00, 
  0x00, 0x00, 0x00, 0x00, 0x00, 0x00, 0x00, 0x00, 0x00, 0x00, 0x00, 0x00, 
  0x00, 0x00, 0x00, 0x00, 0x00, 0x00, 0x00, 0x00, 0x00, 0x00, 0x00, 0x00, 
  0x20, 0x00, 0x00, 0x00, 0xba, 0x00, 0x32, 0x37, 0x09, 0xc5, 0xce, 0x36, 
  0x2f, 0xb1, 0x43, 0x37, 0x60, 0xd0, 0xb3, 0x37, 0x46, 0xad, 0x68, 0x37, 
  0x37, 0xac, 0x08, 0x37, 0x80, 0x72, 0x00, 0x38, 0x5c, 0xb4, 0x5f, 0x37, 
  0xa1, 0x1b, 0xe4, 0x36, 0x9d, 0x1d, 0xab, 0x37, 0x98, 0x28, 0xfb, 0x36, 
  0xa0, 0x60, 0x80, 0x37, 0xc6, 0xcf, 0x90, 0x37, 0xbb, 0x59, 0x6b, 0x37, 
  0x26, 0x8c, 0x7a, 0x37, 0x44, 0x48, 0x9e, 0x37, 0xd1, 0x5f, 0x2c, 0x37, 
  0x6d, 0x6f, 0xb4, 0x37, 0x88, 0xe4, 0x33, 0x37, 0xf9, 0x34, 0x6e, 0x37, 
  0x22, 0xc4, 0x8d, 0x37, 0x8c, 0x2c, 0x9a, 0x37, 0xd3, 0xbb, 0x1f, 0x37, 
  0xd0, 0x6d, 0x80, 0x37, 0x5b, 0xf8, 0x39, 0x37, 0x55, 0x05, 0x90, 0x37, 
  0xfd, 0x15, 0x43, 0x37, 0xe9, 0x83, 0x09, 0x37, 0x77, 0xa4, 0xa0, 0x37, 
  0xc5, 0x0a, 0xc1, 0x37, 0xf7, 0xec, 0xc6, 0x37, 0xb7, 0x23, 0x3d, 0x37, 
  0x3e, 0x00, 0x00, 0x00, 0x45, 0x45, 0x47, 0x4e, 0x65, 0x74, 0x5f, 0x46, 
  0x75, 0x6e, 0x63, 0x74, 0x69, 0x6f, 0x6e, 0x61, 0x6c, 0x2f, 0x73, 0x65, 
  0x70, 0x61, 0x72, 0x61, 0x62, 0x6c, 0x65, 0x5f, 0x63, 0x6f, 0x6e, 0x76, 
  0x32, 0x64, 0x2f, 0x73, 0x65, 0x70, 0x61, 0x72, 0x61, 0x62, 0x6c, 0x65, 
  0x5f, 0x63, 0x6f, 0x6e, 0x76, 0x32, 0x64, 0x2f, 0x64, 0x65, 0x70, 0x74, 
  0x68, 0x77, 0x69, 0x73, 0x65, 0x32, 0x00, 0x00, 0x01, 0x00, 0x00, 0x00, 
  0x20, 0x00, 0x00, 0x00, 0x72, 0xf9, 0xff, 0xff, 0x00, 0x00, 0x00, 0x01, 
  0x14, 0x00, 0x00, 0x00, 0xa8, 0x01, 0x00, 0x00, 0x08, 0x00, 0x00, 0x00, 
  0x00, 0x00, 0x00, 0x02, 0xe0, 0x01, 0x00, 0x00, 0xd4, 0xf8, 0xff, 0xff, 
  0x08, 0x00, 0x00, 0x00, 0x0c, 0x01, 0x00, 0x00, 0x20, 0x00, 0x00, 0x00, 
  0x00, 0x00, 0x00, 0x00, 0x00, 0x00, 0x00, 0x00, 0x00, 0x00, 0x00, 0x00, 
  0x00, 0x00, 0x00, 0x00, 0x00, 0x00, 0x00, 0x00, 0x00, 0x00, 0x00, 0x00, 
  0x00, 0x00, 0x00, 0x00, 0x00, 0x00, 0x00, 0x00, 0x00, 0x00, 0x00, 0x00, 
  0x00, 0x00, 0x00, 0x00, 0x00, 0x00, 0x00, 0x00, 0x00, 0x00, 0x00, 0x00, 
  0x00, 0x00, 0x00, 0x00, 0x00, 0x00, 0x00, 0x00, 0x00, 0x00, 0x00, 0x00, 
  0x00, 0x00, 0x00, 0x00, 0x00, 0x00, 0x00, 0x00, 0x00, 0x00, 0x00, 0x00, 
  0x00, 0x00, 0x00, 0x00, 0x00, 0x00, 0x00, 0x00, 0x00, 0x00, 0x00, 0x00, 
  0x00, 0x00, 0x00, 0x00, 0x00, 0x00, 0x00, 0x00, 0x00, 0x00, 0x00, 0x00, 
  0x00, 0x00, 0x00, 0x00, 0x00, 0x00, 0x00, 0x00, 0x00, 0x00, 0x00, 0x00, 
  0x00, 0x00, 0x00, 0x00, 0x00, 0x00, 0x00, 0x00, 0x00, 0x00, 0x00, 0x00, 
  0x00, 0x00, 0x00, 0x00, 0x00, 0x00, 0x00, 0x00, 0x00, 0x00, 0x00, 0x00, 
  0x00, 0x00, 0x00, 0x00, 0x00, 0x00, 0x00, 0x00, 0x00, 0x00, 0x00, 0x00, 
  0x00, 0x00, 0x00, 0x00, 0x00, 0x00, 0x00, 0x00, 0x00, 0x00, 0x00, 0x00, 
  0x00, 0x00, 0x00, 0x00, 0x00, 0x00, 0x00, 0x00, 0x00, 0x00, 0x00, 0x00, 
  0x00, 0x00, 0x00, 0x00, 0x00, 0x00, 0x00, 0x00, 0x00, 0x00, 0x00, 0x00, 
  0x00, 0x00, 0x00, 0x00, 0x00, 0x00, 0x00, 0x00, 0x00, 0x00, 0x00, 0x00, 
  0x00, 0x00, 0x00, 0x00, 0x00, 0x00, 0x00, 0x00, 0x00, 0x00, 0x00, 0x00, 
  0x00, 0x00, 0x00, 0x00, 0x00, 0x00, 0x00, 0x00, 0x00, 0x00, 0x00, 0x00, 
  0x00, 0x00, 0x00, 0x00, 0x00, 0x00, 0x00, 0x00, 0x00, 0x00, 0x00, 0x00, 
  0x00, 0x00, 0x00, 0x00, 0x00, 0x00, 0x00, 0x00, 0x00, 0x00, 0x00, 0x00, 
  0x00, 0x00, 0x00, 0x00, 0x00, 0x00, 0x00, 0x00, 0x00, 0x00, 0x00, 0x00, 
  0x00, 0x00, 0x00, 0x00, 0x00, 0x00, 0x00, 0x00, 0x20, 0x00, 0x00, 0x00, 
  0x6b, 0x45, 0x07, 0x39, 0xd4, 0xf5, 0xa9, 0x38, 0xb6, 0x94, 0xba, 0x38, 
  0xcf, 0x01, 0xc3, 0x38, 0xd4, 0xc5, 0x03, 0x39, 0xc9, 0x79, 0xd8, 0x38, 
  0x3e, 0x19, 0x14, 0x39, 0xcc, 0x95, 0xc6, 0x38, 0xb6, 0x94, 0xba, 0x38, 
  0xc7, 0x43, 0xda, 0x38, 0x40, 0x38, 0xf7, 0x38, 0xcf, 0x01, 0xc3, 0x38, 
  0x30, 0x3d, 0xcd, 0x38, 0xd2, 0x7b, 0xb6, 0x38, 0xb7, 0x3a, 0xe2, 0x38, 
  0xc9, 0x79, 0xd8, 0x38, 0xc7, 0x8f, 0xe4, 0x38, 0xcb, 0x87, 0xcf, 0x38, 
  0x4d, 0x9b, 0x02, 0x39, 0xc6, 0x35, 0xe3, 0x38, 0x9a, 0x90, 0xdd, 0x38, 
  0xc6, 0x6b, 0xe1, 0x38, 0x30, 0x3d, 0xcd, 0x38, 0xc7, 0x43, 0xda, 0x38, 
  0x03, 0xe4, 0xed, 0x38, 0xcf, 0x6d, 0xbf, 0x38, 0xe5, 0x39, 0xe9, 0x38, 
  0xd9, 0x11, 0x98, 0x38, 0x03, 0xe4, 0xed, 0x38, 0xca, 0x1b, 0xd3, 0x38, 
  0x4e, 0x41, 0xaa, 0x38, 0xc6, 0x6b, 0xe1, 0x38, 0x3d, 0x00, 0x00, 0x00, 
  0x45, 0x45, 0x47, 0x4e, 0x65, 0x74, 0x5f, 0x46, 0x75, 0x6e, 0x63, 0x74, 
  0x69, 0x6f, 0x6e, 0x61, 0x6c, 0x2f, 0x73, 0x65, 0x70, 0x61, 0x72, 0x61, 
  0x62, 0x6c, 0x65, 0x5f, 0x63, 0x6f, 0x6e, 0x76, 0x32, 0x64, 0x2f, 0x73, 
  0x65, 0x70, 0x61, 0x72, 0x61, 0x62, 0x6c, 0x65, 0x5f, 0x63, 0x6f, 0x6e, 
  0x76, 0x32, 0x64, 0x2f, 0x64, 0x65, 0x70, 0x74, 0x68, 0x77, 0x69, 0x73, 
  0x65, 0x00, 0x00, 0x00, 0x01, 0x00, 0x00, 0x00, 0x20, 0x00, 0x00, 0x00, 
  0x72, 0xfb, 0xff, 0xff, 0x00, 0x00, 0x00, 0x01, 0x14, 0x00, 0x00, 0x00, 
  0x34, 0x00, 0x00, 0x00, 0x07, 0x00, 0x00, 0x00, 0x00, 0x00, 0x00, 0x09, 
  0x68, 0x00, 0x00, 0x00, 0xd4, 0xfa, 0xff, 0xff, 0x08, 0x00, 0x00, 0x00, 
  0x14, 0x00, 0x00, 0x00, 0x01, 0x00, 0x00, 0x00, 0x80, 0xff, 0xff, 0xff, 
  0xff, 0xff, 0xff, 0xff, 0x00, 0x00, 0x00, 0x00, 0x01, 0x00, 0x00, 0x00, 
  0xd7, 0x58, 0xeb, 0x3c, 0x38, 0x00, 0x00, 0x00, 0x45, 0x45, 0x47, 0x4e, 
  0x65, 0x74, 0x5f, 0x46, 0x75, 0x6e, 0x63, 0x74, 0x69, 0x6f, 0x6e, 0x61, 
  0x6c, 0x2f, 0x62, 0x61, 0x74, 0x63, 0x68, 0x5f, 0x6e, 0x6f, 0x72, 0x6d, 
  0x61, 0x6c, 0x69, 0x7a, 0x61, 0x74, 0x69, 0x6f, 0x6e, 0x5f, 0x31, 0x2f, 
  0x46, 0x75, 0x73, 0x65, 0x64, 0x42, 0x61, 0x74, 0x63, 0x68, 0x4e, 0x6f, 
  0x72, 0x6d, 0x56, 0x33, 0x00, 0x00, 0x00, 0x00, 0x01, 0x00, 0x00, 0x00, 
  0x20, 0x00, 0x00, 0x00, 0xfa, 0xfb, 0xff, 0xff, 0x00, 0x00, 0x00, 0x01, 
  0x14, 0x00, 0x00, 0x00, 0x34, 0x00, 0x00, 0x00, 0x06, 0x00, 0x00, 0x00, 
  0x00, 0x00, 0x00, 0x09, 0x68, 0x00, 0x00, 0x00, 0x5c, 0xfb, 0xff, 0xff, 
  0x08, 0x00, 0x00, 0x00, 0x14, 0x00, 0x00, 0x00, 0x01, 0x00, 0x00, 0x00, 
  0x6d, 0x00, 0x00, 0x00, 0x00, 0x00, 0x00, 0x00, 0x00, 0x00, 0x00, 0x00, 
  0x01, 0x00, 0x00, 0x00, 0x8c, 0x72, 0xe2, 0x3a, 0x39, 0x00, 0x00, 0x00, 
  0x45, 0x45, 0x47, 0x4e, 0x65, 0x74, 0x5f, 0x46, 0x75, 0x6e, 0x63, 0x74, 
  0x69, 0x6f, 0x6e, 0x61, 0x6c, 0x2f, 0x62, 0x61, 0x74, 0x63, 0x68, 0x5f, 
  0x6e, 0x6f, 0x72, 0x6d, 0x61, 0x6c, 0x69, 0x7a, 0x61, 0x74, 0x69, 0x6f, 
  0x6e, 0x5f, 0x31, 0x2f, 0x46, 0x75, 0x73, 0x65, 0x64, 0x42, 0x61, 0x74, 
  0x63, 0x68, 0x4e, 0x6f, 0x72, 0x6d, 0x56, 0x33, 0x31, 0x00, 0x00, 0x00, 
  0x01, 0x00, 0x00, 0x00, 0x20, 0x00, 0x00, 0x00, 0x82, 0xfc, 0xff, 0xff, 
  0x00, 0x00, 0x00, 0x01, 0x28, 0x00, 0x00, 0x00, 0xbc, 0x01, 0x00, 0x00, 
  0x05, 0x00, 0x00, 0x00, 0x00, 0x00, 0x00, 0x09, 0xf4, 0x01, 0x00, 0x00, 
  0x00, 0x00, 0x12, 0x00, 0x10, 0x00, 0x00, 0x00, 0x00, 0x00, 0x0c, 0x00, 
  0x08, 0x00, 0x00, 0x00, 0x00, 0x00, 0x04, 0x00, 0x12, 0x00, 0x00, 0x00, 
  0x03, 0x00, 0x00, 0x00, 0x08, 0x00, 0x00, 0x00, 0x08, 0x01, 0x00, 0x00, 
  0x20, 0x00, 0x00, 0x00, 0x00, 0x00, 0x00, 0x00, 0x00, 0x00, 0x00, 0x00, 
  0x00, 0x00, 0x00, 0x00, 0x00, 0x00, 0x00, 0x00, 0x00, 0x00, 0x00, 0x00, 
  0x00, 0x00, 0x00, 0x00, 0x00, 0x00, 0x00, 0x00, 0x00, 0x00, 0x00, 0x00, 
  0x00, 0x00, 0x00, 0x00, 0x00, 0x00, 0x00, 0x00, 0x00, 0x00, 0x00, 0x00, 
  0x00, 0x00, 0x00, 0x00, 0x00, 0x00, 0x00, 0x00, 0x00, 0x00, 0x00, 0x00, 
  0x00, 0x00, 0x00, 0x00, 0x00, 0x00, 0x00, 0x00, 0x00, 0x00, 0x00, 0x00, 
  0x00, 0x00, 0x00, 0x00, 0x00, 0x00, 0x00, 0x00, 0x00, 0x00, 0x00, 0x00, 
  0x00, 0x00, 0x00, 0x00, 0x00, 0x00, 0x00, 0x00, 0x00, 0x00, 0x00, 0x00, 
  0x00, 0x00, 0x00, 0x00, 0x00, 0x00, 0x00, 0x00, 0x00, 0x00, 0x00, 0x00, 
  0x00, 0x00, 0x00, 0x00, 0x00, 0x00, 0x00, 0x00, 0x00, 0x00, 0x00, 0x00, 
  0x00, 0x00, 0x00, 0x00, 0x00, 0x00, 0x00, 0x00, 0x00, 0x00, 0x00, 0x00, 
  0x00, 0x00, 0x00, 0x00, 0x00, 0x00, 0x00, 0x00, 0x00, 0x00, 0x00, 0x00, 
  0x00, 0x00, 0x00, 0x00, 0x00, 0x00, 0x00, 0x00, 0x00, 0x00, 0x00, 0x00, 
  0x00, 0x00, 0x00, 0x00, 0x00, 0x00, 0x00, 0x00, 0x00, 0x00, 0x00, 0x00, 
  0x00, 0x00, 0x00, 0x00, 0x00, 0x00, 0x00, 0x00, 0x00, 0x00, 0x00, 0x00, 
  0x00, 0x00, 0x00, 0x00, 0x00, 0x00, 0x00, 0x00, 0x00, 0x00, 0x00, 0x00, 
  0x00, 0x00, 0x00, 0x00, 0x00, 0x00, 0x00, 0x00, 0x00, 0x00, 0x00, 0x00, 
  0x00, 0x00, 0x00, 0x00, 0x00, 0x00, 0x00, 0x00, 0x00, 0x00, 0x00, 0x00, 
  0x00, 0x00, 0x00, 0x00, 0x00, 0x00, 0x00, 0x00, 0x00, 0x00, 0x00, 0x00, 
  0x00, 0x00, 0x00, 0x00, 0x00, 0x00, 0x00, 0x00, 0x00, 0x00, 0x00, 0x00, 
  0x00, 0x00, 0x00, 0x00, 0x00, 0x00, 0x00, 0x00, 0x00, 0x00, 0x00, 0x00, 
  0x00, 0x00, 0x00, 0x00, 0x00, 0x00, 0x00, 0x00, 0x20, 0x00, 0x00, 0x00, 
  0xdd, 0x87, 0x09, 0x3a, 0xc4, 0xc1, 0x9f, 0x39, 0xb2, 0x32, 0x17, 0x3a, 
  0x18, 0xee, 0x8a, 0x3a, 0x0c, 0xc6, 0x33, 0x3a, 0x0b, 0x32, 0xd3, 0x39, 
  0x28, 0x7c, 0xc6, 0x3a, 0x60, 0xd7, 0x2c, 0x3a, 0x57, 0x3e, 0xb0, 0x39, 
  0xa0, 0x35, 0x84, 0x3a, 0x9e, 0x0d, 0xc2, 0x39, 0x89, 0x60, 0x46, 0x3a, 
  0xb0, 0xc5, 0x5f, 0x3a, 0xe1, 0xd6, 0x35, 0x3a, 0xbe, 0x94, 0x41, 0x3a, 
  0x85, 0x96, 0x74, 0x3a, 0x92, 0x2e, 0x05, 0x3a, 0xfb, 0x68, 0x8b, 0x3a, 
  0xab, 0xfd, 0x0a, 0x3a, 0xdc, 0x0b, 0x38, 0x3a, 0xf0, 0x10, 0x5b, 0x3a, 
  0x57, 0x3d, 0x6e, 0x3a, 0xae, 0xd4, 0xf6, 0x39, 0xe9, 0x74, 0x46, 0x3a, 
  0xbf, 0xaf, 0x0f, 0x3a, 0xdd, 0x8c, 0x5e, 0x3a, 0xc9, 0xba, 0x16, 0x3a, 
  0x59, 0x7f, 0xd4, 0x39, 0x2b, 0x3c, 0x78, 0x3a, 0x88, 0x26, 0x95, 0x3a, 
  0x44, 0xb2, 0x99, 0x3a, 0xa1, 0x22, 0x12, 0x3a, 0x3e, 0x00, 0x00, 0x00, 
  0x45, 0x45, 0x47, 0x4e, 0x65, 0x74, 0x5f, 0x46, 0x75, 0x6e, 0x63, 0x74, 
  0x69, 0x6f, 0x6e, 0x61, 0x6c, 0x2f, 0x73, 0x65, 0x70, 0x61, 0x72, 0x61, 
  0x62, 0x6c, 0x65, 0x5f, 0x63, 0x6f, 0x6e, 0x76, 0x32, 0x64, 0x2f, 0x73, 
  0x65, 0x70, 0x61, 0x72, 0x61, 0x62, 0x6c, 0x65, 0x5f, 0x63, 0x6f, 0x6e, 
  0x76, 0x32, 0x64, 0x2f, 0x64, 0x65, 0x70, 0x74, 0x68, 0x77, 0x69, 0x73, 
  0x65, 0x31, 0x00, 0x00, 0x04, 0x00, 0x00, 0x00, 0x01, 0x00, 0x00, 0x00, 
  0x01, 0x00, 0x00, 0x00, 0x10, 0x00, 0x00, 0x00, 0x20, 0x00, 0x00, 0x00, 
  0xa2, 0xfe, 0xff, 0xff, 0x00, 0x00, 0x00, 0x01, 0x14, 0x00, 0x00, 0x00, 
  0x58, 0x00, 0x00, 0x00, 0x04, 0x00, 0x00, 0x00, 0x00, 0x00, 0x00, 0x09, 
  0x84, 0x00, 0x00, 0x00, 0x04, 0xfe, 0xff, 0xff, 0x08, 0x00, 0x00, 0x00, 
  0x2c, 0x00, 0x00, 0x00, 0x04, 0x00, 0x00, 0x00, 0x00, 0x00, 0x00, 0x00, 
  0x00, 0x00, 0x00, 0x00, 0x00, 0x00, 0x00, 0x00, 0x00, 0x00, 0x00, 0x00, 
  0x00, 0x00, 0x00, 0x00, 0x00, 0x00, 0x00, 0x00, 0x00, 0x00, 0x00, 0x00, 
  0x00, 0x00, 0x00, 0x00, 0x00, 0x00, 0x00, 0x00, 0x04, 0x00, 0x00, 0x00, 
  0x62, 0xf6, 0x8c, 0x3c, 0xab, 0x98, 0x9f, 0x3c, 0xfe, 0x43, 0x8e, 0x3c, 
  0xe7, 0xdd, 0x84, 0x3c, 0x33, 0x00, 0x00, 0x00, 0x45, 0x45, 0x47, 0x4e, 
  0x65, 0x74, 0x5f, 0x46, 0x75, 0x6e, 0x63, 0x74, 0x69, 0x6f, 0x6e, 0x61, 
  0x6c, 0x2f, 0x73, 0x65, 0x70, 0x61, 0x72, 0x61, 0x62, 0x6c, 0x65, 0x5f, 
  0x63, 0x6f, 0x6e, 0x76, 0x32, 0x64, 0x2f, 0x73, 0x65, 0x70, 0x61, 0x72, 
  0x61, 0x62, 0x6c, 0x65, 0x5f, 0x63, 0x6f, 0x6e, 0x76, 0x32, 0x64, 0x00, 
  0x04, 0x00, 0x00, 0x00, 0x04, 0x00, 0x00, 0x00, 0x01, 0x00, 0x00, 0x00, 
  0x01, 0x00, 0x00, 0x00, 0x20, 0x00, 0x00, 0x00, 0x52, 0xff, 0xff, 0xff, 
  0x00, 0x00, 0x00, 0x01, 0x14, 0x00, 0x00, 0x00, 0x58, 0x00, 0x00, 0x00, 
  0x03, 0x00, 0x00, 0x00, 0x00, 0x00, 0x00, 0x02, 0x8c, 0x00, 0x00, 0x00, 
  0xb4, 0xfe, 0xff, 0xff, 0x08, 0x00, 0x00, 0x00, 0x2c, 0x00, 0x00, 0x00, 
  0x04, 0x00, 0x00, 0x00, 0x00, 0x00, 0x00, 0x00, 0x00, 0x00, 0x00, 0x00, 
  0x00, 0x00, 0x00, 0x00, 0x00, 0x00, 0x00, 0x00, 0x00, 0x00, 0x00, 0x00, 
  0x00, 0x00, 0x00, 0x00, 0x00, 0x00, 0x00, 0x00, 0x00, 0x00, 0x00, 0x00, 
  0x00, 0x00, 0x00, 0x00, 0x04, 0x00, 0x00, 0x00, 0xf6, 0xa3, 0x80, 0x39, 
  0x43, 0xa5, 0x91, 0x39, 0x69, 0xd4, 0x81, 0x39, 0x49, 0x81, 0x72, 0x39, 
  0x38, 0x00, 0x00, 0x00, 0x45, 0x45, 0x47, 0x4e, 0x65, 0x74, 0x5f, 0x46, 
  0x75, 0x6e, 0x63, 0x74, 0x69, 0x6f, 0x6e, 0x61, 0x6c, 0x2f, 0x62, 0x61, 
  0x74, 0x63, 0x68, 0x5f, 0x6e, 0x6f, 0x72, 0x6d, 0x61, 0x6c, 0x69, 0x7a, 
  0x61, 0x74, 0x69, 0x6f, 0x6e, 0x5f, 0x32, 0x2f, 0x46, 0x75, 0x73, 0x65, 
  0x64, 0x42, 0x61, 0x74, 0x63, 0x68, 0x4e, 0x6f, 0x72, 0x6d, 0x56, 0x33, 
  0x00, 0x00, 0x00, 0x00, 0x01, 0x00, 0x00, 0x00, 0x04, 0x00, 0x00, 0x00, 
  0x00, 0x00, 0x16, 0x00, 0x1c, 0x00, 0x18, 0x00, 0x17, 0x00, 0x10, 0x00, 
  0x0c, 0x00, 0x08, 0x00, 0x00, 0x00, 0x00, 0x00, 0x00, 0x00, 0x07, 0x00, 
  0x16, 0x00, 0x00, 0x00, 0x00, 0x00, 0x00, 0x01, 0x18, 0x00, 0x00, 0x00, 
  0x18, 0x00, 0x00, 0x00, 0x02, 0x00, 0x00, 0x00, 0x00, 0x00, 0x00, 0x02, 
  0x38, 0x00, 0x00, 0x00, 0x04, 0x00, 0x04, 0x00, 0x04, 0x00, 0x00, 0x00, 
  0x25, 0x00, 0x00, 0x00, 0x45, 0x45, 0x47, 0x4e, 0x65, 0x74, 0x5f, 0x46, 
  0x75, 0x6e, 0x63, 0x74, 0x69, 0x6f, 0x6e, 0x61, 0x6c, 0x2f, 0x71, 0x75, 
  0x61, 0x6e, 0x74, 0x5f, 0x66, 0x6c, 0x61, 0x74, 0x74, 0x65, 0x6e, 0x2f, 
  0x43, 0x6f, 0x6e, 0x73, 0x74, 0x00, 0x00, 0x00, 0x01, 0x00, 0x00, 0x00, 
  0x02, 0x00, 0x00, 0x00, 0x00, 0x00, 0x16, 0x00, 0x20, 0x00, 0x1c, 0x00, 
  0x1b, 0x00, 0x14, 0x00, 0x10, 0x00, 0x0c, 0x00, 0x00, 0x00, 0x00, 0x00, 
  0x08, 0x00, 0x07, 0x00, 0x16, 0x00, 0x00, 0x00, 0x00, 0x00, 0x00, 0x01, 
  0x18, 0x00, 0x00, 0x00, 0x34, 0x00, 0x00, 0x00, 0x50, 0x00, 0x00, 0x00, 
  0x01, 0x00, 0x00, 0x00, 0x00, 0x00, 0x00, 0x03, 0x64, 0x00, 0x00, 0x00, 
  0x04, 0x00, 0x00, 0x00, 0xff, 0xff, 0xff, 0xff, 0x10, 0x00, 0x00, 0x00, 
  0x80, 0x00, 0x00, 0x00, 0x01, 0x00, 0x00, 0x00, 0x0c, 0x00, 0x0c, 0x00, 
  0x00, 0x00, 0x00, 0x00, 0x08, 0x00, 0x04, 0x00, 0x0c, 0x00, 0x00, 0x00, 
  0x08, 0x00, 0x00, 0x00, 0x10, 0x00, 0x00, 0x00, 0x01, 0x00, 0x00, 0x00, 
  0x80, 0x00, 0x00, 0x00, 0x00, 0x00, 0x00, 0x00, 0x01, 0x00, 0x00, 0x00, 
  0xf8, 0x6b, 0xb1, 0x3d, 0x19, 0x00, 0x00, 0x00, 0x73, 0x65, 0x72, 0x76, 
  0x69, 0x6e, 0x67, 0x5f, 0x64, 0x65, 0x66, 0x61, 0x75, 0x6c, 0x74, 0x5f, 
  0x69, 0x6e, 0x70, 0x75, 0x74, 0x5f, 0x31, 0x3a, 0x30, 0x00, 0x00, 0x00, 
  0x04, 0x00, 0x00, 0x00, 0x01, 0x00, 0x00, 0x00, 0x10, 0x00, 0x00, 0x00, 
  0x80, 0x00, 0x00, 0x00, 0x01, 0x00, 0x00, 0x00, 0x08, 0x00, 0x00, 0x00, 
  0xac, 0x00, 0x00, 0x00, 0x8c, 0x00, 0x00, 0x00, 0x6c, 0x00, 0x00, 0x00, 
  0x60, 0x00, 0x00, 0x00, 0x44, 0x00, 0x00, 0x00, 0x28, 0x00, 0x00, 0x00, 
  0x14, 0x00, 0x00, 0x00, 0x04, 0x00, 0x00, 0x00, 0x80, 0xff, 0xff, 0xff, 
  0x16, 0x00, 0x00, 0x00, 0x00, 0x00, 0x00, 0x16, 0xa8, 0xff, 0xff, 0xff, 
  0x01, 0x00, 0x00, 0x00, 0x02, 0x00, 0x00, 0x00, 0x00, 0x00, 0x00, 0x01, 
  0x9c, 0xff, 0xff, 0xff, 0x75, 0x00, 0x00, 0x00, 0x00, 0x00, 0x00, 0x75, 
  0x0c, 0x00, 0x0e, 0x00, 0x0d, 0x00, 0x00, 0x00, 0x08, 0x00, 0x04, 0x00, 
  0x0c, 0x00, 0x00, 0x00, 0x04, 0x00, 0x00, 0x00, 0x03, 0x00, 0x00, 0x00, 
  0x00, 0x04, 0x0a, 0x00, 0x08, 0x00, 0x00, 0x00, 0x00, 0x00, 0x04, 0x00, 
  0x0a, 0x00, 0x00, 0x00, 0x02, 0x00, 0x00, 0x00, 0xf0, 0xff, 0xff, 0xff, 
  0x12, 0x00, 0x00, 0x00, 0x02, 0x00, 0x00, 0x00, 0x00, 0x00, 0x00, 0x12, 
  0x0c, 0x00, 0x10, 0x00, 0x0f, 0x00, 0x00, 0x00, 0x08, 0x00, 0x04, 0x00, 
  0x0c, 0x00, 0x00, 0x00, 0x03, 0x00, 0x00, 0x00, 0x03, 0x00, 0x00, 0x00, 
  0x00, 0x00, 0x00, 0x03, 0x0c, 0x00, 0x0c, 0x00, 0x0b, 0x00, 0x00, 0x00, 
  0x00, 0x00, 0x04, 0x00, 0x0c, 0x00, 0x00, 0x00, 0x72, 0x00, 0x00, 0x00, 
  0x00, 0x00, 0x00, 0x72, 
};
