const unsigned char eegnet[] = {
  0x20, 0x00, 0x00, 0x00, 0x54, 0x46, 0x4c, 0x33, 0x00, 0x00, 0x00, 0x00, 
  0x14, 0x00, 0x20, 0x00, 0x1c, 0x00, 0x18, 0x00, 0x14, 0x00, 0x10, 0x00, 
  0x0c, 0x00, 0x00, 0x00, 0x08, 0x00, 0x04, 0x00, 0x14, 0x00, 0x00, 0x00, 
  0x1c, 0x00, 0x00, 0x00, 0x88, 0x00, 0x00, 0x00, 0xe0, 0x00, 0x00, 0x00, 
  0x8c, 0x0c, 0x00, 0x00, 0x9c, 0x0c, 0x00, 0x00, 0x4c, 0x2f, 0x00, 0x00, 
  0x03, 0x00, 0x00, 0x00, 0x01, 0x00, 0x00, 0x00, 0x04, 0x00, 0x00, 0x00, 
  0x32, 0xf1, 0xff, 0xff, 0x0c, 0x00, 0x00, 0x00, 0x1c, 0x00, 0x00, 0x00, 
  0x40, 0x00, 0x00, 0x00, 0x0f, 0x00, 0x00, 0x00, 0x73, 0x65, 0x72, 0x76, 
  0x69, 0x6e, 0x67, 0x5f, 0x64, 0x65, 0x66, 0x61, 0x75, 0x6c, 0x74, 0x00, 
  0x01, 0x00, 0x00, 0x00, 0x04, 0x00, 0x00, 0x00, 0x94, 0xff, 0xff, 0xff, 
  0x1e, 0x00, 0x00, 0x00, 0x04, 0x00, 0x00, 0x00, 0x0d, 0x00, 0x00, 0x00, 
  0x71, 0x75, 0x61, 0x6e, 0x74, 0x5f, 0x66, 0x6c, 0x61, 0x74, 0x74, 0x65, 
  0x6e, 0x00, 0x00, 0x00, 0x01, 0x00, 0x00, 0x00, 0x04, 0x00, 0x00, 0x00, 
  0x02, 0xf4, 0xff, 0xff, 0x04, 0x00, 0x00, 0x00, 0x07, 0x00, 0x00, 0x00, 
  0x69, 0x6e, 0x70, 0x75, 0x74, 0x5f, 0x31, 0x00, 0x02, 0x00, 0x00, 0x00, 
  0x34, 0x00, 0x00, 0x00, 0x04, 0x00, 0x00, 0x00, 0xdc, 0xff, 0xff, 0xff, 
  0x21, 0x00, 0x00, 0x00, 0x04, 0x00, 0x00, 0x00, 0x13, 0x00, 0x00, 0x00, 
  0x43, 0x4f, 0x4e, 0x56, 0x45, 0x52, 0x53, 0x49, 0x4f, 0x4e, 0x5f, 0x4d, 
  0x45, 0x54, 0x41, 0x44, 0x41, 0x54, 0x41, 0x00, 0x08, 0x00, 0x0c, 0x00, 
  0x08, 0x00, 0x04, 0x00, 0x08, 0x00, 0x00, 0x00, 0x20, 0x00, 0x00, 0x00, 
  0x04, 0x00, 0x00, 0x00, 0x13, 0x00, 0x00, 0x00, 0x6d, 0x69, 0x6e, 0x5f, 
  0x72, 0x75, 0x6e, 0x74, 0x69, 0x6d, 0x65, 0x5f, 0x76, 0x65, 0x72, 0x73, 
  0x69, 0x6f, 0x6e, 0x00, 0x22, 0x00, 0x00, 0x00, 0xa8, 0x0b, 0x00, 0x00, 
  0xa0, 0x0b, 0x00, 0x00, 0x88, 0x0b, 0x00, 0x00, 0x60, 0x0b, 0x00, 0x00, 
  0xd0, 0x0a, 0x00, 0x00, 0xc0, 0x08, 0x00, 0x00, 0x90, 0x08, 0x00, 0x00, 
  0x60, 0x08, 0x00, 0x00, 0xd0, 0x07, 0x00, 0x00, 0xc8, 0x07, 0x00, 0x00, 
  0xb8, 0x05, 0x00, 0x00, 0x98, 0x05, 0x00, 0x00, 0x78, 0x05, 0x00, 0x00, 
  0x70, 0x05, 0x00, 0x00, 0x60, 0x01, 0x00, 0x00, 0x10, 0x01, 0x00, 0x00, 
  0x08, 0x01, 0x00, 0x00, 0x00, 0x01, 0x00, 0x00, 0xf8, 0x00, 0x00, 0x00, 
  0xf0, 0x00, 0x00, 0x00, 0xe8, 0x00, 0x00, 0x00, 0xe0, 0x00, 0x00, 0x00, 
  0xd8, 0x00, 0x00, 0x00, 0xd0, 0x00, 0x00, 0x00, 0xc8, 0x00, 0x00, 0x00, 
  0xc0, 0x00, 0x00, 0x00, 0xb8, 0x00, 0x00, 0x00, 0xb0, 0x00, 0x00, 0x00, 
  0xa8, 0x00, 0x00, 0x00, 0xa0, 0x00, 0x00, 0x00, 0x98, 0x00, 0x00, 0x00, 
  0x90, 0x00, 0x00, 0x00, 0x70, 0x00, 0x00, 0x00, 0x04, 0x00, 0x00, 0x00, 
  0xfe, 0xf4, 0xff, 0xff, 0x04, 0x00, 0x00, 0x00, 0x5c, 0x00, 0x00, 0x00, 
  0x0c, 0x00, 0x00, 0x00, 0x08, 0x00, 0x0e, 0x00, 0x08, 0x00, 0x04, 0x00, 
  0x08, 0x00, 0x00, 0x00, 0x10, 0x00, 0x00, 0x00, 0x2c, 0x00, 0x00, 0x00, 
  0x00, 0x00, 0x06, 0x00, 0x08, 0x00, 0x04, 0x00, 0x06, 0x00, 0x00, 0x00, 
  0x04, 0x00, 0x00, 0x00, 0x02, 0x00, 0x00, 0x00, 0xeb, 0x03, 0x00, 0x00, 
  0xd0, 0x07, 0x00, 0x00, 0x00, 0x00, 0x0a, 0x00, 0x10, 0x00, 0x0c, 0x00, 
  0x08, 0x00, 0x04, 0x00, 0x0a, 0x00, 0x00, 0x00, 0x02, 0x00, 0x00, 0x00, 
  0x02, 0x00, 0x00, 0x00, 0x04, 0x00, 0x00, 0x00, 0x06, 0x00, 0x00, 0x00, 
  0x32, 0x2e, 0x31, 0x34, 0x2e, 0x31, 0x00, 0x00, 0x66, 0xf5, 0xff, 0xff, 
  0x04, 0x00, 0x00, 0x00, 0x10, 0x00, 0x00, 0x00, 0x31, 0x2e, 0x31, 0x35, 
  0x2e, 0x30, 0x00, 0x00, 0x00, 0x00, 0x00, 0x00, 0x00, 0x00, 0x00, 0x00, 
  0x80, 0xd3, 0xff, 0xff, 0x84, 0xd3, 0xff, 0xff, 0x88, 0xd3, 0xff, 0xff, 
  0x8c, 0xd3, 0xff, 0xff, 0x90, 0xd3, 0xff, 0xff, 0x94, 0xd3, 0xff, 0xff, 
  0x98, 0xd3, 0xff, 0xff, 0x9c, 0xd3, 0xff, 0xff, 0xa0, 0xd3, 0xff, 0xff, 
  0xa4, 0xd3, 0xff, 0xff, 0xa8, 0xd3, 0xff, 0xff, 0xac, 0xd3, 0xff, 0xff, 
  0xb0, 0xd3, 0xff, 0xff, 0xb4, 0xd3, 0xff, 0xff, 0xb8, 0xd3, 0xff, 0xff, 
  0xbc, 0xd3, 0xff, 0xff, 0xc2, 0xf5, 0xff, 0xff, 0x04, 0x00, 0x00, 0x00, 
  0x40, 0x00, 0x00, 0x00, 0x00, 0x00, 0x00, 0x00, 0x00, 0x00, 0x00, 0x00, 
  0x00, 0x00, 0x00, 0x00, 0x00, 0x00, 0x00, 0x00, 0x00, 0x00, 0x00, 0x00, 
  0x00, 0x00, 0x00, 0x00, 0x00, 0x00, 0x00, 0x00, 0x00, 0x00, 0x00, 0x00, 
  0x00, 0x00, 0x00, 0x00, 0x00, 0x00, 0x00, 0x00, 0x00, 0x00, 0x00, 0x00, 
  0x00, 0x00, 0x00, 0x00, 0x00, 0x00, 0x00, 0x00, 0x00, 0x00, 0x00, 0x00, 
  0x00, 0x00, 0x00, 0x00, 0x00, 0x00, 0x00, 0x00, 0x0e, 0xf6, 0xff, 0xff, 
  0x04, 0x00, 0x00, 0x00, 0x00, 0x04, 0x00, 0x00, 0xb7, 0xe6, 0x17, 0xe3, 
  0x30, 0xcf, 0x5f, 0xe2, 0x5f, 0x30, 0x28, 0x49, 0xcb, 0x21, 0x32, 0xc1, 
  0xec, 0xed, 0xd8, 0x00, 0xcb, 0xf6, 0xde, 0xcd, 0xf4, 0xde, 0xdf, 0xf5, 
  0xd5, 0xf8, 0x04, 0xfe, 0xfb, 0x1f, 0x7f, 0xee, 0x53, 0x4f, 0xe7, 0x64, 
  0xd1, 0xdf, 0x39, 0xb9, 0x0b, 0xd5, 0x1a, 0x25, 0xd4, 0xee, 0x42, 0xae, 
  0x34, 0xc3, 0xd0, 0xfa, 0x27, 0x97, 0x28, 0xe4, 0x2b, 0xe5, 0x79, 0xd5, 
  0xdf, 0x5c, 0xd3, 0xc6, 0xa0, 0xcd, 0x2c, 0x55, 0x13, 0x2a, 0xae, 0x4e, 
  0x2d, 0xc7, 0x38, 0x44, 0xf4, 0xcd, 0xbc, 0x6b, 0xbe, 0x56, 0x14, 0xd1, 
  0x00, 0x19, 0x15, 0x70, 0xda, 0xe2, 0x09, 0x78, 0xc5, 0xc3, 0x35, 0xf1, 
  0x82, 0xc8, 0x04, 0x81, 0xa6, 0x9f, 0xfe, 0xd3, 0xd7, 0xc9, 0x3c, 0xda, 
  0x0c, 0x44, 0x20, 0x5a, 0x42, 0x35, 0x5d, 0x5d, 0xb4, 0x6f, 0xad, 0x4b, 
  0xc0, 0x39, 0x01, 0xa7, 0x49, 0x51, 0xe8, 0xca, 0xfd, 0xe5, 0xbe, 0x51, 
  0x60, 0xdc, 0x9e, 0x06, 0x28, 0x7f, 0x9b, 0xe3, 0x23, 0xe0, 0x2b, 0xf8, 
  0x35, 0xd0, 0x06, 0xd0, 0xdb, 0x59, 0xeb, 0x7d, 0x9d, 0x03, 0xd3, 0x24, 
  0x16, 0x90, 0x86, 0x40, 0x00, 0x2e, 0x25, 0x65, 0x23, 0x91, 0xd0, 0x9d, 
  0xec, 0x15, 0x08, 0xaf, 0xf0, 0xfb, 0xd6, 0x4e, 0x7a, 0x48, 0xc6, 0x9e, 
  0xac, 0xa2, 0x3f, 0xb9, 0x0a, 0x3d, 0x2f, 0xde, 0xf9, 0xc9, 0x62, 0x63, 
  0x98, 0xba, 0x4f, 0x54, 0x94, 0x9b, 0x31, 0x35, 0x24, 0xb1, 0xdf, 0x65, 
  0x7f, 0xc1, 0xb8, 0xb2, 0xef, 0x46, 0xd9, 0x33, 0x27, 0x00, 0xf9, 0xdc, 
  0xde, 0x30, 0xf8, 0xd9, 0x32, 0x00, 0xee, 0x06, 0x01, 0x42, 0xcf, 0xf9, 
  0xc5, 0x43, 0xc6, 0x39, 0xdd, 0x3b, 0x19, 0xba, 0x4a, 0xc5, 0x28, 0xac, 
  0x33, 0xd6, 0x3b, 0xf4, 0xf4, 0x0b, 0x09, 0xfc, 0x23, 0xd7, 0xfa, 0xfe, 
  0x81, 0xf4, 0xd6, 0xaa, 0xd8, 0xac, 0xf4, 0x94, 0xe5, 0xa5, 0xee, 0x85, 
  0x0c, 0x0f, 0x87, 0x15, 0xe1, 0xf5, 0x17, 0xaa, 0xf1, 0x16, 0xae, 0x37, 
  0xce, 0xea, 0x18, 0xfd, 0xea, 0x52, 0xe1, 0x0e, 0x2d, 0x09, 0x31, 0x1d, 
  0x14, 0x37, 0xdf, 0x47, 0xcf, 0x31, 0xe8, 0xfc, 0xc5, 0x4a, 0xb8, 0x30, 
  0xac, 0x2e, 0xb8, 0x27, 0xde, 0xcd, 0x17, 0xd5, 0x36, 0xb2, 0xee, 0xc4, 
  0x25, 0x9d, 0x0a, 0xce, 0xf7, 0xcb, 0x36, 0x0e, 0xe8, 0xf5, 0x6d, 0xc9, 
  0xcc, 0xa8, 0xfc, 0xab, 0xbe, 0x05, 0xd1, 0x03, 0x1c, 0xb5, 0xbb, 0x2b, 
  0xf9, 0x0d, 0xd7, 0xd2, 0x81, 0xa1, 0xce, 0xbc, 0xf0, 0x6d, 0xf8, 0xf2, 
  0x3b, 0x8c, 0x9e, 0x0e, 0x90, 0xd6, 0xda, 0x04, 0xd4, 0x7a, 0x0a, 0xd9, 
  0xc8, 0xf3, 0xda, 0xc3, 0xbf, 0xc2, 0x07, 0x5c, 0xb6, 0x04, 0xd9, 0x47, 
  0xdf, 0x0b, 0x34, 0xed, 0x84, 0xc8, 0xef, 0x4b, 0xba, 0xca, 0xfd, 0xa5, 
  0xcb, 0xd9, 0xe4, 0xc9, 0x97, 0xdd, 0x81, 0x0c, 0xcd, 0x31, 0x8e, 0x39, 
  0xe8, 0xe3, 0xea, 0x2a, 0x38, 0x28, 0xf8, 0x4b, 0x2f, 0x95, 0x45, 0xd8, 
  0x0d, 0x52, 0x1f, 0xcf, 0x0d, 0xec, 0xc0, 0x12, 0xc2, 0x49, 0xee, 0x3e, 
  0x27, 0x0d, 0xae, 0x3d, 0x24, 0x31, 0xf2, 0x3d, 0x47, 0xbb, 0xb0, 0xd6, 
  0x00, 0x13, 0x3a, 0x47, 0xd4, 0xb9, 0xa4, 0xc4, 0x78, 0xe6, 0xca, 0x5f, 
  0x1c, 0x26, 0xdd, 0xe0, 0x08, 0x32, 0xe3, 0xc5, 0xe4, 0x19, 0x32, 0x1b, 
  0x10, 0x32, 0xde, 0x1f, 0x2a, 0x09, 0x31, 0x3c, 0x4d, 0x47, 0x09, 0xd8, 
  0x7f, 0xfa, 0xef, 0x68, 0x7f, 0x29, 0x27, 0x48, 0xfa, 0x45, 0x17, 0x49, 
  0x48, 0x68, 0x37, 0x55, 0x61, 0xcc, 0xf4, 0x09, 0xeb, 0x72, 0x03, 0x49, 
  0x55, 0x2b, 0xf8, 0x02, 0x25, 0xec, 0x22, 0xf6, 0xfd, 0x33, 0x30, 0xe9, 
  0xd0, 0xcd, 0xcd, 0xb6, 0x4d, 0xda, 0x5a, 0x24, 0x0e, 0xca, 0xda, 0xc6, 
  0x86, 0xce, 0x1e, 0xe7, 0xfb, 0x16, 0x64, 0x3b, 0x7f, 0x2c, 0xe1, 0xd1, 
  0x9c, 0xbd, 0xb9, 0xe4, 0x0e, 0x6a, 0x0e, 0x2c, 0x28, 0x73, 0xeb, 0x34, 
  0xec, 0x16, 0xc8, 0xac, 0xfb, 0x2a, 0xea, 0x3c, 0x26, 0x48, 0xed, 0xf1, 
  0x30, 0xfc, 0x02, 0x37, 0x31, 0xbf, 0x0b, 0xe2, 0x28, 0x03, 0xe9, 0xe0, 
  0x29, 0x3c, 0x15, 0x04, 0x36, 0x1f, 0xef, 0x42, 0x07, 0xa7, 0x4d, 0x2e, 
  0x81, 0xa2, 0x64, 0x39, 0xd7, 0x9c, 0x30, 0xed, 0xed, 0xe6, 0x40, 0xff, 
  0xb6, 0xee, 0xfa, 0xf9, 0xbd, 0x2b, 0x0f, 0xf6, 0xd3, 0xd9, 0x17, 0x2b, 
  0xdb, 0xdc, 0x4a, 0xd1, 0xdb, 0x2a, 0xdb, 0x0e, 0xe4, 0x37, 0xbb, 0x1b, 
  0xef, 0x0f, 0x1f, 0xf2, 0x0f, 0x42, 0xbb, 0x13, 0x16, 0x08, 0x19, 0xe0, 
  0x06, 0xc5, 0x36, 0x2a, 0xd2, 0xda, 0x40, 0x3c, 0xb5, 0x00, 0x1c, 0x16, 
  0x0f, 0xd5, 0xbc, 0x20, 0x1e, 0x67, 0xdb, 0xd9, 0xcc, 0xec, 0x17, 0x19, 
  0x1d, 0x14, 0xdd, 0xdf, 0xda, 0x0d, 0x39, 0x30, 0xa3, 0xfd, 0x2c, 0xeb, 
  0xd3, 0x0b, 0x62, 0x0c, 0x8e, 0xd8, 0x66, 0xe6, 0xc5, 0x6a, 0x2f, 0x81, 
  0xf3, 0x15, 0x22, 0xf1, 0x3c, 0xcf, 0xef, 0x2b, 0xdd, 0xee, 0xec, 0xe9, 
  0x37, 0x37, 0xce, 0xe7, 0x01, 0xf3, 0x56, 0xba, 0xd4, 0x34, 0x39, 0xce, 
  0x3e, 0xbf, 0xdd, 0x27, 0x7f, 0x57, 0xc0, 0x5f, 0xd4, 0x3f, 0x9e, 0x45, 
  0x0e, 0x47, 0xe4, 0x3a, 0x51, 0x65, 0x5f, 0xb1, 0x08, 0x06, 0xd7, 0x08, 
  0x1d, 0xe6, 0x09, 0x05, 0xe3, 0x3f, 0x52, 0xeb, 0xbe, 0x01, 0x15, 0xb6, 
  0xb1, 0xec, 0x28, 0xcb, 0xf3, 0xe1, 0x03, 0xbd, 0x03, 0x05, 0xb3, 0xb9, 
  0xd1, 0x03, 0x2c, 0xc9, 0x2d, 0xdd, 0xbd, 0x2c, 0x8d, 0x02, 0xda, 0xc1, 
  0xdb, 0xc7, 0x49, 0xfe, 0xfe, 0xef, 0x45, 0xe5, 0x9c, 0x4e, 0xad, 0xa1, 
  0xb8, 0x12, 0x9f, 0xae, 0xcf, 0xbc, 0xdd, 0x17, 0xb1, 0xd2, 0xe4, 0x58, 
  0xb5, 0x15, 0x3a, 0xd7, 0x2e, 0x4c, 0xf2, 0x32, 0x9d, 0xed, 0xb8, 0xca, 
  0xd0, 0x38, 0xa6, 0xfe, 0x37, 0xd5, 0xca, 0x3c, 0xca, 0xf6, 0x4c, 0x25, 
  0xe7, 0x16, 0x0e, 0x40, 0xc5, 0x37, 0x06, 0xd8, 0xf5, 0xf8, 0xcd, 0xaf, 
  0x00, 0x07, 0x16, 0xf6, 0xed, 0x31, 0x0e, 0x06, 0x81, 0xc7, 0x11, 0x21, 
  0x11, 0x06, 0x1e, 0xf1, 0x12, 0xe2, 0xcd, 0x3f, 0x07, 0xd8, 0xba, 0x1e, 
  0x1c, 0xbd, 0xf5, 0x34, 0xe8, 0xec, 0x46, 0x19, 0xd2, 0x3d, 0xec, 0x34, 
  0x0b, 0x9e, 0x49, 0x81, 0x3d, 0xbe, 0xbd, 0xb1, 0x0f, 0xa3, 0xc9, 0x05, 
  0x24, 0xbf, 0x20, 0x41, 0xe8, 0x18, 0x5c, 0x1b, 0x65, 0xda, 0x41, 0xfc, 
  0x12, 0x1c, 0xed, 0x16, 0xc2, 0x18, 0xd1, 0xd8, 0xf1, 0x18, 0xf1, 0xb3, 
  0x3c, 0xef, 0x16, 0xf4, 0xfd, 0x3c, 0x5e, 0x60, 0x3a, 0x39, 0x52, 0xfe, 
  0xfe, 0x7f, 0x34, 0x05, 0x09, 0xed, 0x6d, 0x19, 0x37, 0x05, 0x7e, 0xf0, 
  0x53, 0x47, 0x2f, 0xe5, 0xef, 0x4d, 0xf4, 0xb2, 0x52, 0xfb, 0x29, 0x18, 
  0xf0, 0x34, 0xc8, 0x4e, 0xcd, 0x2e, 0x02, 0x0e, 0xc0, 0x11, 0xfc, 0x0f, 
  0x2d, 0xc5, 0xc5, 0x10, 0x22, 0xfc, 0xb1, 0x2e, 0xcd, 0x22, 0x46, 0xbc, 
  0xbd, 0xc8, 0xd3, 0x21, 0xf8, 0x02, 0x1f, 0xca, 0xfb, 0x07, 0x15, 0x0c, 
  0xd7, 0xca, 0xcc, 0x42, 0x41, 0x16, 0xc7, 0xf1, 0x07, 0xf4, 0x16, 0x44, 
  0xd5, 0xf9, 0x28, 0xbb, 0xfb, 0x2d, 0x07, 0xe9, 0xc8, 0xd5, 0x25, 0x7f, 
  0xdb, 0xd7, 0xe8, 0xcb, 0x26, 0x69, 0xde, 0xdb, 0xe0, 0x14, 0x3f, 0xa2, 
  0xef, 0xfd, 0xee, 0x46, 0x06, 0xce, 0xee, 0x18, 0xf8, 0x1b, 0x05, 0x10, 
  0xa8, 0x17, 0x36, 0xe7, 0xf6, 0xcb, 0xf4, 0x31, 0x0a, 0x0a, 0xd7, 0x12, 
  0x18, 0xd8, 0xff, 0xff, 0x1e, 0xfa, 0xff, 0xff, 0x04, 0x00, 0x00, 0x00, 
  0x10, 0x00, 0x00, 0x00, 0x04, 0x02, 0x08, 0x7f, 0xf7, 0xef, 0xed, 0xd8, 
  0xe4, 0x52, 0x60, 0xe6, 0xf8, 0x1e, 0xdc, 0x53, 0x3a, 0xfa, 0xff, 0xff, 
  0x04, 0x00, 0x00, 0x00, 0x10, 0x00, 0x00, 0x00, 0x68, 0x72, 0x73, 0x60, 
  0x75, 0x6c, 0x73, 0x7f, 0x64, 0x69, 0x79, 0x70, 0x73, 0x76, 0x77, 0x80, 
  0x56, 0xfa, 0xff, 0xff, 0x04, 0x00, 0x00, 0x00, 0x00, 0x02, 0x00, 0x00, 
  0xeb, 0x08, 0x7f, 0x2c, 0xfa, 0x99, 0x41, 0xf7, 0xfc, 0x07, 0xf3, 0x23, 
  0x61, 0xa3, 0x7f, 0xfc, 0xc3, 0x63, 0x97, 0xa1, 0xe6, 0x81, 0x3b, 0xd2, 
  0x4a, 0x63, 0x81, 0x1e, 0x98, 0xf2, 0x2c, 0x58, 0xc3, 0x14, 0xa5, 0x81, 
  0x26, 0xeb, 0xd1, 0x49, 0x16, 0xef, 0xdd, 0x68, 0xb0, 0x0d, 0x70, 0xdb, 
  0xe4, 0xee, 0xab, 0xcb, 0x7f, 0x5e, 0x6d, 0xec, 0xd2, 0xb7, 0x36, 0x4b, 
  0xd3, 0x4b, 0x51, 0x62, 0x81, 0x0c, 0xf9, 0x17, 0xfe, 0x54, 0x15, 0xb0, 
  0xd7, 0x13, 0x18, 0x26, 0x0f, 0xb1, 0x25, 0x49, 0x7f, 0x81, 0x5e, 0x38, 
  0xfa, 0x5b, 0x0d, 0x4a, 0xfa, 0xe5, 0xd1, 0xe8, 0x6d, 0x06, 0x3b, 0x33, 
  0xb3, 0x61, 0x22, 0x90, 0x39, 0xcf, 0xe0, 0x16, 0xa9, 0xdd, 0xf2, 0x06, 
  0x1b, 0x56, 0xf4, 0xfc, 0xde, 0x39, 0x0f, 0x5d, 0x0d, 0x03, 0x98, 0x70, 
  0x25, 0x7f, 0xc9, 0x12, 0x81, 0xf3, 0xc0, 0x14, 0x65, 0xf9, 0x3d, 0x1a, 
  0x17, 0xc0, 0x7f, 0x7f, 0xbe, 0x1e, 0x06, 0x63, 0x1d, 0x4d, 0xca, 0x0f, 
  0x1b, 0xbc, 0xfc, 0x0c, 0xc6, 0x3d, 0xc3, 0x0d, 0x9e, 0x74, 0xe1, 0xc5, 
  0xf5, 0x0c, 0x81, 0x15, 0xe9, 0xb8, 0xb5, 0xcc, 0x26, 0x15, 0x66, 0xd6, 
  0x35, 0xfe, 0xd0, 0x81, 0xe7, 0xff, 0xf1, 0x0d, 0xbb, 0x86, 0x42, 0x01, 
  0x9d, 0x48, 0x20, 0xbd, 0xeb, 0xa1, 0x32, 0x48, 0x5b, 0x48, 0x59, 0x3f, 
  0x03, 0x81, 0xe5, 0x44, 0x09, 0xa7, 0x18, 0x41, 0x34, 0xa3, 0xdc, 0x49, 
  0x37, 0x4f, 0xfb, 0xcb, 0xb4, 0xb9, 0xff, 0xca, 0x9a, 0x0b, 0x5d, 0xb8, 
  0x01, 0xef, 0xbe, 0xbc, 0xe5, 0x09, 0xc6, 0x53, 0xff, 0x82, 0x2c, 0x58, 
  0xfa, 0xb2, 0xde, 0x00, 0x81, 0x56, 0xc9, 0xf1, 0xba, 0xa5, 0xdb, 0x81, 
  0x68, 0x20, 0xa2, 0x81, 0x93, 0x50, 0xb1, 0xc7, 0x2d, 0x04, 0x2f, 0x7f, 
  0x93, 0xfc, 0x65, 0x4d, 0x5a, 0xbb, 0x60, 0x5d, 0x26, 0xf7, 0x04, 0xc0, 
  0x9f, 0xe3, 0xd6, 0xd7, 0x55, 0xf9, 0x1e, 0x42, 0xd8, 0x02, 0x37, 0x48, 
  0x85, 0xec, 0xeb, 0x36, 0x06, 0x1c, 0x94, 0x79, 0x05, 0xc1, 0xa4, 0x5c, 
  0x4d, 0x1e, 0xc1, 0x17, 0x24, 0x7f, 0xc2, 0xa3, 0x0d, 0x03, 0xd5, 0xf4, 
  0xe1, 0xb8, 0x15, 0x1a, 0xde, 0xf4, 0x7f, 0xf4, 0xf1, 0x26, 0xf5, 0x3c, 
  0x3d, 0x5c, 0x14, 0x6c, 0x10, 0x1a, 0x3b, 0x0a, 0xf0, 0x3b, 0x33, 0x06, 
  0x06, 0x40, 0xfd, 0x2d, 0xa4, 0x0b, 0xa5, 0x33, 0xfa, 0x94, 0x37, 0x81, 
  0x2f, 0x27, 0xd3, 0xd3, 0x27, 0xc4, 0xe2, 0x33, 0xb0, 0xfa, 0xa3, 0x4e, 
  0xc7, 0xfe, 0xfb, 0x35, 0xd2, 0x9a, 0xf8, 0x06, 0xb0, 0x6e, 0xe8, 0x01, 
  0x46, 0xe1, 0xf9, 0xd6, 0x22, 0xc0, 0x08, 0xfb, 0x3b, 0xf1, 0xe7, 0x41, 
  0x13, 0xcb, 0xee, 0x5c, 0x08, 0xe9, 0xd4, 0x3a, 0x5d, 0x31, 0xd2, 0x30, 
  0x64, 0xb9, 0xdf, 0x36, 0xc0, 0x0c, 0x3a, 0x1d, 0xa7, 0xbb, 0x90, 0x4d, 
  0x16, 0xc0, 0x23, 0xe1, 0x44, 0x0a, 0x06, 0x07, 0xed, 0x19, 0xef, 0xa9, 
  0x26, 0x5a, 0x36, 0xf3, 0x4d, 0x08, 0x2f, 0xd5, 0x57, 0x1b, 0xb9, 0xb6, 
  0x1b, 0x0a, 0x1e, 0xfa, 0x8a, 0x31, 0x43, 0x35, 0xe7, 0xec, 0xfa, 0x0d, 
  0x57, 0x30, 0x12, 0x2c, 0x27, 0x08, 0x93, 0xfa, 0x31, 0x31, 0x53, 0x1b, 
  0x88, 0xf7, 0xb7, 0x7f, 0x0a, 0x59, 0x6b, 0x10, 0x10, 0x36, 0x55, 0x6f, 
  0x52, 0x89, 0xee, 0x24, 0x25, 0x30, 0xd3, 0xf5, 0xe0, 0xee, 0x2b, 0xba, 
  0x06, 0x2d, 0x81, 0x8e, 0x98, 0x77, 0xc9, 0x04, 0x36, 0xd4, 0xfa, 0xdb, 
  0xbd, 0xec, 0x29, 0x2f, 0x7f, 0xfd, 0x03, 0xb4, 0x2c, 0x7f, 0x81, 0x8a, 
  0x81, 0x81, 0x03, 0x2a, 0xb7, 0xda, 0x4c, 0x0f, 0xf6, 0xe5, 0x0a, 0x81, 
  0x7f, 0x03, 0xca, 0x48, 0x4d, 0x7f, 0xd2, 0xb2, 0x60, 0xda, 0xff, 0xff, 
  0x66, 0xfc, 0xff, 0xff, 0x04, 0x00, 0x00, 0x00, 0x80, 0x00, 0x00, 0x00, 
  0x00, 0x00, 0x00, 0x00, 0x00, 0x00, 0x00, 0x00, 0x00, 0x00, 0x00, 0x00, 
  0x00, 0x00, 0x00, 0x00, 0x00, 0x00, 0x00, 0x00, 0x00, 0x00, 0x00, 0x00, 
  0x00, 0x00, 0x00, 0x00, 0x00, 0x00, 0x00, 0x00, 0x00, 0x00, 0x00, 0x00, 
  0x00, 0x00, 0x00, 0x00, 0x00, 0x00, 0x00, 0x00, 0x00, 0x00, 0x00, 0x00, 
  0x00, 0x00, 0x00, 0x00, 0x00, 0x00, 0x00, 0x00, 0x00, 0x00, 0x00, 0x00, 
  0x00, 0x00, 0x00, 0x00, 0x00, 0x00, 0x00, 0x00, 0x00, 0x00, 0x00, 0x00, 
  0x00, 0x00, 0x00, 0x00, 0x00, 0x00, 0x00, 0x00, 0x00, 0x00, 0x00, 0x00, 
  0x00, 0x00, 0x00, 0x00, 0x00, 0x00, 0x00, 0x00, 0x00, 0x00, 0x00, 0x00, 
  0x00, 0x00, 0x00, 0x00, 0x00, 0x00, 0x00, 0x00, 0x00, 0x00, 0x00, 0x00, 
  0x00, 0x00, 0x00, 0x00, 0x00, 0x00, 0x00, 0x00, 0x00, 0x00, 0x00, 0x00, 
  0x00, 0x00, 0x00, 0x00, 0x00, 0x00, 0x00, 0x00, 0xf2, 0xfc, 0xff, 0xff, 
  0x04, 0x00, 0x00, 0x00, 0x20, 0x00, 0x00, 0x00, 0xdc, 0xf6, 0xe1, 0xce, 
  0x19, 0x7f, 0x2c, 0xde, 0xf0, 0xf5, 0xd0, 0xd8, 0xf0, 0xe3, 0xdb, 0x2f, 
  0x23, 0x6f, 0x19, 0x13, 0xf6, 0x32, 0x12, 0xe8, 0xde, 0xdb, 0xed, 0xd4, 
  0x7b, 0x0a, 0xec, 0xd2, 0x1e, 0xfd, 0xff, 0xff, 0x04, 0x00, 0x00, 0x00, 
  0x20, 0x00, 0x00, 0x00, 0xf4, 0xb9, 0x3b, 0xd2, 0xef, 0x26, 0xbe, 0x91, 
  0xc0, 0xf4, 0xc6, 0x2a, 0x11, 0x13, 0x3d, 0xee, 0xba, 0x94, 0x0c, 0x12, 
  0xd3, 0x09, 0xf0, 0x80, 0xe7, 0xf8, 0x3c, 0x47, 0xeb, 0x0c, 0x65, 0x7f, 
  0x4a, 0xfd, 0xff, 0xff, 0x04, 0x00, 0x00, 0x00, 0x00, 0x02, 0x00, 0x00, 
  0xba, 0x40, 0xae, 0x0b, 0x1a, 0x01, 0x1c, 0x66, 0x1d, 0x37, 0x0f, 0x7f, 
  0x28, 0x14, 0xc7, 0xa1, 0x0e, 0x81, 0x7f, 0x8c, 0x88, 0x81, 0xe7, 0xe8, 
  0xd3, 0xfa, 0x37, 0xa2, 0x81, 0xea, 0x72, 0xde, 0xc0, 0x27, 0xc4, 0xb2, 
  0xd2, 0xca, 0xb7, 0xd6, 0xd2, 0x7f, 0xaf, 0x78, 0x7f, 0x6d, 0x3d, 0xe7, 
  0x06, 0x9e, 0x1d, 0x92, 0xe9, 0x8d, 0x19, 0x2e, 0x81, 0x2b, 0x2c, 0xc8, 
  0xac, 0xf4, 0x37, 0xab, 0xa1, 0x55, 0x04, 0x57, 0x2b, 0xde, 0x8c, 0x7f, 
  0x7f, 0x54, 0x36, 0x3b, 0x16, 0x47, 0x02, 0xe4, 0x21, 0x92, 0x57, 0x81, 
  0x1b, 0xba, 0xde, 0x4a, 0xf1, 0x7f, 0x7b, 0xf2, 0x1d, 0xe1, 0x2a, 0xc2, 
  0xdf, 0x55, 0xd3, 0x43, 0x92, 0x0d, 0xa8, 0xe5, 0x6c, 0x6a, 0x84, 0xd4, 
  0x58, 0x9c, 0x5e, 0xa7, 0x56, 0xa2, 0x47, 0x02, 0xa7, 0xc8, 0x41, 0x68, 
  0xb1, 0xe0, 0xf9, 0x9c, 0x86, 0x3a, 0x75, 0x91, 0x81, 0x3f, 0xff, 0xf9, 
  0xff, 0x0a, 0x99, 0x34, 0x1c, 0x51, 0xbe, 0xff, 0x18, 0xe6, 0x0f, 0xbf, 
  0x7b, 0xad, 0x19, 0xac, 0x81, 0xe6, 0xbc, 0x14, 0x98, 0x28, 0x2a, 0xaa, 
  0x9b, 0x33, 0x28, 0xad, 0x9d, 0x62, 0x41, 0x08, 0x8d, 0x62, 0xdc, 0x54, 
  0x47, 0x15, 0x99, 0x10, 0x60, 0xc9, 0xec, 0xdc, 0x7e, 0x85, 0x00, 0xac, 
  0xaa, 0xcf, 0x5e, 0x7f, 0xb6, 0x4e, 0x1a, 0xc4, 0xfb, 0x81, 0x1a, 0x81, 
  0x88, 0x68, 0x3c, 0x1c, 0x1f, 0x25, 0xe7, 0x24, 0xed, 0x2d, 0xeb, 0xc6, 
  0x57, 0x2b, 0x53, 0xa6, 0x2b, 0xb1, 0x72, 0x11, 0xd1, 0xbe, 0x3d, 0x15, 
  0xd4, 0x3e, 0x23, 0xd9, 0xcc, 0xd1, 0x47, 0xaa, 0xd8, 0x42, 0x47, 0x03, 
  0xf0, 0x7b, 0x81, 0x64, 0xfb, 0x49, 0x81, 0x07, 0x41, 0xe1, 0xea, 0x81, 
  0x44, 0xc3, 0x7c, 0x9b, 0xa8, 0xaa, 0x77, 0x75, 0xbc, 0xe7, 0xe4, 0xf8, 
  0xdf, 0x4b, 0xcc, 0x90, 0xa8, 0x51, 0x34, 0x34, 0xfc, 0x4f, 0xfe, 0x27, 
  0xe5, 0x4a, 0xe8, 0xb8, 0x65, 0x0e, 0x28, 0xf6, 0x7f, 0x98, 0x48, 0xc6, 
  0x8b, 0xfb, 0xe2, 0x1f, 0xd5, 0x10, 0xc6, 0xd2, 0xe2, 0x47, 0x20, 0xb1, 
  0xc4, 0x53, 0x54, 0x87, 0xcd, 0x65, 0x8a, 0x14, 0xbd, 0x41, 0xef, 0xc3, 
  0x0b, 0x02, 0x17, 0xc5, 0x61, 0xf9, 0xf6, 0xf8, 0xc8, 0xdc, 0xda, 0x12, 
  0xf8, 0x4b, 0xeb, 0xfa, 0x32, 0x08, 0xb1, 0xb1, 0xe2, 0x3d, 0x7f, 0x0d, 
  0xa4, 0x79, 0xe6, 0x24, 0xff, 0x21, 0xb3, 0xc3, 0x44, 0x6c, 0x4d, 0xa7, 
  0x63, 0xae, 0x43, 0x15, 0x9f, 0x10, 0xb4, 0x33, 0xe9, 0xef, 0xdd, 0x18, 
  0xc0, 0x55, 0x8a, 0xfb, 0x0a, 0x51, 0x29, 0x81, 0x61, 0x7f, 0xa3, 0xdf, 
  0xd0, 0x1c, 0xb3, 0xeb, 0x1c, 0x17, 0x03, 0xab, 0x44, 0x20, 0x08, 0xba, 
  0xd6, 0x05, 0x50, 0xf4, 0x37, 0x03, 0xf4, 0x54, 0x22, 0x04, 0xec, 0xec, 
  0xa4, 0xf0, 0x78, 0x1c, 0x81, 0x65, 0xc6, 0xe0, 0xfb, 0x28, 0xf0, 0x00, 
  0xe5, 0x20, 0x1e, 0x89, 0xea, 0xc6, 0xde, 0xa1, 0xce, 0x1d, 0x71, 0x51, 
  0xec, 0x0a, 0x86, 0x7c, 0xcd, 0x07, 0x81, 0x9f, 0xa8, 0x7f, 0x18, 0xd1, 
  0x8d, 0x00, 0x12, 0x3e, 0x44, 0xfb, 0xe9, 0xd0, 0xc9, 0xae, 0x3a, 0xe5, 
  0x57, 0x16, 0xfd, 0x06, 0x05, 0xbd, 0x7f, 0x40, 0x09, 0x0c, 0x97, 0xb2, 
  0x22, 0x2a, 0xc2, 0xd8, 0xb3, 0x2e, 0x16, 0x36, 0x98, 0xf5, 0x13, 0x16, 
  0x1b, 0xea, 0xc5, 0xdc, 0xca, 0x81, 0x7d, 0xd9, 0xe0, 0xc2, 0x9e, 0xae, 
  0x13, 0x00, 0x0e, 0xd1, 0x37, 0xc3, 0x81, 0x76, 0xad, 0x2e, 0xe6, 0x19, 
  0xca, 0x3e, 0x3e, 0x42, 0x9a, 0x0e, 0x34, 0x33, 0x84, 0xe8, 0xbf, 0xc3, 
  0x1f, 0x9d, 0x7f, 0xc5, 0x4a, 0x4d, 0xe0, 0xae, 0xe1, 0xf1, 0x7b, 0x07, 
  0x12, 0x06, 0x00, 0x7f, 0x49, 0x3f, 0x95, 0xc2, 0x56, 0xff, 0xff, 0xff, 
  0x04, 0x00, 0x00, 0x00, 0x80, 0x00, 0x00, 0x00, 0xe1, 0x19, 0xcb, 0xfa, 
  0xbb, 0xc5, 0xdc, 0x9f, 0xe6, 0x6d, 0x33, 0x67, 0x1d, 0x25, 0xa4, 0x37, 
  0xd5, 0x70, 0x8d, 0x30, 0x4f, 0xc4, 0x5e, 0x18, 0x81, 0x42, 0x40, 0xb7, 
  0x59, 0xd0, 0x62, 0xe0, 0x29, 0xf3, 0x0b, 0xaa, 0x34, 0xa3, 0xb4, 0x71, 
  0x4c, 0xf2, 0x1b, 0x23, 0xa4, 0x32, 0xa9, 0xff, 0x0e, 0x8f, 0x29, 0x17, 
  0x05, 0x81, 0xcb, 0x0e, 0x67, 0x13, 0xc5, 0x3e, 0x92, 0xe9, 0xff, 0x55, 
  0x95, 0x66, 0x76, 0xf4, 0xd0, 0xf4, 0x27, 0xfc, 0x67, 0x57, 0x36, 0x69, 
  0x1d, 0x43, 0xd5, 0x5c, 0xac, 0x15, 0x14, 0x4e, 0x7f, 0x61, 0xab, 0xcf, 
  0xb2, 0x6b, 0x90, 0x0a, 0x36, 0xba, 0xfc, 0xaf, 0x0d, 0xb8, 0x02, 0xc3, 
  0x96, 0x1e, 0x94, 0x7a, 0xeb, 0xdd, 0xb6, 0x6f, 0xd0, 0xfc, 0x20, 0x94, 
  0x74, 0x39, 0x5f, 0xad, 0x81, 0xc0, 0x51, 0x49, 0xb9, 0x59, 0x05, 0xfb, 
  0x24, 0xad, 0x22, 0x3a, 0xe2, 0xff, 0xff, 0xff, 0x04, 0x00, 0x00, 0x00, 
  0x10, 0x00, 0x00, 0x00, 0x7b, 0x03, 0x00, 0x00, 0x09, 0x02, 0x00, 0x00, 
  0xb9, 0x00, 0x00, 0x00, 0x02, 0xf5, 0xff, 0xff, 0x00, 0x00, 0x06, 0x00, 
  0x08, 0x00, 0x04, 0x00, 0x06, 0x00, 0x00, 0x00, 0x04, 0x00, 0x00, 0x00, 
  0x08, 0x00, 0x00, 0x00, 0xff, 0xff, 0xff, 0xff, 0x10, 0x00, 0x00, 0x00, 
  0x18, 0xde, 0xff, 0xff, 0x1c, 0xde, 0xff, 0xff, 0x0f, 0x00, 0x00, 0x00, 
  0x4d, 0x4c, 0x49, 0x52, 0x20, 0x43, 0x6f, 0x6e, 0x76, 0x65, 0x72, 0x74, 
  0x65, 0x64, 0x2e, 0x00, 0x01, 0x00, 0x00, 0x00, 0x14, 0x00, 0x00, 0x00, 
  0x00, 0x00, 0x0e, 0x00, 0x18, 0x00, 0x14, 0x00, 0x10, 0x00, 0x0c, 0x00, 
  0x08, 0x00, 0x04, 0x00, 0x0e, 0x00, 0x00, 0x00, 0x14, 0x00, 0x00, 0x00, 
  0x1c, 0x00, 0x00, 0x00, 0xd0, 0x03, 0x00, 0x00, 0xd4, 0x03, 0x00, 0x00, 
  0xd8, 0x03, 0x00, 0x00, 0x04, 0x00, 0x00, 0x00, 0x6d, 0x61, 0x69, 0x6e, 
  0x00, 0x00, 0x00, 0x00, 0x11, 0x00, 0x00, 0x00, 0x98, 0x03, 0x00, 0x00, 
  0x4c, 0x03, 0x00, 0x00, 0x08, 0x03, 0x00, 0x00, 0xd4, 0x02, 0x00, 0x00, 
  0x80, 0x02, 0x00, 0x00, 0x4c, 0x02, 0x00, 0x00, 0x18, 0x02, 0x00, 0x00, 
  0xf4, 0x01, 0x00, 0x00, 0x94, 0x01, 0x00, 0x00, 0x74, 0x01, 0x00, 0x00, 
  0x24, 0x01, 0x00, 0x00, 0xd4, 0x00, 0x00, 0x00, 0xb0, 0x00, 0x00, 0x00, 
  0x6c, 0x00, 0x00, 0x00, 0x4c, 0x00, 0x00, 0x00, 0x24, 0x00, 0x00, 0x00, 
  0x04, 0x00, 0x00, 0x00, 0xb6, 0xfc, 0xff, 0xff, 0x08, 0x00, 0x00, 0x00, 
  0x0c, 0x00, 0x00, 0x00, 0x01, 0x00, 0x00, 0x00, 0x1e, 0x00, 0x00, 0x00, 
  0x01, 0x00, 0x00, 0x00, 0x1d, 0x00, 0x00, 0x00, 0x5a, 0xfe, 0xff, 0xff, 
  0x0c, 0x00, 0x00, 0x00, 0x10, 0x00, 0x00, 0x00, 0x07, 0x00, 0x00, 0x00, 
  0x01, 0x00, 0x00, 0x00, 0x1d, 0x00, 0x00, 0x00, 0x02, 0x00, 0x00, 0x00, 
  0x1c, 0x00, 0x00, 0x00, 0x01, 0x00, 0x00, 0x00, 0xf6, 0xfc, 0xff, 0xff, 
  0x08, 0x00, 0x00, 0x00, 0x0c, 0x00, 0x00, 0x00, 0x01, 0x00, 0x00, 0x00, 
  0x1c, 0x00, 0x00, 0x00, 0x01, 0x00, 0x00, 0x00, 0x1b, 0x00, 0x00, 0x00, 
  0x5e, 0xfd, 0xff, 0xff, 0x14, 0x00, 0x00, 0x00, 0x00, 0x00, 0x00, 0x05, 
  0x24, 0x00, 0x00, 0x00, 0x28, 0x00, 0x00, 0x00, 0x06, 0x00, 0x00, 0x00, 
  0xea, 0xfe, 0xff, 0xff, 0x01, 0x00, 0x00, 0x00, 0x08, 0x00, 0x00, 0x00, 
  0x01, 0x00, 0x00, 0x00, 0x08, 0x00, 0x00, 0x00, 0x00, 0x00, 0x00, 0x01, 
  0x01, 0x00, 0x00, 0x00, 0x1b, 0x00, 0x00, 0x00, 0x01, 0x00, 0x00, 0x00, 
  0x1a, 0x00, 0x00, 0x00, 0xda, 0xfe, 0xff, 0xff, 0x0c, 0x00, 0x00, 0x00, 
  0x10, 0x00, 0x00, 0x00, 0x05, 0x00, 0x00, 0x00, 0x01, 0x00, 0x00, 0x00, 
  0x1a, 0x00, 0x00, 0x00, 0x01, 0x00, 0x00, 0x00, 0x19, 0x00, 0x00, 0x00, 
  0xbe, 0xfd, 0xff, 0xff, 0x20, 0x00, 0x00, 0x00, 0x00, 0x00, 0x00, 0x01, 
  0x28, 0x00, 0x00, 0x00, 0x2c, 0x00, 0x00, 0x00, 0x01, 0x00, 0x00, 0x00, 
  0x00, 0x00, 0x0a, 0x00, 0x10, 0x00, 0x0f, 0x00, 0x08, 0x00, 0x04, 0x00, 
  0x0a, 0x00, 0x00, 0x00, 0x01, 0x00, 0x00, 0x00, 0x01, 0x00, 0x00, 0x00, 
  0x00, 0x00, 0x00, 0x01, 0x01, 0x00, 0x00, 0x00, 0x19, 0x00, 0x00, 0x00, 
  0x03, 0x00, 0x00, 0x00, 0x18, 0x00, 0x00, 0x00, 0x03, 0x00, 0x00, 0x00, 
  0x02, 0x00, 0x00, 0x00, 0x0a, 0xfe, 0xff, 0xff, 0x20, 0x00, 0x00, 0x00, 
  0x00, 0x00, 0x00, 0x02, 0x28, 0x00, 0x00, 0x00, 0x2c, 0x00, 0x00, 0x00, 
  0x04, 0x00, 0x00, 0x00, 0x0c, 0x00, 0x10, 0x00, 0x00, 0x00, 0x0c, 0x00, 
  0x08, 0x00, 0x04, 0x00, 0x0c, 0x00, 0x00, 0x00, 0x01, 0x00, 0x00, 0x00, 
  0x01, 0x00, 0x00, 0x00, 0x01, 0x00, 0x00, 0x00, 0x01, 0x00, 0x00, 0x00, 
  0x18, 0x00, 0x00, 0x00, 0x03, 0x00, 0x00, 0x00, 0x17, 0x00, 0x00, 0x00, 
  0x04, 0x00, 0x00, 0x00, 0x08, 0x00, 0x00, 0x00, 0x0a, 0xfe, 0xff, 0xff, 
  0x08, 0x00, 0x00, 0x00, 0x0c, 0x00, 0x00, 0x00, 0x01, 0x00, 0x00, 0x00, 
  0x17, 0x00, 0x00, 0x00, 0x01, 0x00, 0x00, 0x00, 0x16, 0x00, 0x00, 0x00, 
  0x72, 0xfe, 0xff, 0xff, 0x24, 0x00, 0x00, 0x00, 0x00, 0x00, 0x00, 0x05, 
  0x34, 0x00, 0x00, 0x00, 0x38, 0x00, 0x00, 0x00, 0x06, 0x00, 0x00, 0x00, 
  0x00, 0x00, 0x0e, 0x00, 0x18, 0x00, 0x17, 0x00, 0x10, 0x00, 0x0c, 0x00, 
  0x08, 0x00, 0x04, 0x00, 0x0e, 0x00, 0x00, 0x00, 0x01, 0x00, 0x00, 0x00, 
  0x04, 0x00, 0x00, 0x00, 0x01, 0x00, 0x00, 0x00, 0x04, 0x00, 0x00, 0x00, 
  0x00, 0x00, 0x00, 0x01, 0x01, 0x00, 0x00, 0x00, 0x16, 0x00, 0x00, 0x00, 
  0x01, 0x00, 0x00, 0x00, 0x15, 0x00, 0x00, 0x00, 0x00, 0x00, 0x0a, 0x00, 
  0x10, 0x00, 0x0c, 0x00, 0x08, 0x00, 0x04, 0x00, 0x0a, 0x00, 0x00, 0x00, 
  0x0c, 0x00, 0x00, 0x00, 0x10, 0x00, 0x00, 0x00, 0x05, 0x00, 0x00, 0x00, 
  0x01, 0x00, 0x00, 0x00, 0x15, 0x00, 0x00, 0x00, 0x01, 0x00, 0x00, 0x00, 
  0x14, 0x00, 0x00, 0x00, 0xee, 0xfe, 0xff, 0xff, 0x14, 0x00, 0x00, 0x00, 
  0x00, 0x00, 0x00, 0x0b, 0x10, 0x00, 0x00, 0x00, 0x14, 0x00, 0x00, 0x00, 
  0x03, 0x00, 0x00, 0x00, 0xbc, 0xe0, 0xff, 0xff, 0x01, 0x00, 0x00, 0x00, 
  0x14, 0x00, 0x00, 0x00, 0x02, 0x00, 0x00, 0x00, 0x13, 0x00, 0x00, 0x00, 
  0x05, 0x00, 0x00, 0x00, 0x1e, 0xff, 0xff, 0xff, 0x14, 0x00, 0x00, 0x00, 
  0x00, 0x00, 0x00, 0x15, 0x10, 0x00, 0x00, 0x00, 0x14, 0x00, 0x00, 0x00, 
  0x02, 0x00, 0x00, 0x00, 0xec, 0xe0, 0xff, 0xff, 0x01, 0x00, 0x00, 0x00, 
  0x13, 0x00, 0x00, 0x00, 0x02, 0x00, 0x00, 0x00, 0x12, 0x00, 0x00, 0x00, 
  0x06, 0x00, 0x00, 0x00, 0x4e, 0xff, 0xff, 0xff, 0x20, 0x00, 0x00, 0x00, 
  0x00, 0x00, 0x00, 0x02, 0x2c, 0x00, 0x00, 0x00, 0x30, 0x00, 0x00, 0x00, 
  0x04, 0x00, 0x00, 0x00, 0x0c, 0x00, 0x14, 0x00, 0x13, 0x00, 0x0c, 0x00, 
  0x08, 0x00, 0x04, 0x00, 0x0c, 0x00, 0x00, 0x00, 0x02, 0x00, 0x00, 0x00, 
  0x01, 0x00, 0x00, 0x00, 0x01, 0x00, 0x00, 0x00, 0x00, 0x00, 0x00, 0x01, 
  0x01, 0x00, 0x00, 0x00, 0x12, 0x00, 0x00, 0x00, 0x03, 0x00, 0x00, 0x00, 
  0x11, 0x00, 0x00, 0x00, 0x09, 0x00, 0x00, 0x00, 0x07, 0x00, 0x00, 0x00, 
  0x9e, 0xff, 0xff, 0xff, 0x14, 0x00, 0x00, 0x00, 0x00, 0x00, 0x00, 0x0b, 
  0x10, 0x00, 0x00, 0x00, 0x14, 0x00, 0x00, 0x00, 0x03, 0x00, 0x00, 0x00, 
  0x6c, 0xe1, 0xff, 0xff, 0x01, 0x00, 0x00, 0x00, 0x11, 0x00, 0x00, 0x00, 
  0x02, 0x00, 0x00, 0x00, 0x10, 0x00, 0x00, 0x00, 0x0a, 0x00, 0x00, 0x00, 
  0xce, 0xff, 0xff, 0xff, 0x14, 0x00, 0x00, 0x00, 0x00, 0x00, 0x00, 0x15, 
  0x10, 0x00, 0x00, 0x00, 0x14, 0x00, 0x00, 0x00, 0x02, 0x00, 0x00, 0x00, 
  0x9c, 0xe1, 0xff, 0xff, 0x01, 0x00, 0x00, 0x00, 0x10, 0x00, 0x00, 0x00, 
  0x02, 0x00, 0x00, 0x00, 0x0f, 0x00, 0x00, 0x00, 0x0b, 0x00, 0x00, 0x00, 
  0x00, 0x00, 0x0e, 0x00, 0x18, 0x00, 0x14, 0x00, 0x10, 0x00, 0x0c, 0x00, 
  0x0b, 0x00, 0x04, 0x00, 0x0e, 0x00, 0x00, 0x00, 0x14, 0x00, 0x00, 0x00, 
  0x00, 0x00, 0x00, 0x01, 0x18, 0x00, 0x00, 0x00, 0x1c, 0x00, 0x00, 0x00, 
  0x01, 0x00, 0x00, 0x00, 0xda, 0xff, 0xff, 0xff, 0x01, 0x00, 0x00, 0x00, 
  0x01, 0x00, 0x00, 0x00, 0x01, 0x00, 0x00, 0x00, 0x0f, 0x00, 0x00, 0x00, 
  0x03, 0x00, 0x00, 0x00, 0x0c, 0x00, 0x00, 0x00, 0x0d, 0x00, 0x00, 0x00, 
  0x0e, 0x00, 0x00, 0x00, 0x00, 0x00, 0x0a, 0x00, 0x0c, 0x00, 0x00, 0x00, 
  0x08, 0x00, 0x04, 0x00, 0x0a, 0x00, 0x00, 0x00, 0x08, 0x00, 0x00, 0x00, 
  0x0c, 0x00, 0x00, 0x00, 0x01, 0x00, 0x00, 0x00, 0x0c, 0x00, 0x00, 0x00, 
  0x01, 0x00, 0x00, 0x00, 0x00, 0x00, 0x00, 0x00, 0x01, 0x00, 0x00, 0x00, 
  0x1e, 0x00, 0x00, 0x00, 0x01, 0x00, 0x00, 0x00, 0x00, 0x00, 0x00, 0x00, 
  0x1f, 0x00, 0x00, 0x00, 0x18, 0x1e, 0x00, 0x00, 0xa4, 0x1d, 0x00, 0x00, 
  0xdc, 0x1c, 0x00, 0x00, 0x28, 0x1c, 0x00, 0x00, 0x04, 0x1a, 0x00, 0x00, 
  0x78, 0x19, 0x00, 0x00, 0xec, 0x18, 0x00, 0x00, 0xe8, 0x16, 0x00, 0x00, 
  0xe4, 0x14, 0x00, 0x00, 0x84, 0x12, 0x00, 0x00, 0xfc, 0x11, 0x00, 0x00, 
  0x78, 0x11, 0x00, 0x00, 0x04, 0x10, 0x00, 0x00, 0x80, 0x0e, 0x00, 0x00, 
  0x54, 0x0d, 0x00, 0x00, 0xb8, 0x0c, 0x00, 0x00, 0x0c, 0x0c, 0x00, 0x00, 
  0x60, 0x0b, 0x00, 0x00, 0xbc, 0x0a, 0x00, 0x00, 0x10, 0x0a, 0x00, 0x00, 
  0x64, 0x09, 0x00, 0x00, 0xe8, 0x07, 0x00, 0x00, 0x44, 0x07, 0x00, 0x00, 
  0xb8, 0x05, 0x00, 0x00, 0x04, 0x05, 0x00, 0x00, 0x20, 0x04, 0x00, 0x00, 
  0xb4, 0x02, 0x00, 0x00, 0x10, 0x02, 0x00, 0x00, 0x64, 0x01, 0x00, 0x00, 
  0x80, 0x00, 0x00, 0x00, 0x04, 0x00, 0x00, 0x00, 0x7a, 0xe2, 0xff, 0xff, 
  0x00, 0x00, 0x00, 0x01, 0x18, 0x00, 0x00, 0x00, 0x20, 0x00, 0x00, 0x00, 
  0x3c, 0x00, 0x00, 0x00, 0x1f, 0x00, 0x00, 0x00, 0x00, 0x00, 0x00, 0x03, 
  0x50, 0x00, 0x00, 0x00, 0x02, 0x00, 0x00, 0x00, 0xff, 0xff, 0xff, 0xff, 
  0x10, 0x00, 0x00, 0x00, 0x5c, 0xe2, 0xff, 0xff, 0x08, 0x00, 0x00, 0x00, 
  0x10, 0x00, 0x00, 0x00, 0x01, 0x00, 0x00, 0x00, 0x19, 0x00, 0x00, 0x00, 
  0x00, 0x00, 0x00, 0x00, 0x01, 0x00, 0x00, 0x00, 0xa1, 0xee, 0x0e, 0x3d, 
  0x19, 0x00, 0x00, 0x00, 0x53, 0x74, 0x61, 0x74, 0x65, 0x66, 0x75, 0x6c, 
  0x50, 0x61, 0x72, 0x74, 0x69, 0x74, 0x69, 0x6f, 0x6e, 0x65, 0x64, 0x43, 
  0x61, 0x6c, 0x6c, 0x3a, 0x30, 0x00, 0x00, 0x00, 0x02, 0x00, 0x00, 0x00, 
  0x01, 0x00, 0x00, 0x00, 0x10, 0x00, 0x00, 0x00, 0xf2, 0xe2, 0xff, 0xff, 
  0x00, 0x00, 0x00, 0x01, 0x18, 0x00, 0x00, 0x00, 0x20, 0x00, 0x00, 0x00, 
  0x40, 0x00, 0x00, 0x00, 0x1e, 0x00, 0x00, 0x00, 0x00, 0x00, 0x00, 0x09, 
  0xb8, 0x00, 0x00, 0x00, 0x02, 0x00, 0x00, 0x00, 0xff, 0xff, 0xff, 0xff, 
  0x10, 0x00, 0x00, 0x00, 0xd4, 0xe2, 0xff, 0xff, 0x08, 0x00, 0x00, 0x00, 
  0x14, 0x00, 0x00, 0x00, 0x01, 0x00, 0x00, 0x00, 0x99, 0xff, 0xff, 0xff, 
  0xff, 0xff, 0xff, 0xff, 0x00, 0x00, 0x00, 0x00, 0x01, 0x00, 0x00, 0x00, 
  0xa1, 0xee, 0x0e, 0x3d, 0x7d, 0x00, 0x00, 0x00, 0x45, 0x45, 0x47, 0x4e, 
  0x65, 0x74, 0x5f, 0x46, 0x75, 0x6e, 0x63, 0x74, 0x69, 0x6f, 0x6e, 0x61, 
  0x6c, 0x2f, 0x71, 0x75, 0x61, 0x6e, 0x74, 0x5f, 0x66, 0x6c, 0x61, 0x74, 
  0x74, 0x65, 0x6e, 0x2f, 0x52, 0x65, 0x73, 0x68, 0x61, 0x70, 0x65, 0x3b, 
  0x45, 0x45, 0x47, 0x4e, 0x65, 0x74, 0x5f, 0x46, 0x75, 0x6e, 0x63, 0x74, 
  0x69, 0x6f, 0x6e, 0x61, 0x6c, 0x2f, 0x71, 0x75, 0x61, 0x6e, 0x74, 0x5f, 
  0x61, 0x76, 0x65, 0x72, 0x61, 0x67, 0x65, 0x5f, 0x70, 0x6f, 0x6f, 0x6c, 
  0x69, 0x6e, 0x67, 0x32, 0x64, 0x5f, 0x31, 0x2f, 0x4d, 0x6f, 0x76, 0x69, 
  0x6e, 0x67, 0x41, 0x76, 0x67, 0x51, 0x75, 0x61, 0x6e, 0x74, 0x69, 0x7a, 
  0x65, 0x2f, 0x46, 0x61, 0x6b, 0x65, 0x51, 0x75, 0x61, 0x6e, 0x74, 0x57, 
  0x69, 0x74, 0x68, 0x4d, 0x69, 0x6e, 0x4d, 0x61, 0x78, 0x56, 0x61, 0x72, 
  0x73, 0x00, 0x00, 0x00, 0x02, 0x00, 0x00, 0x00, 0x01, 0x00, 0x00, 0x00, 
  0x10, 0x00, 0x00, 0x00, 0xd2, 0xe3, 0xff, 0xff, 0x00, 0x00, 0x00, 0x01, 
  0x18, 0x00, 0x00, 0x00, 0x28, 0x00, 0x00, 0x00, 0x48, 0x00, 0x00, 0x00, 
  0x1d, 0x00, 0x00, 0x00, 0x00, 0x00, 0x00, 0x09, 0x78, 0x00, 0x00, 0x00, 
  0x04, 0x00, 0x00, 0x00, 0xff, 0xff, 0xff, 0xff, 0x01, 0x00, 0x00, 0x00, 
  0x04, 0x00, 0x00, 0x00, 0x04, 0x00, 0x00, 0x00, 0xbc, 0xe3, 0xff, 0xff, 
  0x08, 0x00, 0x00, 0x00, 0x14, 0x00, 0x00, 0x00, 0x01, 0x00, 0x00, 0x00, 
  0x99, 0xff, 0xff, 0xff, 0xff, 0xff, 0xff, 0xff, 0x00, 0x00, 0x00, 0x00, 
  0x01, 0x00, 0x00, 0x00, 0xa1, 0xee, 0x0e, 0x3d, 0x34, 0x00, 0x00, 0x00, 
  0x45, 0x45, 0x47, 0x4e, 0x65, 0x74, 0x5f, 0x46, 0x75, 0x6e, 0x63, 0x74, 
  0x69, 0x6f, 0x6e, 0x61, 0x6c, 0x2f, 0x71, 0x75, 0x61, 0x6e, 0x74, 0x5f, 
  0x61, 0x76, 0x65, 0x72, 0x61, 0x67, 0x65, 0x5f, 0x70, 0x6f, 0x6f, 0x6c, 
  0x69, 0x6e, 0x67, 0x32, 0x64, 0x5f, 0x31, 0x2f, 0x41, 0x76, 0x67, 0x50, 
  0x6f, 0x6f, 0x6c, 0x31, 0x00, 0x00, 0x00, 0x00, 0x04, 0x00, 0x00, 0x00, 
  0x01, 0x00, 0x00, 0x00, 0x01, 0x00, 0x00, 0x00, 0x04, 0x00, 0x00, 0x00, 
  0x04, 0x00, 0x00, 0x00, 0x7a, 0xe4, 0xff, 0xff, 0x00, 0x00, 0x00, 0x01, 
  0x18, 0x00, 0x00, 0x00, 0x28, 0x00, 0x00, 0x00, 0x44, 0x00, 0x00, 0x00, 
  0x1c, 0x00, 0x00, 0x00, 0x00, 0x00, 0x00, 0x09, 0x70, 0x00, 0x00, 0x00, 
  0x04, 0x00, 0x00, 0x00, 0xff, 0xff, 0xff, 0xff, 0x01, 0x00, 0x00, 0x00, 
  0x04, 0x00, 0x00, 0x00, 0x04, 0x00, 0x00, 0x00, 0x64, 0xe4, 0xff, 0xff, 
  0x08, 0x00, 0x00, 0x00, 0x10, 0x00, 0x00, 0x00, 0x01, 0x00, 0x00, 0x00, 
  0x93, 0xff, 0xff, 0xff, 0xff, 0xff, 0xff, 0xff, 0x01, 0x00, 0x00, 0x00, 
  0x0e, 0xa2, 0x42, 0x3d, 0x33, 0x00, 0x00, 0x00, 0x45, 0x45, 0x47, 0x4e, 
  0x65, 0x74, 0x5f, 0x46, 0x75, 0x6e, 0x63, 0x74, 0x69, 0x6f, 0x6e, 0x61, 
  0x6c, 0x2f, 0x71, 0x75, 0x61, 0x6e, 0x74, 0x5f, 0x61, 0x76, 0x65, 0x72, 
  0x61, 0x67, 0x65, 0x5f, 0x70, 0x6f, 0x6f, 0x6c, 0x69, 0x6e, 0x67, 0x32, 
  0x64, 0x5f, 0x31, 0x2f, 0x41, 0x76, 0x67, 0x50, 0x6f, 0x6f, 0x6c, 0x00, 
  0x04, 0x00, 0x00, 0x00, 0x01, 0x00, 0x00, 0x00, 0x01, 0x00, 0x00, 0x00, 
  0x04, 0x00, 0x00, 0x00, 0x04, 0x00, 0x00, 0x00, 0x1a, 0xe5, 0xff, 0xff, 
  0x00, 0x00, 0x00, 0x01, 0x18, 0x00, 0x00, 0x00, 0x28, 0x00, 0x00, 0x00, 
  0x48, 0x00, 0x00, 0x00, 0x1b, 0x00, 0x00, 0x00, 0x00, 0x00, 0x00, 0x09, 
  0x38, 0x01, 0x00, 0x00, 0x04, 0x00, 0x00, 0x00, 0xff, 0xff, 0xff, 0xff, 
  0x01, 0x00, 0x00, 0x00, 0x20, 0x00, 0x00, 0x00, 0x04, 0x00, 0x00, 0x00, 
  0x04, 0xe5, 0xff, 0xff, 0x08, 0x00, 0x00, 0x00, 0x14, 0x00, 0x00, 0x00, 
  0x01, 0x00, 0x00, 0x00, 0x93, 0xff, 0xff, 0xff, 0xff, 0xff, 0xff, 0xff, 
  0x00, 0x00, 0x00, 0x00, 0x01, 0x00, 0x00, 0x00, 0x0e, 0xa2, 0x42, 0x3d, 
  0xf5, 0x00, 0x00, 0x00, 0x45, 0x45, 0x47, 0x4e, 0x65, 0x74, 0x5f, 0x46, 
  0x75, 0x6e, 0x63, 0x74, 0x69, 0x6f, 0x6e, 0x61, 0x6c, 0x2f, 0x71, 0x75, 
  0x61, 0x6e, 0x74, 0x5f, 0x73, 0x65, 0x70, 0x5f, 0x68, 0x73, 0x77, 0x69, 
  0x73, 0x68, 0x2f, 0x6d, 0x75, 0x6c, 0x5f, 0x31, 0x3b, 0x45, 0x45, 0x47, 
  0x4e, 0x65, 0x74, 0x5f, 0x46, 0x75, 0x6e, 0x63, 0x74, 0x69, 0x6f, 0x6e, 
  0x61, 0x6c, 0x2f, 0x71, 0x75, 0x61, 0x6e, 0x74, 0x5f, 0x73, 0x65, 0x70, 
  0x5f, 0x68, 0x73, 0x77, 0x69, 0x73, 0x68, 0x2f, 0x43, 0x61, 0x73, 0x74, 
  0x2f, 0x78, 0x3b, 0x45, 0x45, 0x47, 0x4e, 0x65, 0x74, 0x5f, 0x46, 0x75, 
  0x6e, 0x63, 0x74, 0x69, 0x6f, 0x6e, 0x61, 0x6c, 0x2f, 0x71, 0x75, 0x61, 
  0x6e, 0x74, 0x5f, 0x73, 0x65, 0x70, 0x5f, 0x68, 0x73, 0x77, 0x69, 0x73, 
  0x68, 0x2f, 0x52, 0x65, 0x6c, 0x75, 0x36, 0x3b, 0x45, 0x45, 0x47, 0x4e, 
  0x65, 0x74, 0x5f, 0x46, 0x75, 0x6e, 0x63, 0x74, 0x69, 0x6f, 0x6e, 0x61, 
  0x6c, 0x2f, 0x71, 0x75, 0x61, 0x6e, 0x74, 0x5f, 0x73, 0x65, 0x70, 0x5f, 
  0x68, 0x73, 0x77, 0x69, 0x73, 0x68, 0x2f, 0x61, 0x64, 0x64, 0x3b, 0x45, 
  0x45, 0x47, 0x4e, 0x65, 0x74, 0x5f, 0x46, 0x75, 0x6e, 0x63, 0x74, 0x69, 
  0x6f, 0x6e, 0x61, 0x6c, 0x2f, 0x71, 0x75, 0x61, 0x6e, 0x74, 0x5f, 0x73, 
  0x65, 0x70, 0x5f, 0x68, 0x73, 0x77, 0x69, 0x73, 0x68, 0x2f, 0x6d, 0x75, 
  0x6c, 0x3b, 0x45, 0x45, 0x47, 0x4e, 0x65, 0x74, 0x5f, 0x46, 0x75, 0x6e, 
  0x63, 0x74, 0x69, 0x6f, 0x6e, 0x61, 0x6c, 0x2f, 0x71, 0x75, 0x61, 0x6e, 
  0x74, 0x5f, 0x73, 0x65, 0x70, 0x5f, 0x68, 0x73, 0x77, 0x69, 0x73, 0x68, 
  0x2f, 0x43, 0x61, 0x73, 0x74, 0x5f, 0x31, 0x2f, 0x78, 0x00, 0x00, 0x00, 
  0x04, 0x00, 0x00, 0x00, 0x01, 0x00, 0x00, 0x00, 0x01, 0x00, 0x00, 0x00, 
  0x20, 0x00, 0x00, 0x00, 0x04, 0x00, 0x00, 0x00, 0x82, 0xe6, 0xff, 0xff, 
  0x00, 0x00, 0x00, 0x01, 0x18, 0x00, 0x00, 0x00, 0x28, 0x00, 0x00, 0x00, 
  0x48, 0x00, 0x00, 0x00, 0x1a, 0x00, 0x00, 0x00, 0x00, 0x00, 0x00, 0x09, 
  0xb0, 0x00, 0x00, 0x00, 0x04, 0x00, 0x00, 0x00, 0xff, 0xff, 0xff, 0xff, 
  0x01, 0x00, 0x00, 0x00, 0x20, 0x00, 0x00, 0x00, 0x04, 0x00, 0x00, 0x00, 
  0x6c, 0xe6, 0xff, 0xff, 0x08, 0x00, 0x00, 0x00, 0x14, 0x00, 0x00, 0x00, 
  0x01, 0x00, 0x00, 0x00, 0xcd, 0xff, 0xff, 0xff, 0xff, 0xff, 0xff, 0xff, 
  0x00, 0x00, 0x00, 0x00, 0x01, 0x00, 0x00, 0x00, 0xe0, 0x76, 0x2d, 0x3d, 
  0x6c, 0x00, 0x00, 0x00, 0x45, 0x45, 0x47, 0x4e, 0x65, 0x74, 0x5f, 0x46, 
  0x75, 0x6e, 0x63, 0x74, 0x69, 0x6f, 0x6e, 0x61, 0x6c, 0x2f, 0x62, 0x61, 
  0x74, 0x63, 0x68, 0x5f, 0x6e, 0x6f, 0x72, 0x6d, 0x61, 0x6c, 0x69, 0x7a, 
  0x61, 0x74, 0x69, 0x6f, 0x6e, 0x5f, 0x32, 0x2f, 0x46, 0x75, 0x73, 0x65, 
  0x64, 0x42, 0x61, 0x74, 0x63, 0x68, 0x4e, 0x6f, 0x72, 0x6d, 0x56, 0x33, 
  0x3b, 0x45, 0x45, 0x47, 0x4e, 0x65, 0x74, 0x5f, 0x46, 0x75, 0x6e, 0x63, 
  0x74, 0x69, 0x6f, 0x6e, 0x61, 0x6c, 0x2f, 0x73, 0x65, 0x70, 0x61, 0x72, 
  0x61, 0x62, 0x6c, 0x65, 0x5f, 0x63, 0x6f, 0x6e, 0x76, 0x32, 0x64, 0x2f, 
  0x73, 0x65, 0x70, 0x61, 0x72, 0x61, 0x62, 0x6c, 0x65, 0x5f, 0x63, 0x6f, 
  0x6e, 0x76, 0x32, 0x64, 0x00, 0x00, 0x00, 0x00, 0x04, 0x00, 0x00, 0x00, 
  0x01, 0x00, 0x00, 0x00, 0x01, 0x00, 0x00, 0x00, 0x20, 0x00, 0x00, 0x00, 
  0x04, 0x00, 0x00, 0x00, 0x62, 0xe7, 0xff, 0xff, 0x00, 0x00, 0x00, 0x01, 
  0x18, 0x00, 0x00, 0x00, 0x28, 0x00, 0x00, 0x00, 0x48, 0x00, 0x00, 0x00, 
  0x19, 0x00, 0x00, 0x00, 0x00, 0x00, 0x00, 0x09, 0x80, 0x00, 0x00, 0x00, 
  0x04, 0x00, 0x00, 0x00, 0xff, 0xff, 0xff, 0xff, 0x01, 0x00, 0x00, 0x00, 
  0x20, 0x00, 0x00, 0x00, 0x20, 0x00, 0x00, 0x00, 0x4c, 0xe7, 0xff, 0xff, 
  0x08, 0x00, 0x00, 0x00, 0x14, 0x00, 0x00, 0x00, 0x01, 0x00, 0x00, 0x00, 
  0xdf, 0xff, 0xff, 0xff, 0xff, 0xff, 0xff, 0xff, 0x00, 0x00, 0x00, 0x00, 
  0x01, 0x00, 0x00, 0x00, 0x4f, 0x99, 0xc3, 0x3c, 0x3f, 0x00, 0x00, 0x00, 
  0x45, 0x45, 0x47, 0x4e, 0x65, 0x74, 0x5f, 0x46, 0x75, 0x6e, 0x63, 0x74, 
  0x69, 0x6f, 0x6e, 0x61, 0x6c, 0x2f, 0x73, 0x65, 0x70, 0x61, 0x72, 0x61, 
  0x62, 0x6c, 0x65, 0x5f, 0x63, 0x6f, 0x6e, 0x76, 0x32, 0x64, 0x2f, 0x73, 
  0x65, 0x70, 0x61, 0x72, 0x61, 0x62, 0x6c, 0x65, 0x5f, 0x63, 0x6f, 0x6e, 
  0x76, 0x32, 0x64, 0x2f, 0x64, 0x65, 0x70, 0x74, 0x68, 0x77, 0x69, 0x73, 
  0x65, 0x32, 0x31, 0x00, 0x04, 0x00, 0x00, 0x00, 0x01, 0x00, 0x00, 0x00, 
  0x01, 0x00, 0x00, 0x00, 0x20, 0x00, 0x00, 0x00, 0x20, 0x00, 0x00, 0x00, 
  0x12, 0xe8, 0xff, 0xff, 0x00, 0x00, 0x00, 0x01, 0x18, 0x00, 0x00, 0x00, 
  0x28, 0x00, 0x00, 0x00, 0x44, 0x00, 0x00, 0x00, 0x18, 0x00, 0x00, 0x00, 
  0x00, 0x00, 0x00, 0x09, 0x58, 0x01, 0x00, 0x00, 0x04, 0x00, 0x00, 0x00, 
  0xff, 0xff, 0xff, 0xff, 0x01, 0x00, 0x00, 0x00, 0x20, 0x00, 0x00, 0x00, 
  0x20, 0x00, 0x00, 0x00, 0xfc, 0xe7, 0xff, 0xff, 0x08, 0x00, 0x00, 0x00, 
  0x10, 0x00, 0x00, 0x00, 0x01, 0x00, 0x00, 0x00, 0x9b, 0xff, 0xff, 0xff, 
  0xff, 0xff, 0xff, 0xff, 0x01, 0x00, 0x00, 0x00, 0x5e, 0xe6, 0x05, 0x3d, 
  0x1b, 0x01, 0x00, 0x00, 0x45, 0x45, 0x47, 0x4e, 0x65, 0x74, 0x5f, 0x46, 
  0x75, 0x6e, 0x63, 0x74, 0x69, 0x6f, 0x6e, 0x61, 0x6c, 0x2f, 0x71, 0x75, 
  0x61, 0x6e, 0x74, 0x5f, 0x61, 0x76, 0x65, 0x72, 0x61, 0x67, 0x65, 0x5f, 
  0x70, 0x6f, 0x6f, 0x6c, 0x69, 0x6e, 0x67, 0x32, 0x64, 0x2f, 0x4d, 0x6f, 
  0x76, 0x69, 0x6e, 0x67, 0x41, 0x76, 0x67, 0x51, 0x75, 0x61, 0x6e, 0x74, 
  0x69, 0x7a, 0x65, 0x2f, 0x46, 0x61, 0x6b, 0x65, 0x51, 0x75, 0x61, 0x6e, 
  0x74, 0x57, 0x69, 0x74, 0x68, 0x4d, 0x69, 0x6e, 0x4d, 0x61, 0x78, 0x56, 
  0x61, 0x72, 0x73, 0x3b, 0x45, 0x45, 0x47, 0x4e, 0x65, 0x74, 0x5f, 0x46, 
  0x75, 0x6e, 0x63, 0x74, 0x69, 0x6f, 0x6e, 0x61, 0x6c, 0x2f, 0x71, 0x75, 
  0x61, 0x6e, 0x74, 0x5f, 0x61, 0x76, 0x65, 0x72, 0x61, 0x67, 0x65, 0x5f, 
  0x70, 0x6f, 0x6f, 0x6c, 0x69, 0x6e, 0x67, 0x32, 0x64, 0x2f, 0x4d, 0x6f, 
  0x76, 0x69, 0x6e, 0x67, 0x41, 0x76, 0x67, 0x51, 0x75, 0x61, 0x6e, 0x74, 
  0x69, 0x7a, 0x65, 0x2f, 0x46, 0x61, 0x6b, 0x65, 0x51, 0x75, 0x61, 0x6e, 
  0x74, 0x57, 0x69, 0x74, 0x68, 0x4d, 0x69, 0x6e, 0x4d, 0x61, 0x78, 0x56, 
  0x61, 0x72, 0x73, 0x2f, 0x52, 0x65, 0x61, 0x64, 0x56, 0x61, 0x72, 0x69, 
  0x61, 0x62, 0x6c, 0x65, 0x4f, 0x70, 0x3b, 0x45, 0x45, 0x47, 0x4e, 0x65, 
  0x74, 0x5f, 0x46, 0x75, 0x6e, 0x63, 0x74, 0x69, 0x6f, 0x6e, 0x61, 0x6c, 
  0x2f, 0x71, 0x75, 0x61, 0x6e, 0x74, 0x5f, 0x61, 0x76, 0x65, 0x72, 0x61, 
  0x67, 0x65, 0x5f, 0x70, 0x6f, 0x6f, 0x6c, 0x69, 0x6e, 0x67, 0x32, 0x64, 
  0x2f, 0x4d, 0x6f, 0x76, 0x69, 0x6e, 0x67, 0x41, 0x76, 0x67, 0x51, 0x75, 
  0x61, 0x6e, 0x74, 0x69, 0x7a, 0x65, 0x2f, 0x46, 0x61, 0x6b, 0x65, 0x51, 
  0x75, 0x61, 0x6e, 0x74, 0x57, 0x69, 0x74, 0x68, 0x4d, 0x69, 0x6e, 0x4d, 
  0x61, 0x78, 0x56, 0x61, 0x72, 0x73, 0x2f, 0x52, 0x65, 0x61, 0x64, 0x56, 
  0x61, 0x72, 0x69, 0x61, 0x62, 0x6c, 0x65, 0x4f, 0x70, 0x5f, 0x31, 0x00, 
  0x04, 0x00, 0x00, 0x00, 0x01, 0x00, 0x00, 0x00, 0x01, 0x00, 0x00, 0x00, 
  0x20, 0x00, 0x00, 0x00, 0x20, 0x00, 0x00, 0x00, 0x9a, 0xe9, 0xff, 0xff, 
  0x00, 0x00, 0x00, 0x01, 0x18, 0x00, 0x00, 0x00, 0x28, 0x00, 0x00, 0x00, 
  0x44, 0x00, 0x00, 0x00, 0x17, 0x00, 0x00, 0x00, 0x00, 0x00, 0x00, 0x09, 
  0x70, 0x00, 0x00, 0x00, 0x04, 0x00, 0x00, 0x00, 0xff, 0xff, 0xff, 0xff, 
  0x01, 0x00, 0x00, 0x00, 0x20, 0x00, 0x00, 0x00, 0x20, 0x00, 0x00, 0x00, 
  0x84, 0xe9, 0xff, 0xff, 0x08, 0x00, 0x00, 0x00, 0x10, 0x00, 0x00, 0x00, 
  0x01, 0x00, 0x00, 0x00, 0x94, 0xff, 0xff, 0xff, 0xff, 0xff, 0xff, 0xff, 
  0x01, 0x00, 0x00, 0x00, 0xef, 0x1f, 0x33, 0x3d, 0x31, 0x00, 0x00, 0x00, 
  0x45, 0x45, 0x47, 0x4e, 0x65, 0x74, 0x5f, 0x46, 0x75, 0x6e, 0x63, 0x74, 
  0x69, 0x6f, 0x6e, 0x61, 0x6c, 0x2f, 0x71, 0x75, 0x61, 0x6e, 0x74, 0x5f, 
  0x61, 0x76, 0x65, 0x72, 0x61, 0x67, 0x65, 0x5f, 0x70, 0x6f, 0x6f, 0x6c, 
  0x69, 0x6e, 0x67, 0x32, 0x64, 0x2f, 0x41, 0x76, 0x67, 0x50, 0x6f, 0x6f, 
  0x6c, 0x00, 0x00, 0x00, 0x04, 0x00, 0x00, 0x00, 0x01, 0x00, 0x00, 0x00, 
  0x01, 0x00, 0x00, 0x00, 0x20, 0x00, 0x00, 0x00, 0x20, 0x00, 0x00, 0x00, 
  0x3a, 0xea, 0xff, 0xff, 0x00, 0x00, 0x00, 0x01, 0x18, 0x00, 0x00, 0x00, 
  0x28, 0x00, 0x00, 0x00, 0x48, 0x00, 0x00, 0x00, 0x16, 0x00, 0x00, 0x00, 
  0x00, 0x00, 0x00, 0x09, 0x48, 0x01, 0x00, 0x00, 0x04, 0x00, 0x00, 0x00, 
  0xff, 0xff, 0xff, 0xff, 0x01, 0x00, 0x00, 0x00, 0x80, 0x00, 0x00, 0x00, 
  0x20, 0x00, 0x00, 0x00, 0x24, 0xea, 0xff, 0xff, 0x08, 0x00, 0x00, 0x00, 
  0x14, 0x00, 0x00, 0x00, 0x01, 0x00, 0x00, 0x00, 0x94, 0xff, 0xff, 0xff, 
  0xff, 0xff, 0xff, 0xff, 0x00, 0x00, 0x00, 0x00, 0x01, 0x00, 0x00, 0x00, 
  0xef, 0x1f, 0x33, 0x3d, 0x05, 0x01, 0x00, 0x00, 0x45, 0x45, 0x47, 0x4e, 
  0x65, 0x74, 0x5f, 0x46, 0x75, 0x6e, 0x63, 0x74, 0x69, 0x6f, 0x6e, 0x61, 
  0x6c, 0x2f, 0x71, 0x75, 0x61, 0x6e, 0x74, 0x5f, 0x73, 0x70, 0x61, 0x74, 
  0x69, 0x61, 0x6c, 0x5f, 0x68, 0x73, 0x77, 0x69, 0x73, 0x68, 0x2f, 0x6d, 
  0x75, 0x6c, 0x5f, 0x31, 0x3b, 0x45, 0x45, 0x47, 0x4e, 0x65, 0x74, 0x5f, 
  0x46, 0x75, 0x6e, 0x63, 0x74, 0x69, 0x6f, 0x6e, 0x61, 0x6c, 0x2f, 0x71, 
  0x75, 0x61, 0x6e, 0x74, 0x5f, 0x73, 0x65, 0x70, 0x5f, 0x68, 0x73, 0x77, 
  0x69, 0x73, 0x68, 0x2f, 0x43, 0x61, 0x73, 0x74, 0x2f, 0x78, 0x3b, 0x45, 
  0x45, 0x47, 0x4e, 0x65, 0x74, 0x5f, 0x46, 0x75, 0x6e, 0x63, 0x74, 0x69, 
  0x6f, 0x6e, 0x61, 0x6c, 0x2f, 0x71, 0x75, 0x61, 0x6e, 0x74, 0x5f, 0x73, 
  0x70, 0x61, 0x74, 0x69, 0x61, 0x6c, 0x5f, 0x68, 0x73, 0x77, 0x69, 0x73, 
  0x68, 0x2f, 0x52, 0x65, 0x6c, 0x75, 0x36, 0x3b, 0x45, 0x45, 0x47, 0x4e, 
  0x65, 0x74, 0x5f, 0x46, 0x75, 0x6e, 0x63, 0x74, 0x69, 0x6f, 0x6e, 0x61, 
  0x6c, 0x2f, 0x71, 0x75, 0x61, 0x6e, 0x74, 0x5f, 0x73, 0x70, 0x61, 0x74, 
  0x69, 0x61, 0x6c, 0x5f, 0x68, 0x73, 0x77, 0x69, 0x73, 0x68, 0x2f, 0x61, 
  0x64, 0x64, 0x3b, 0x45, 0x45, 0x47, 0x4e, 0x65, 0x74, 0x5f, 0x46, 0x75, 
  0x6e, 0x63, 0x74, 0x69, 0x6f, 0x6e, 0x61, 0x6c, 0x2f, 0x71, 0x75, 0x61, 
  0x6e, 0x74, 0x5f, 0x73, 0x70, 0x61, 0x74, 0x69, 0x61, 0x6c, 0x5f, 0x68, 
  0x73, 0x77, 0x69, 0x73, 0x68, 0x2f, 0x6d, 0x75, 0x6c, 0x3b, 0x45, 0x45, 
  0x47, 0x4e, 0x65, 0x74, 0x5f, 0x46, 0x75, 0x6e, 0x63, 0x74, 0x69, 0x6f, 
  0x6e, 0x61, 0x6c, 0x2f, 0x71, 0x75, 0x61, 0x6e, 0x74, 0x5f, 0x73, 0x65, 
  0x70, 0x5f, 0x68, 0x73, 0x77, 0x69, 0x73, 0x68, 0x2f, 0x43, 0x61, 0x73, 
  0x74, 0x5f, 0x31, 0x2f, 0x78, 0x00, 0x00, 0x00, 0x04, 0x00, 0x00, 0x00, 
  0x01, 0x00, 0x00, 0x00, 0x01, 0x00, 0x00, 0x00, 0x80, 0x00, 0x00, 0x00, 
  0x20, 0x00, 0x00, 0x00, 0xb2, 0xeb, 0xff, 0xff, 0x00, 0x00, 0x00, 0x01, 
  0x18, 0x00, 0x00, 0x00, 0x28, 0x00, 0x00, 0x00, 0x44, 0x00, 0x00, 0x00, 
  0x15, 0x00, 0x00, 0x00, 0x00, 0x00, 0x00, 0x09, 0x78, 0x00, 0x00, 0x00, 
  0x04, 0x00, 0x00, 0x00, 0xff, 0xff, 0xff, 0xff, 0x01, 0x00, 0x00, 0x00, 
  0x80, 0x00, 0x00, 0x00, 0x20, 0x00, 0x00, 0x00, 0x9c, 0xeb, 0xff, 0xff, 
  0x08, 0x00, 0x00, 0x00, 0x10, 0x00, 0x00, 0x00, 0x01, 0x00, 0x00, 0x00, 
  0x03, 0x00, 0x00, 0x00, 0x00, 0x00, 0x00, 0x00, 0x01, 0x00, 0x00, 0x00, 
  0x0f, 0x1f, 0x72, 0x3d, 0x39, 0x00, 0x00, 0x00, 0x45, 0x45, 0x47, 0x4e, 
  0x65, 0x74, 0x5f, 0x46, 0x75, 0x6e, 0x63, 0x74, 0x69, 0x6f, 0x6e, 0x61, 
  0x6c, 0x2f, 0x62, 0x61, 0x74, 0x63, 0x68, 0x5f, 0x6e, 0x6f, 0x72, 0x6d, 
  0x61, 0x6c, 0x69, 0x7a, 0x61, 0x74, 0x69, 0x6f, 0x6e, 0x5f, 0x31, 0x2f, 
  0x46, 0x75, 0x73, 0x65, 0x64, 0x42, 0x61, 0x74, 0x63, 0x68, 0x4e, 0x6f, 
  0x72, 0x6d, 0x56, 0x33, 0x33, 0x00, 0x00, 0x00, 0x04, 0x00, 0x00, 0x00, 
  0x01, 0x00, 0x00, 0x00, 0x01, 0x00, 0x00, 0x00, 0x80, 0x00, 0x00, 0x00, 
  0x20, 0x00, 0x00, 0x00, 0x5a, 0xec, 0xff, 0xff, 0x00, 0x00, 0x00, 0x01, 
  0x18, 0x00, 0x00, 0x00, 0x28, 0x00, 0x00, 0x00, 0x44, 0x00, 0x00, 0x00, 
  0x14, 0x00, 0x00, 0x00, 0x00, 0x00, 0x00, 0x09, 0x78, 0x00, 0x00, 0x00, 
  0x04, 0x00, 0x00, 0x00, 0xff, 0xff, 0xff, 0xff, 0x01, 0x00, 0x00, 0x00, 
  0x80, 0x00, 0x00, 0x00, 0x20, 0x00, 0x00, 0x00, 0x44, 0xec, 0xff, 0xff, 
  0x08, 0x00, 0x00, 0x00, 0x10, 0x00, 0x00, 0x00, 0x01, 0x00, 0x00, 0x00, 
  0x03, 0x00, 0x00, 0x00, 0x00, 0x00, 0x00, 0x00, 0x01, 0x00, 0x00, 0x00, 
  0x47, 0x66, 0x72, 0x3d, 0x39, 0x00, 0x00, 0x00, 0x45, 0x45, 0x47, 0x4e, 
  0x65, 0x74, 0x5f, 0x46, 0x75, 0x6e, 0x63, 0x74, 0x69, 0x6f, 0x6e, 0x61, 
  0x6c, 0x2f, 0x62, 0x61, 0x74, 0x63, 0x68, 0x5f, 0x6e, 0x6f, 0x72, 0x6d, 
  0x61, 0x6c, 0x69, 0x7a, 0x61, 0x74, 0x69, 0x6f, 0x6e, 0x5f, 0x31, 0x2f, 
  0x46, 0x75, 0x73, 0x65, 0x64, 0x42, 0x61, 0x74, 0x63, 0x68, 0x4e, 0x6f, 
  0x72, 0x6d, 0x56, 0x33, 0x32, 0x00, 0x00, 0x00, 0x04, 0x00, 0x00, 0x00, 
  0x01, 0x00, 0x00, 0x00, 0x01, 0x00, 0x00, 0x00, 0x80, 0x00, 0x00, 0x00, 
  0x20, 0x00, 0x00, 0x00, 0x02, 0xed, 0xff, 0xff, 0x00, 0x00, 0x00, 0x01, 
  0x18, 0x00, 0x00, 0x00, 0x28, 0x00, 0x00, 0x00, 0x44, 0x00, 0x00, 0x00, 
  0x13, 0x00, 0x00, 0x00, 0x00, 0x00, 0x00, 0x09, 0x70, 0x00, 0x00, 0x00, 
  0x04, 0x00, 0x00, 0x00, 0xff, 0xff, 0xff, 0xff, 0x01, 0x00, 0x00, 0x00, 
  0x80, 0x00, 0x00, 0x00, 0x20, 0x00, 0x00, 0x00, 0xec, 0xec, 0xff, 0xff, 
  0x08, 0x00, 0x00, 0x00, 0x10, 0x00, 0x00, 0x00, 0x01, 0x00, 0x00, 0x00, 
  0x03, 0x00, 0x00, 0x00, 0x00, 0x00, 0x00, 0x00, 0x01, 0x00, 0x00, 0x00, 
  0x15, 0x03, 0x23, 0x3d, 0x32, 0x00, 0x00, 0x00, 0x45, 0x45, 0x47, 0x4e, 
  0x65, 0x74, 0x5f, 0x46, 0x75, 0x6e, 0x63, 0x74, 0x69, 0x6f, 0x6e, 0x61, 
  0x6c, 0x2f, 0x71, 0x75, 0x61, 0x6e, 0x74, 0x5f, 0x64, 0x65, 0x70, 0x74, 
  0x68, 0x77, 0x69, 0x73, 0x65, 0x5f, 0x63, 0x6f, 0x6e, 0x76, 0x32, 0x64, 
  0x2f, 0x64, 0x65, 0x70, 0x74, 0x68, 0x77, 0x69, 0x73, 0x65, 0x00, 0x00, 
  0x04, 0x00, 0x00, 0x00, 0x01, 0x00, 0x00, 0x00, 0x01, 0x00, 0x00, 0x00, 
  0x80, 0x00, 0x00, 0x00, 0x20, 0x00, 0x00, 0x00, 0xa2, 0xed, 0xff, 0xff, 
  0x00, 0x00, 0x00, 0x01, 0x18, 0x00, 0x00, 0x00, 0x28, 0x00, 0x00, 0x00, 
  0x48, 0x00, 0x00, 0x00, 0x12, 0x00, 0x00, 0x00, 0x00, 0x00, 0x00, 0x09, 
  0x78, 0x00, 0x00, 0x00, 0x04, 0x00, 0x00, 0x00, 0xff, 0xff, 0xff, 0xff, 
  0x10, 0x00, 0x00, 0x00, 0x80, 0x00, 0x00, 0x00, 0x10, 0x00, 0x00, 0x00, 
  0x8c, 0xed, 0xff, 0xff, 0x08, 0x00, 0x00, 0x00, 0x14, 0x00, 0x00, 0x00, 
  0x01, 0x00, 0x00, 0x00, 0x03, 0x00, 0x00, 0x00, 0x00, 0x00, 0x00, 0x00, 
  0x00, 0x00, 0x00, 0x00, 0x01, 0x00, 0x00, 0x00, 0xc5, 0xb5, 0x85, 0x3d, 
  0x37, 0x00, 0x00, 0x00, 0x45, 0x45, 0x47, 0x4e, 0x65, 0x74, 0x5f, 0x46, 
  0x75, 0x6e, 0x63, 0x74, 0x69, 0x6f, 0x6e, 0x61, 0x6c, 0x2f, 0x62, 0x61, 
  0x74, 0x63, 0x68, 0x5f, 0x6e, 0x6f, 0x72, 0x6d, 0x61, 0x6c, 0x69, 0x7a, 
  0x61, 0x74, 0x69, 0x6f, 0x6e, 0x2f, 0x46, 0x75, 0x73, 0x65, 0x64, 0x42, 
  0x61, 0x74, 0x63, 0x68, 0x4e, 0x6f, 0x72, 0x6d, 0x56, 0x33, 0x33, 0x00, 
  0x04, 0x00, 0x00, 0x00, 0x01, 0x00, 0x00, 0x00, 0x10, 0x00, 0x00, 0x00, 
  0x80, 0x00, 0x00, 0x00, 0x10, 0x00, 0x00, 0x00, 0x4a, 0xee, 0xff, 0xff, 
  0x00, 0x00, 0x00, 0x01, 0x18, 0x00, 0x00, 0x00, 0x28, 0x00, 0x00, 0x00, 
  0x48, 0x00, 0x00, 0x00, 0x11, 0x00, 0x00, 0x00, 0x00, 0x00, 0x00, 0x09, 
  0x78, 0x00, 0x00, 0x00, 0x04, 0x00, 0x00, 0x00, 0xff, 0xff, 0xff, 0xff, 
  0x10, 0x00, 0x00, 0x00, 0x80, 0x00, 0x00, 0x00, 0x10, 0x00, 0x00, 0x00, 
  0x34, 0xee, 0xff, 0xff, 0x08, 0x00, 0x00, 0x00, 0x14, 0x00, 0x00, 0x00, 
  0x01, 0x00, 0x00, 0x00, 0x03, 0x00, 0x00, 0x00, 0x00, 0x00, 0x00, 0x00, 
  0x00, 0x00, 0x00, 0x00, 0x01, 0x00, 0x00, 0x00, 0xac, 0xb8, 0x85, 0x3d, 
  0x37, 0x00, 0x00, 0x00, 0x45, 0x45, 0x47, 0x4e, 0x65, 0x74, 0x5f, 0x46, 
  0x75, 0x6e, 0x63, 0x74, 0x69, 0x6f, 0x6e, 0x61, 0x6c, 0x2f, 0x62, 0x61, 
  0x74, 0x63, 0x68, 0x5f, 0x6e, 0x6f, 0x72, 0x6d, 0x61, 0x6c, 0x69, 0x7a, 
  0x61, 0x74, 0x69, 0x6f, 0x6e, 0x2f, 0x46, 0x75, 0x73, 0x65, 0x64, 0x42, 
  0x61, 0x74, 0x63, 0x68, 0x4e, 0x6f, 0x72, 0x6d, 0x56, 0x33, 0x32, 0x00, 
  0x04, 0x00, 0x00, 0x00, 0x01, 0x00, 0x00, 0x00, 0x10, 0x00, 0x00, 0x00, 
  0x80, 0x00, 0x00, 0x00, 0x10, 0x00, 0x00, 0x00, 0xf2, 0xee, 0xff, 0xff, 
  0x00, 0x00, 0x00, 0x01, 0x18, 0x00, 0x00, 0x00, 0x28, 0x00, 0x00, 0x00, 
  0x48, 0x00, 0x00, 0x00, 0x10, 0x00, 0x00, 0x00, 0x00, 0x00, 0x00, 0x09, 
  0x68, 0x00, 0x00, 0x00, 0x04, 0x00, 0x00, 0x00, 0xff, 0xff, 0xff, 0xff, 
  0x10, 0x00, 0x00, 0x00, 0x80, 0x00, 0x00, 0x00, 0x10, 0x00, 0x00, 0x00, 
  0xdc, 0xee, 0xff, 0xff, 0x08, 0x00, 0x00, 0x00, 0x14, 0x00, 0x00, 0x00, 
  0x01, 0x00, 0x00, 0x00, 0xff, 0xff, 0xff, 0xff, 0xff, 0xff, 0xff, 0xff, 
  0x00, 0x00, 0x00, 0x00, 0x01, 0x00, 0x00, 0x00, 0x09, 0xbc, 0xab, 0x3c, 
  0x26, 0x00, 0x00, 0x00, 0x45, 0x45, 0x47, 0x4e, 0x65, 0x74, 0x5f, 0x46, 
  0x75, 0x6e, 0x63, 0x74, 0x69, 0x6f, 0x6e, 0x61, 0x6c, 0x2f, 0x71, 0x75, 
  0x61, 0x6e, 0x74, 0x5f, 0x63, 0x6f, 0x6e, 0x76, 0x32, 0x64, 0x2f, 0x43, 
  0x6f, 0x6e, 0x76, 0x32, 0x44, 0x31, 0x00, 0x00, 0x04, 0x00, 0x00, 0x00, 
  0x01, 0x00, 0x00, 0x00, 0x10, 0x00, 0x00, 0x00, 0x80, 0x00, 0x00, 0x00, 
  0x10, 0x00, 0x00, 0x00, 0xfa, 0xef, 0xff, 0xff, 0x00, 0x00, 0x00, 0x01, 
  0x14, 0x00, 0x00, 0x00, 0xe8, 0x00, 0x00, 0x00, 0x0f, 0x00, 0x00, 0x00, 
  0x00, 0x00, 0x00, 0x02, 0x08, 0x01, 0x00, 0x00, 0x5c, 0xef, 0xff, 0xff, 
  0x08, 0x00, 0x00, 0x00, 0x8c, 0x00, 0x00, 0x00, 0x10, 0x00, 0x00, 0x00, 
  0x00, 0x00, 0x00, 0x00, 0x00, 0x00, 0x00, 0x00, 0x00, 0x00, 0x00, 0x00, 
  0x00, 0x00, 0x00, 0x00, 0x00, 0x00, 0x00, 0x00, 0x00, 0x00, 0x00, 0x00, 
  0x00, 0x00, 0x00, 0x00, 0x00, 0x00, 0x00, 0x00, 0x00, 0x00, 0x00, 0x00, 
  0x00, 0x00, 0x00, 0x00, 0x00, 0x00, 0x00, 0x00, 0x00, 0x00, 0x00, 0x00, 
  0x00, 0x00, 0x00, 0x00, 0x00, 0x00, 0x00, 0x00, 0x00, 0x00, 0x00, 0x00, 
  0x00, 0x00, 0x00, 0x00, 0x00, 0x00, 0x00, 0x00, 0x00, 0x00, 0x00, 0x00, 
  0x00, 0x00, 0x00, 0x00, 0x00, 0x00, 0x00, 0x00, 0x00, 0x00, 0x00, 0x00, 
  0x00, 0x00, 0x00, 0x00, 0x00, 0x00, 0x00, 0x00, 0x00, 0x00, 0x00, 0x00, 
  0x00, 0x00, 0x00, 0x00, 0x00, 0x00, 0x00, 0x00, 0x00, 0x00, 0x00, 0x00, 
  0x00, 0x00, 0x00, 0x00, 0x00, 0x00, 0x00, 0x00, 0x00, 0x00, 0x00, 0x00, 
  0x00, 0x00, 0x00, 0x00, 0x00, 0x00, 0x00, 0x00, 0x00, 0x00, 0x00, 0x00, 
  0x10, 0x00, 0x00, 0x00, 0x84, 0x63, 0xa1, 0x38, 0xa2, 0xc3, 0x69, 0x38, 
  0x46, 0x91, 0x7f, 0x38, 0x93, 0x05, 0x86, 0x38, 0x76, 0x27, 0x85, 0x38, 
  0xac, 0x3c, 0x7f, 0x38, 0x01, 0x53, 0x8f, 0x38, 0x0e, 0xbb, 0x8b, 0x38, 
  0x78, 0x1a, 0x9a, 0x38, 0x8c, 0x19, 0xb0, 0x38, 0x3c, 0xfc, 0xa1, 0x38, 
  0x1f, 0xad, 0x87, 0x38, 0x68, 0x1e, 0x8b, 0x38, 0xa8, 0x13, 0x95, 0x38, 
  0x7f, 0x7c, 0x91, 0x38, 0x9f, 0xf9, 0xbb, 0x38, 0x25, 0x00, 0x00, 0x00, 
  0x45, 0x45, 0x47, 0x4e, 0x65, 0x74, 0x5f, 0x46, 0x75, 0x6e, 0x63, 0x74, 
  0x69, 0x6f, 0x6e, 0x61, 0x6c, 0x2f, 0x71, 0x75, 0x61, 0x6e, 0x74, 0x5f, 
  0x63, 0x6f, 0x6e, 0x76, 0x32, 0x64, 0x2f, 0x43, 0x6f, 0x6e, 0x76, 0x32, 
  0x44, 0x00, 0x00, 0x00, 0x01, 0x00, 0x00, 0x00, 0x10, 0x00, 0x00, 0x00, 
  0x22, 0xf1, 0xff, 0xff, 0x00, 0x00, 0x00, 0x01, 0x14, 0x00, 0x00, 0x00, 
  0xe4, 0x00, 0x00, 0x00, 0x0e, 0x00, 0x00, 0x00, 0x00, 0x00, 0x00, 0x09, 
  0x54, 0x01, 0x00, 0x00, 0x84, 0xf0, 0xff, 0xff, 0x08, 0x00, 0x00, 0x00, 
  0x88, 0x00, 0x00, 0x00, 0x10, 0x00, 0x00, 0x00, 0x00, 0x00, 0x00, 0x00, 
  0x00, 0x00, 0x00, 0x00, 0x00, 0x00, 0x00, 0x00, 0x00, 0x00, 0x00, 0x00, 
  0x00, 0x00, 0x00, 0x00, 0x00, 0x00, 0x00, 0x00, 0x00, 0x00, 0x00, 0x00, 
  0x00, 0x00, 0x00, 0x00, 0x00, 0x00, 0x00, 0x00, 0x00, 0x00, 0x00, 0x00, 
  0x00, 0x00, 0x00, 0x00, 0x00, 0x00, 0x00, 0x00, 0x00, 0x00, 0x00, 0x00, 
  0x00, 0x00, 0x00, 0x00, 0x00, 0x00, 0x00, 0x00, 0x00, 0x00, 0x00, 0x00, 
  0x00, 0x00, 0x00, 0x00, 0x00, 0x00, 0x00, 0x00, 0x00, 0x00, 0x00, 0x00, 
  0x00, 0x00, 0x00, 0x00, 0x00, 0x00, 0x00, 0x00, 0x00, 0x00, 0x00, 0x00, 
  0x00, 0x00, 0x00, 0x00, 0x00, 0x00, 0x00, 0x00, 0x00, 0x00, 0x00, 0x00, 
  0x00, 0x00, 0x00, 0x00, 0x00, 0x00, 0x00, 0x00, 0x00, 0x00, 0x00, 0x00, 
  0x00, 0x00, 0x00, 0x00, 0x00, 0x00, 0x00, 0x00, 0x00, 0x00, 0x00, 0x00, 
  0x00, 0x00, 0x00, 0x00, 0x10, 0x00, 0x00, 0x00, 0xfb, 0x57, 0x68, 0x3a, 
  0x03, 0x45, 0x28, 0x3a, 0xd3, 0xf6, 0x37, 0x3a, 0xdc, 0xf1, 0x40, 0x3a, 
  0x17, 0xb2, 0x3f, 0x3a, 0xed, 0xb9, 0x37, 0x3a, 0x4b, 0x56, 0x4e, 0x3a, 
  0xe2, 0x29, 0x49, 0x3a, 0xf6, 0xda, 0x5d, 0x3a, 0xc2, 0x85, 0x7d, 0x3a, 
  0xd7, 0x33, 0x69, 0x3a, 0x9e, 0x53, 0x43, 0x3a, 0x5d, 0x48, 0x48, 0x3a, 
  0x66, 0x9e, 0x56, 0x3a, 0x20, 0x73, 0x51, 0x3a, 0x33, 0x4f, 0x87, 0x3a, 
  0x75, 0x00, 0x00, 0x00, 0x45, 0x45, 0x47, 0x4e, 0x65, 0x74, 0x5f, 0x46, 
  0x75, 0x6e, 0x63, 0x74, 0x69, 0x6f, 0x6e, 0x61, 0x6c, 0x2f, 0x71, 0x75, 
  0x61, 0x6e, 0x74, 0x5f, 0x63, 0x6f, 0x6e, 0x76, 0x32, 0x64, 0x2f, 0x43, 
  0x6f, 0x6e, 0x76, 0x32, 0x44, 0x3b, 0x45, 0x45, 0x47, 0x4e, 0x65, 0x74, 
  0x5f, 0x46, 0x75, 0x6e, 0x63, 0x74, 0x69, 0x6f, 0x6e, 0x61, 0x6c, 0x2f, 
  0x71, 0x75, 0x61, 0x6e, 0x74, 0x5f, 0x63, 0x6f, 0x6e, 0x76, 0x32, 0x64, 
  0x2f, 0x4c, 0x61, 0x73, 0x74, 0x56, 0x61, 0x6c, 0x75, 0x65, 0x51, 0x75, 
  0x61, 0x6e, 0x74, 0x2f, 0x46, 0x61, 0x6b, 0x65, 0x51, 0x75, 0x61, 0x6e, 
  0x74, 0x57, 0x69, 0x74, 0x68, 0x4d, 0x69, 0x6e, 0x4d, 0x61, 0x78, 0x56, 
  0x61, 0x72, 0x73, 0x50, 0x65, 0x72, 0x43, 0x68, 0x61, 0x6e, 0x6e, 0x65, 
  0x6c, 0x00, 0x00, 0x00, 0x04, 0x00, 0x00, 0x00, 0x10, 0x00, 0x00, 0x00, 
  0x01, 0x00, 0x00, 0x00, 0x40, 0x00, 0x00, 0x00, 0x01, 0x00, 0x00, 0x00, 
  0x32, 0xf2, 0xff, 0xff, 0x00, 0x00, 0x00, 0x01, 0x18, 0x00, 0x00, 0x00, 
  0x28, 0x00, 0x00, 0x00, 0x44, 0x00, 0x00, 0x00, 0x0d, 0x00, 0x00, 0x00, 
  0x00, 0x00, 0x00, 0x09, 0x40, 0x01, 0x00, 0x00, 0x04, 0x00, 0x00, 0x00, 
  0xff, 0xff, 0xff, 0xff, 0x10, 0x00, 0x00, 0x00, 0x80, 0x00, 0x00, 0x00, 
  0x01, 0x00, 0x00, 0x00, 0x1c, 0xf2, 0xff, 0xff, 0x08, 0x00, 0x00, 0x00, 
  0x10, 0x00, 0x00, 0x00, 0x01, 0x00, 0x00, 0x00, 0x00, 0x00, 0x00, 0x00, 
  0x00, 0x00, 0x00, 0x00, 0x01, 0x00, 0x00, 0x00, 0x1a, 0xd2, 0xb1, 0x3d, 
  0x00, 0x01, 0x00, 0x00, 0x45, 0x45, 0x47, 0x4e, 0x65, 0x74, 0x5f, 0x46, 
  0x75, 0x6e, 0x63, 0x74, 0x69, 0x6f, 0x6e, 0x61, 0x6c, 0x2f, 0x71, 0x75, 
  0x61, 0x6e, 0x74, 0x69, 0x7a, 0x65, 0x5f, 0x6c, 0x61, 0x79, 0x65, 0x72, 
  0x2f, 0x41, 0x6c, 0x6c, 0x56, 0x61, 0x6c, 0x75, 0x65, 0x73, 0x51, 0x75, 
  0x61, 0x6e, 0x74, 0x69, 0x7a, 0x65, 0x2f, 0x46, 0x61, 0x6b, 0x65, 0x51, 
  0x75, 0x61, 0x6e, 0x74, 0x57, 0x69, 0x74, 0x68, 0x4d, 0x69, 0x6e, 0x4d, 
  0x61, 0x78, 0x56, 0x61, 0x72, 0x73, 0x3b, 0x45, 0x45, 0x47, 0x4e, 0x65, 
  0x74, 0x5f, 0x46, 0x75, 0x6e, 0x63, 0x74, 0x69, 0x6f, 0x6e, 0x61, 0x6c, 
  0x2f, 0x71, 0x75, 0x61, 0x6e, 0x74, 0x69, 0x7a, 0x65, 0x5f, 0x6c, 0x61, 
  0x79, 0x65, 0x72, 0x2f, 0x41, 0x6c, 0x6c, 0x56, 0x61, 0x6c, 0x75, 0x65, 
  0x73, 0x51, 0x75, 0x61, 0x6e, 0x74, 0x69, 0x7a, 0x65, 0x2f, 0x46, 0x61, 
  0x6b, 0x65, 0x51, 0x75, 0x61, 0x6e, 0x74, 0x57, 0x69, 0x74, 0x68, 0x4d, 
  0x69, 0x6e, 0x4d, 0x61, 0x78, 0x56, 0x61, 0x72, 0x73, 0x2f, 0x52, 0x65, 
  0x61, 0x64, 0x56, 0x61, 0x72, 0x69, 0x61, 0x62, 0x6c, 0x65, 0x4f, 0x70, 
  0x3b, 0x45, 0x45, 0x47, 0x4e, 0x65, 0x74, 0x5f, 0x46, 0x75, 0x6e, 0x63, 
  0x74, 0x69, 0x6f, 0x6e, 0x61, 0x6c, 0x2f, 0x71, 0x75, 0x61, 0x6e, 0x74, 
  0x69, 0x7a, 0x65, 0x5f, 0x6c, 0x61, 0x79, 0x65, 0x72, 0x2f, 0x41, 0x6c, 
  0x6c, 0x56, 0x61, 0x6c, 0x75, 0x65, 0x73, 0x51, 0x75, 0x61, 0x6e, 0x74, 
  0x69, 0x7a, 0x65, 0x2f, 0x46, 0x61, 0x6b, 0x65, 0x51, 0x75, 0x61, 0x6e, 
  0x74, 0x57, 0x69, 0x74, 0x68, 0x4d, 0x69, 0x6e, 0x4d, 0x61, 0x78, 0x56, 
  0x61, 0x72, 0x73, 0x2f, 0x52, 0x65, 0x61, 0x64, 0x56, 0x61, 0x72, 0x69, 
  0x61, 0x62, 0x6c, 0x65, 0x4f, 0x70, 0x5f, 0x31, 0x00, 0x00, 0x00, 0x00, 
  0x04, 0x00, 0x00, 0x00, 0x01, 0x00, 0x00, 0x00, 0x10, 0x00, 0x00, 0x00, 
  0x80, 0x00, 0x00, 0x00, 0x01, 0x00, 0x00, 0x00, 0x12, 0xf4, 0xff, 0xff, 
  0x00, 0x00, 0x00, 0x01, 0x14, 0x00, 0x00, 0x00, 0x30, 0x00, 0x00, 0x00, 
  0x0c, 0x00, 0x00, 0x00, 0x00, 0x00, 0x00, 0x09, 0x60, 0x00, 0x00, 0x00, 
  0x74, 0xf3, 0xff, 0xff, 0x08, 0x00, 0x00, 0x00, 0x10, 0x00, 0x00, 0x00, 
  0x01, 0x00, 0x00, 0x00, 0x80, 0xff, 0xff, 0xff, 0xff, 0xff, 0xff, 0xff, 
  0x01, 0x00, 0x00, 0x00, 0x25, 0x83, 0xba, 0x3c, 0x36, 0x00, 0x00, 0x00, 
  0x45, 0x45, 0x47, 0x4e, 0x65, 0x74, 0x5f, 0x46, 0x75, 0x6e, 0x63, 0x74, 
  0x69, 0x6f, 0x6e, 0x61, 0x6c, 0x2f, 0x62, 0x61, 0x74, 0x63, 0x68, 0x5f, 
  0x6e, 0x6f, 0x72, 0x6d, 0x61, 0x6c, 0x69, 0x7a, 0x61, 0x74, 0x69, 0x6f, 
  0x6e, 0x2f, 0x46, 0x75, 0x73, 0x65, 0x64, 0x42, 0x61, 0x74, 0x63, 0x68, 
  0x4e, 0x6f, 0x72, 0x6d, 0x56, 0x33, 0x00, 0x00, 0x01, 0x00, 0x00, 0x00, 
  0x10, 0x00, 0x00, 0x00, 0x92, 0xf4, 0xff, 0xff, 0x00, 0x00, 0x00, 0x01, 
  0x14, 0x00, 0x00, 0x00, 0x34, 0x00, 0x00, 0x00, 0x0b, 0x00, 0x00, 0x00, 
  0x00, 0x00, 0x00, 0x09, 0x64, 0x00, 0x00, 0x00, 0xf4, 0xf3, 0xff, 0xff, 
  0x08, 0x00, 0x00, 0x00, 0x14, 0x00, 0x00, 0x00, 0x01, 0x00, 0x00, 0x00, 
  0x73, 0x00, 0x00, 0x00, 0x00, 0x00, 0x00, 0x00, 0x00, 0x00, 0x00, 0x00, 
  0x01, 0x00, 0x00, 0x00, 0xe5, 0x70, 0x78, 0x39, 0x37, 0x00, 0x00, 0x00, 
  0x45, 0x45, 0x47, 0x4e, 0x65, 0x74, 0x5f, 0x46, 0x75, 0x6e, 0x63, 0x74, 
  0x69, 0x6f, 0x6e, 0x61, 0x6c, 0x2f, 0x62, 0x61, 0x74, 0x63, 0x68, 0x5f, 
  0x6e, 0x6f, 0x72, 0x6d, 0x61, 0x6c, 0x69, 0x7a, 0x61, 0x74, 0x69, 0x6f, 
  0x6e, 0x2f, 0x46, 0x75, 0x73, 0x65, 0x64, 0x42, 0x61, 0x74, 0x63, 0x68, 
  0x4e, 0x6f, 0x72, 0x6d, 0x56, 0x33, 0x31, 0x00, 0x01, 0x00, 0x00, 0x00, 
  0x10, 0x00, 0x00, 0x00, 0x16, 0xf5, 0xff, 0xff, 0x00, 0x00, 0x00, 0x01, 
  0x14, 0x00, 0x00, 0x00, 0xa8, 0x01, 0x00, 0x00, 0x0a, 0x00, 0x00, 0x00, 
  0x00, 0x00, 0x00, 0x09, 0x30, 0x02, 0x00, 0x00, 0x92, 0xf8, 0xff, 0xff, 
  0x03, 0x00, 0x00, 0x00, 0x08, 0x00, 0x00, 0x00, 0x08, 0x01, 0x00, 0x00, 
  0x20, 0x00, 0x00, 0x00, 0x00, 0x00, 0x00, 0x00, 0x00, 0x00, 0x00, 0x00, 
  0x00, 0x00, 0x00, 0x00, 0x00, 0x00, 0x00, 0x00, 0x00, 0x00, 0x00, 0x00, 
  0x00, 0x00, 0x00, 0x00, 0x00, 0x00, 0x00, 0x00, 0x00, 0x00, 0x00, 0x00, 
  0x00, 0x00, 0x00, 0x00, 0x00, 0x00, 0x00, 0x00, 0x00, 0x00, 0x00, 0x00, 
  0x00, 0x00, 0x00, 0x00, 0x00, 0x00, 0x00, 0x00, 0x00, 0x00, 0x00, 0x00, 
  0x00, 0x00, 0x00, 0x00, 0x00, 0x00, 0x00, 0x00, 0x00, 0x00, 0x00, 0x00, 
  0x00, 0x00, 0x00, 0x00, 0x00, 0x00, 0x00, 0x00, 0x00, 0x00, 0x00, 0x00, 
  0x00, 0x00, 0x00, 0x00, 0x00, 0x00, 0x00, 0x00, 0x00, 0x00, 0x00, 0x00, 
  0x00, 0x00, 0x00, 0x00, 0x00, 0x00, 0x00, 0x00, 0x00, 0x00, 0x00, 0x00, 
  0x00, 0x00, 0x00, 0x00, 0x00, 0x00, 0x00, 0x00, 0x00, 0x00, 0x00, 0x00, 
  0x00, 0x00, 0x00, 0x00, 0x00, 0x00, 0x00, 0x00, 0x00, 0x00, 0x00, 0x00, 
  0x00, 0x00, 0x00, 0x00, 0x00, 0x00, 0x00, 0x00, 0x00, 0x00, 0x00, 0x00, 
  0x00, 0x00, 0x00, 0x00, 0x00, 0x00, 0x00, 0x00, 0x00, 0x00, 0x00, 0x00, 
  0x00, 0x00, 0x00, 0x00, 0x00, 0x00, 0x00, 0x00, 0x00, 0x00, 0x00, 0x00, 
  0x00, 0x00, 0x00, 0x00, 0x00, 0x00, 0x00, 0x00, 0x00, 0x00, 0x00, 0x00, 
  0x00, 0x00, 0x00, 0x00, 0x00, 0x00, 0x00, 0x00, 0x00, 0x00, 0x00, 0x00, 
  0x00, 0x00, 0x00, 0x00, 0x00, 0x00, 0x00, 0x00, 0x00, 0x00, 0x00, 0x00, 
  0x00, 0x00, 0x00, 0x00, 0x00, 0x00, 0x00, 0x00, 0x00, 0x00, 0x00, 0x00, 
  0x00, 0x00, 0x00, 0x00, 0x00, 0x00, 0x00, 0x00, 0x00, 0x00, 0x00, 0x00, 
  0x00, 0x00, 0x00, 0x00, 0x00, 0x00, 0x00, 0x00, 0x00, 0x00, 0x00, 0x00, 
  0x00, 0x00, 0x00, 0x00, 0x00, 0x00, 0x00, 0x00, 0x00, 0x00, 0x00, 0x00, 
  0x00, 0x00, 0x00, 0x00, 0x00, 0x00, 0x00, 0x00, 0x20, 0x00, 0x00, 0x00, 
  0x41, 0x9d, 0x9d, 0x3a, 0xc3, 0xeb, 0xa0, 0x3a, 0xac, 0xa8, 0xcb, 0x3a, 
  0x8e, 0x8e, 0xa7, 0x3a, 0x54, 0x68, 0xb6, 0x3a, 0xfe, 0x35, 0x72, 0x3a, 
  0x9d, 0x62, 0x9f, 0x3a, 0x72, 0x2b, 0xb3, 0x3a, 0x84, 0x8d, 0xad, 0x3a, 
  0x39, 0x65, 0xca, 0x3a, 0x06, 0xe9, 0xe0, 0x3a, 0xc7, 0x54, 0x90, 0x3a, 
  0xf7, 0xa2, 0xb4, 0x3a, 0xc7, 0x54, 0x90, 0x3a, 0xe1, 0x52, 0xaf, 0x3a, 
  0xbb, 0x19, 0xc2, 0x3a, 0x9d, 0x62, 0x9f, 0x3a, 0xa7, 0x88, 0xac, 0x3a, 
  0xce, 0x87, 0x96, 0x3a, 0xa7, 0x88, 0xac, 0x3a, 0x87, 0x12, 0x9a, 0x3a, 
  0x56, 0xc8, 0xbe, 0x3a, 0x9d, 0x62, 0x9f, 0x3a, 0xf0, 0x76, 0xbb, 0x3a, 
  0x50, 0xe3, 0xc9, 0x3a, 0xdf, 0x4e, 0x95, 0x3a, 0x87, 0x12, 0x9a, 0x3a, 
  0x14, 0xac, 0x8e, 0x3a, 0x96, 0x58, 0x46, 0x3a, 0xbf, 0x82, 0xb1, 0x3a, 
  0x54, 0x68, 0xb6, 0x3a, 0xb8, 0xb0, 0xd2, 0x3a, 0x8c, 0x00, 0x00, 0x00, 
  0x45, 0x45, 0x47, 0x4e, 0x65, 0x74, 0x5f, 0x46, 0x75, 0x6e, 0x63, 0x74, 
  0x69, 0x6f, 0x6e, 0x61, 0x6c, 0x2f, 0x71, 0x75, 0x61, 0x6e, 0x74, 0x5f, 
  0x64, 0x65, 0x70, 0x74, 0x68, 0x77, 0x69, 0x73, 0x65, 0x5f, 0x63, 0x6f, 
  0x6e, 0x76, 0x32, 0x64, 0x2f, 0x64, 0x65, 0x70, 0x74, 0x68, 0x77, 0x69, 
  0x73, 0x65, 0x3b, 0x45, 0x45, 0x47, 0x4e, 0x65, 0x74, 0x5f, 0x46, 0x75, 
  0x6e, 0x63, 0x74, 0x69, 0x6f, 0x6e, 0x61, 0x6c, 0x2f, 0x71, 0x75, 0x61, 
  0x6e, 0x74, 0x5f, 0x64, 0x65, 0x70, 0x74, 0x68, 0x77, 0x69, 0x73, 0x65, 
  0x5f, 0x63, 0x6f, 0x6e, 0x76, 0x32, 0x64, 0x2f, 0x4c, 0x61, 0x73, 0x74, 
  0x56, 0x61, 0x6c, 0x75, 0x65, 0x51, 0x75, 0x61, 0x6e, 0x74, 0x2f, 0x46, 
  0x61, 0x6b, 0x65, 0x51, 0x75, 0x61, 0x6e, 0x74, 0x57, 0x69, 0x74, 0x68, 
  0x4d, 0x69, 0x6e, 0x4d, 0x61, 0x78, 0x56, 0x61, 0x72, 0x73, 0x50, 0x65, 
  0x72, 0x43, 0x68, 0x61, 0x6e, 0x6e, 0x65, 0x6c, 0x00, 0x00, 0x00, 0x00, 
  0x04, 0x00, 0x00, 0x00, 0x01, 0x00, 0x00, 0x00, 0x10, 0x00, 0x00, 0x00, 
  0x01, 0x00, 0x00, 0x00, 0x20, 0x00, 0x00, 0x00, 0x72, 0xf7, 0xff, 0xff, 
  0x00, 0x00, 0x00, 0x01, 0x14, 0x00, 0x00, 0x00, 0xa8, 0x01, 0x00, 0x00, 
  0x08, 0x00, 0x00, 0x00, 0x00, 0x00, 0x00, 0x02, 0xe0, 0x01, 0x00, 0x00, 
  0xd4, 0xf6, 0xff, 0xff, 0x08, 0x00, 0x00, 0x00, 0x0c, 0x01, 0x00, 0x00, 
  0x20, 0x00, 0x00, 0x00, 0x00, 0x00, 0x00, 0x00, 0x00, 0x00, 0x00, 0x00, 
  0x00, 0x00, 0x00, 0x00, 0x00, 0x00, 0x00, 0x00, 0x00, 0x00, 0x00, 0x00, 
  0x00, 0x00, 0x00, 0x00, 0x00, 0x00, 0x00, 0x00, 0x00, 0x00, 0x00, 0x00, 
  0x00, 0x00, 0x00, 0x00, 0x00, 0x00, 0x00, 0x00, 0x00, 0x00, 0x00, 0x00, 
  0x00, 0x00, 0x00, 0x00, 0x00, 0x00, 0x00, 0x00, 0x00, 0x00, 0x00, 0x00, 
  0x00, 0x00, 0x00, 0x00, 0x00, 0x00, 0x00, 0x00, 0x00, 0x00, 0x00, 0x00, 
  0x00, 0x00, 0x00, 0x00, 0x00, 0x00, 0x00, 0x00, 0x00, 0x00, 0x00, 0x00, 
  0x00, 0x00, 0x00, 0x00, 0x00, 0x00, 0x00, 0x00, 0x00, 0x00, 0x00, 0x00, 
  0x00, 0x00, 0x00, 0x00, 0x00, 0x00, 0x00, 0x00, 0x00, 0x00, 0x00, 0x00, 
  0x00, 0x00, 0x00, 0x00, 0x00, 0x00, 0x00, 0x00, 0x00, 0x00, 0x00, 0x00, 
  0x00, 0x00, 0x00, 0x00, 0x00, 0x00, 0x00, 0x00, 0x00, 0x00, 0x00, 0x00, 
  0x00, 0x00, 0x00, 0x00, 0x00, 0x00, 0x00, 0x00, 0x00, 0x00, 0x00, 0x00, 
  0x00, 0x00, 0x00, 0x00, 0x00, 0x00, 0x00, 0x00, 0x00, 0x00, 0x00, 0x00, 
  0x00, 0x00, 0x00, 0x00, 0x00, 0x00, 0x00, 0x00, 0x00, 0x00, 0x00, 0x00, 
  0x00, 0x00, 0x00, 0x00, 0x00, 0x00, 0x00, 0x00, 0x00, 0x00, 0x00, 0x00, 
  0x00, 0x00, 0x00, 0x00, 0x00, 0x00, 0x00, 0x00, 0x00, 0x00, 0x00, 0x00, 
  0x00, 0x00, 0x00, 0x00, 0x00, 0x00, 0x00, 0x00, 0x00, 0x00, 0x00, 0x00, 
  0x00, 0x00, 0x00, 0x00, 0x00, 0x00, 0x00, 0x00, 0x00, 0x00, 0x00, 0x00, 
  0x00, 0x00, 0x00, 0x00, 0x00, 0x00, 0x00, 0x00, 0x00, 0x00, 0x00, 0x00, 
  0x00, 0x00, 0x00, 0x00, 0x00, 0x00, 0x00, 0x00, 0x00, 0x00, 0x00, 0x00, 
  0x00, 0x00, 0x00, 0x00, 0x00, 0x00, 0x00, 0x00, 0x00, 0x00, 0x00, 0x00, 
  0x00, 0x00, 0x00, 0x00, 0x00, 0x00, 0x00, 0x00, 0x00, 0x00, 0x00, 0x00, 
  0x20, 0x00, 0x00, 0x00, 0x3a, 0xc4, 0xc5, 0x37, 0x29, 0x93, 0xb1, 0x37, 
  0x1c, 0x59, 0xce, 0x37, 0x33, 0x12, 0x84, 0x37, 0x17, 0x2d, 0x75, 0x37, 
  0x03, 0x51, 0x8d, 0x37, 0x3c, 0xe0, 0xd9, 0x37, 0x55, 0x34, 0xdf, 0x37, 
  0x70, 0x64, 0x8b, 0x37, 0x67, 0x6f, 0x27, 0x38, 0x9f, 0x44, 0x9c, 0x37, 
  0xbb, 0xa5, 0xa0, 0x37, 0x6d, 0x48, 0xc0, 0x37, 0xe0, 0x54, 0x3a, 0x37, 
  0x6c, 0x74, 0x59, 0x37, 0x60, 0x7e, 0xb3, 0x37, 0x47, 0x91, 0xfb, 0x37, 
  0x32, 0x22, 0xa6, 0x37, 0xe7, 0x94, 0xd9, 0x37, 0x4c, 0x2f, 0xf2, 0x37, 
  0xa5, 0x13, 0xda, 0x37, 0x83, 0xba, 0x02, 0x38, 0xc6, 0xf0, 0x41, 0x37, 
  0xd1, 0xb7, 0xce, 0x37, 0xbd, 0x4d, 0x80, 0x37, 0x4d, 0x75, 0x98, 0x37, 
  0xf3, 0xe3, 0xaf, 0x37, 0x9b, 0xa1, 0xb0, 0x37, 0xa2, 0xd3, 0xbb, 0x37, 
  0x32, 0xd9, 0x72, 0x37, 0x1b, 0x2b, 0x91, 0x37, 0x0c, 0x9e, 0x34, 0x38, 
  0x3e, 0x00, 0x00, 0x00, 0x45, 0x45, 0x47, 0x4e, 0x65, 0x74, 0x5f, 0x46, 
  0x75, 0x6e, 0x63, 0x74, 0x69, 0x6f, 0x6e, 0x61, 0x6c, 0x2f, 0x73, 0x65, 
  0x70, 0x61, 0x72, 0x61, 0x62, 0x6c, 0x65, 0x5f, 0x63, 0x6f, 0x6e, 0x76, 
  0x32, 0x64, 0x2f, 0x73, 0x65, 0x70, 0x61, 0x72, 0x61, 0x62, 0x6c, 0x65, 
  0x5f, 0x63, 0x6f, 0x6e, 0x76, 0x32, 0x64, 0x2f, 0x64, 0x65, 0x70, 0x74, 
  0x68, 0x77, 0x69, 0x73, 0x65, 0x32, 0x00, 0x00, 0x01, 0x00, 0x00, 0x00, 
  0x20, 0x00, 0x00, 0x00, 0x72, 0xf9, 0xff, 0xff, 0x00, 0x00, 0x00, 0x01, 
  0x14, 0x00, 0x00, 0x00, 0xa8, 0x01, 0x00, 0x00, 0x08, 0x00, 0x00, 0x00, 
  0x00, 0x00, 0x00, 0x02, 0xe0, 0x01, 0x00, 0x00, 0xd4, 0xf8, 0xff, 0xff, 
  0x08, 0x00, 0x00, 0x00, 0x0c, 0x01, 0x00, 0x00, 0x20, 0x00, 0x00, 0x00, 
  0x00, 0x00, 0x00, 0x00, 0x00, 0x00, 0x00, 0x00, 0x00, 0x00, 0x00, 0x00, 
  0x00, 0x00, 0x00, 0x00, 0x00, 0x00, 0x00, 0x00, 0x00, 0x00, 0x00, 0x00, 
  0x00, 0x00, 0x00, 0x00, 0x00, 0x00, 0x00, 0x00, 0x00, 0x00, 0x00, 0x00, 
  0x00, 0x00, 0x00, 0x00, 0x00, 0x00, 0x00, 0x00, 0x00, 0x00, 0x00, 0x00, 
  0x00, 0x00, 0x00, 0x00, 0x00, 0x00, 0x00, 0x00, 0x00, 0x00, 0x00, 0x00, 
  0x00, 0x00, 0x00, 0x00, 0x00, 0x00, 0x00, 0x00, 0x00, 0x00, 0x00, 0x00, 
  0x00, 0x00, 0x00, 0x00, 0x00, 0x00, 0x00, 0x00, 0x00, 0x00, 0x00, 0x00, 
  0x00, 0x00, 0x00, 0x00, 0x00, 0x00, 0x00, 0x00, 0x00, 0x00, 0x00, 0x00, 
  0x00, 0x00, 0x00, 0x00, 0x00, 0x00, 0x00, 0x00, 0x00, 0x00, 0x00, 0x00, 
  0x00, 0x00, 0x00, 0x00, 0x00, 0x00, 0x00, 0x00, 0x00, 0x00, 0x00, 0x00, 
  0x00, 0x00, 0x00, 0x00, 0x00, 0x00, 0x00, 0x00, 0x00, 0x00, 0x00, 0x00, 
  0x00, 0x00, 0x00, 0x00, 0x00, 0x00, 0x00, 0x00, 0x00, 0x00, 0x00, 0x00, 
  0x00, 0x00, 0x00, 0x00, 0x00, 0x00, 0x00, 0x00, 0x00, 0x00, 0x00, 0x00, 
  0x00, 0x00, 0x00, 0x00, 0x00, 0x00, 0x00, 0x00, 0x00, 0x00, 0x00, 0x00, 
  0x00, 0x00, 0x00, 0x00, 0x00, 0x00, 0x00, 0x00, 0x00, 0x00, 0x00, 0x00, 
  0x00, 0x00, 0x00, 0x00, 0x00, 0x00, 0x00, 0x00, 0x00, 0x00, 0x00, 0x00, 
  0x00, 0x00, 0x00, 0x00, 0x00, 0x00, 0x00, 0x00, 0x00, 0x00, 0x00, 0x00, 
  0x00, 0x00, 0x00, 0x00, 0x00, 0x00, 0x00, 0x00, 0x00, 0x00, 0x00, 0x00, 
  0x00, 0x00, 0x00, 0x00, 0x00, 0x00, 0x00, 0x00, 0x00, 0x00, 0x00, 0x00, 
  0x00, 0x00, 0x00, 0x00, 0x00, 0x00, 0x00, 0x00, 0x00, 0x00, 0x00, 0x00, 
  0x00, 0x00, 0x00, 0x00, 0x00, 0x00, 0x00, 0x00, 0x00, 0x00, 0x00, 0x00, 
  0x00, 0x00, 0x00, 0x00, 0x00, 0x00, 0x00, 0x00, 0x20, 0x00, 0x00, 0x00, 
  0x38, 0xa5, 0xa4, 0x38, 0x7e, 0x19, 0xa8, 0x38, 0x79, 0xbe, 0xd4, 0x38, 
  0x11, 0x08, 0xaf, 0x38, 0x70, 0x8b, 0xbe, 0x38, 0x0f, 0x04, 0x7d, 0x38, 
  0xce, 0x7e, 0xa6, 0x38, 0x94, 0x29, 0xbb, 0x38, 0x80, 0x4b, 0xb5, 0x38, 
  0x98, 0x6c, 0xd3, 0x38, 0x84, 0xf1, 0xea, 0x38, 0x0d, 0xc5, 0x96, 0x38, 
  0xd9, 0xb1, 0xbc, 0x38, 0x0d, 0xc5, 0x96, 0x38, 0x17, 0x25, 0xb7, 0x38, 
  0x5f, 0xc2, 0xca, 0x38, 0xce, 0x7e, 0xa6, 0x38, 0x00, 0x3b, 0xb4, 0x38, 
  0xe0, 0x3e, 0x9d, 0x38, 0x00, 0x3b, 0xb4, 0x38, 0x0c, 0xf2, 0xa0, 0x38, 
  0x16, 0x4b, 0xc7, 0x38, 0xce, 0x7e, 0xa6, 0x38, 0xcc, 0xd3, 0xc3, 0x38, 
  0xe3, 0xe4, 0xd2, 0x38, 0xfb, 0xf7, 0x9b, 0x38, 0x0c, 0xf2, 0xa0, 0x38, 
  0x68, 0x09, 0x95, 0x38, 0xb6, 0x31, 0x4f, 0x38, 0xef, 0x6d, 0xb9, 0x38, 
  0x70, 0x8b, 0xbe, 0x38, 0xd1, 0x16, 0xdc, 0x38, 0x3d, 0x00, 0x00, 0x00, 
  0x45, 0x45, 0x47, 0x4e, 0x65, 0x74, 0x5f, 0x46, 0x75, 0x6e, 0x63, 0x74, 
  0x69, 0x6f, 0x6e, 0x61, 0x6c, 0x2f, 0x73, 0x65, 0x70, 0x61, 0x72, 0x61, 
  0x62, 0x6c, 0x65, 0x5f, 0x63, 0x6f, 0x6e, 0x76, 0x32, 0x64, 0x2f, 0x73, 
  0x65, 0x70, 0x61, 0x72, 0x61, 0x62, 0x6c, 0x65, 0x5f, 0x63, 0x6f, 0x6e, 
  0x76, 0x32, 0x64, 0x2f, 0x64, 0x65, 0x70, 0x74, 0x68, 0x77, 0x69, 0x73, 
  0x65, 0x00, 0x00, 0x00, 0x01, 0x00, 0x00, 0x00, 0x20, 0x00, 0x00, 0x00, 
  0x72, 0xfb, 0xff, 0xff, 0x00, 0x00, 0x00, 0x01, 0x14, 0x00, 0x00, 0x00, 
  0x34, 0x00, 0x00, 0x00, 0x07, 0x00, 0x00, 0x00, 0x00, 0x00, 0x00, 0x09, 
  0x68, 0x00, 0x00, 0x00, 0xd4, 0xfa, 0xff, 0xff, 0x08, 0x00, 0x00, 0x00, 
  0x14, 0x00, 0x00, 0x00, 0x01, 0x00, 0x00, 0x00, 0x80, 0xff, 0xff, 0xff, 
  0xff, 0xff, 0xff, 0xff, 0x00, 0x00, 0x00, 0x00, 0x01, 0x00, 0x00, 0x00, 
  0xdb, 0xd9, 0xc5, 0x3c, 0x38, 0x00, 0x00, 0x00, 0x45, 0x45, 0x47, 0x4e, 
  0x65, 0x74, 0x5f, 0x46, 0x75, 0x6e, 0x63, 0x74, 0x69, 0x6f, 0x6e, 0x61, 
  0x6c, 0x2f, 0x62, 0x61, 0x74, 0x63, 0x68, 0x5f, 0x6e, 0x6f, 0x72, 0x6d, 
  0x61, 0x6c, 0x69, 0x7a, 0x61, 0x74, 0x69, 0x6f, 0x6e, 0x5f, 0x31, 0x2f, 
  0x46, 0x75, 0x73, 0x65, 0x64, 0x42, 0x61, 0x74, 0x63, 0x68, 0x4e, 0x6f, 
  0x72, 0x6d, 0x56, 0x33, 0x00, 0x00, 0x00, 0x00, 0x01, 0x00, 0x00, 0x00, 
  0x20, 0x00, 0x00, 0x00, 0xfa, 0xfb, 0xff, 0xff, 0x00, 0x00, 0x00, 0x01, 
  0x14, 0x00, 0x00, 0x00, 0x34, 0x00, 0x00, 0x00, 0x06, 0x00, 0x00, 0x00, 
  0x00, 0x00, 0x00, 0x09, 0x68, 0x00, 0x00, 0x00, 0x5c, 0xfb, 0xff, 0xff, 
  0x08, 0x00, 0x00, 0x00, 0x14, 0x00, 0x00, 0x00, 0x01, 0x00, 0x00, 0x00, 
  0x40, 0x00, 0x00, 0x00, 0x00, 0x00, 0x00, 0x00, 0x00, 0x00, 0x00, 0x00, 
  0x01, 0x00, 0x00, 0x00, 0x55, 0x31, 0x31, 0x3a, 0x39, 0x00, 0x00, 0x00, 
  0x45, 0x45, 0x47, 0x4e, 0x65, 0x74, 0x5f, 0x46, 0x75, 0x6e, 0x63, 0x74, 
  0x69, 0x6f, 0x6e, 0x61, 0x6c, 0x2f, 0x62, 0x61, 0x74, 0x63, 0x68, 0x5f, 
  0x6e, 0x6f, 0x72, 0x6d, 0x61, 0x6c, 0x69, 0x7a, 0x61, 0x74, 0x69, 0x6f, 
  0x6e, 0x5f, 0x31, 0x2f, 0x46, 0x75, 0x73, 0x65, 0x64, 0x42, 0x61, 0x74, 
  0x63, 0x68, 0x4e, 0x6f, 0x72, 0x6d, 0x56, 0x33, 0x31, 0x00, 0x00, 0x00, 
  0x01, 0x00, 0x00, 0x00, 0x20, 0x00, 0x00, 0x00, 0x82, 0xfc, 0xff, 0xff, 
  0x00, 0x00, 0x00, 0x01, 0x28, 0x00, 0x00, 0x00, 0xbc, 0x01, 0x00, 0x00, 
  0x05, 0x00, 0x00, 0x00, 0x00, 0x00, 0x00, 0x09, 0xf4, 0x01, 0x00, 0x00, 
  0x00, 0x00, 0x12, 0x00, 0x10, 0x00, 0x00, 0x00, 0x00, 0x00, 0x0c, 0x00, 
  0x08, 0x00, 0x00, 0x00, 0x00, 0x00, 0x04, 0x00, 0x12, 0x00, 0x00, 0x00, 
  0x03, 0x00, 0x00, 0x00, 0x08, 0x00, 0x00, 0x00, 0x08, 0x01, 0x00, 0x00, 
  0x20, 0x00, 0x00, 0x00, 0x00, 0x00, 0x00, 0x00, 0x00, 0x00, 0x00, 0x00, 
  0x00, 0x00, 0x00, 0x00, 0x00, 0x00, 0x00, 0x00, 0x00, 0x00, 0x00, 0x00, 
  0x00, 0x00, 0x00, 0x00, 0x00, 0x00, 0x00, 0x00, 0x00, 0x00, 0x00, 0x00, 
  0x00, 0x00, 0x00, 0x00, 0x00, 0x00, 0x00, 0x00, 0x00, 0x00, 0x00, 0x00, 
  0x00, 0x00, 0x00, 0x00, 0x00, 0x00, 0x00, 0x00, 0x00, 0x00, 0x00, 0x00, 
  0x00, 0x00, 0x00, 0x00, 0x00, 0x00, 0x00, 0x00, 0x00, 0x00, 0x00, 0x00, 
  0x00, 0x00, 0x00, 0x00, 0x00, 0x00, 0x00, 0x00, 0x00, 0x00, 0x00, 0x00, 
  0x00, 0x00, 0x00, 0x00, 0x00, 0x00, 0x00, 0x00, 0x00, 0x00, 0x00, 0x00, 
  0x00, 0x00, 0x00, 0x00, 0x00, 0x00, 0x00, 0x00, 0x00, 0x00, 0x00, 0x00, 
  0x00, 0x00, 0x00, 0x00, 0x00, 0x00, 0x00, 0x00, 0x00, 0x00, 0x00, 0x00, 
  0x00, 0x00, 0x00, 0x00, 0x00, 0x00, 0x00, 0x00, 0x00, 0x00, 0x00, 0x00, 
  0x00, 0x00, 0x00, 0x00, 0x00, 0x00, 0x00, 0x00, 0x00, 0x00, 0x00, 0x00, 
  0x00, 0x00, 0x00, 0x00, 0x00, 0x00, 0x00, 0x00, 0x00, 0x00, 0x00, 0x00, 
  0x00, 0x00, 0x00, 0x00, 0x00, 0x00, 0x00, 0x00, 0x00, 0x00, 0x00, 0x00, 
  0x00, 0x00, 0x00, 0x00, 0x00, 0x00, 0x00, 0x00, 0x00, 0x00, 0x00, 0x00, 
  0x00, 0x00, 0x00, 0x00, 0x00, 0x00, 0x00, 0x00, 0x00, 0x00, 0x00, 0x00, 
  0x00, 0x00, 0x00, 0x00, 0x00, 0x00, 0x00, 0x00, 0x00, 0x00, 0x00, 0x00, 
  0x00, 0x00, 0x00, 0x00, 0x00, 0x00, 0x00, 0x00, 0x00, 0x00, 0x00, 0x00, 
  0x00, 0x00, 0x00, 0x00, 0x00, 0x00, 0x00, 0x00, 0x00, 0x00, 0x00, 0x00, 
  0x00, 0x00, 0x00, 0x00, 0x00, 0x00, 0x00, 0x00, 0x00, 0x00, 0x00, 0x00, 
  0x00, 0x00, 0x00, 0x00, 0x00, 0x00, 0x00, 0x00, 0x00, 0x00, 0x00, 0x00, 
  0x00, 0x00, 0x00, 0x00, 0x00, 0x00, 0x00, 0x00, 0x20, 0x00, 0x00, 0x00, 
  0x9d, 0x54, 0x62, 0x3a, 0xf6, 0x38, 0x4b, 0x3a, 0xcc, 0x26, 0x6c, 0x3a, 
  0x82, 0x25, 0x17, 0x3a, 0x38, 0x4b, 0x0c, 0x3a, 0x2a, 0xba, 0x21, 0x3a, 
  0x2a, 0x58, 0x79, 0x3a, 0x48, 0x71, 0x7f, 0x3a, 0x73, 0x86, 0x1f, 0x3a, 
  0x4b, 0x9e, 0xbf, 0x3a, 0x9c, 0xd6, 0x32, 0x3a, 0xa4, 0xd9, 0x37, 0x3a, 
  0x0e, 0x0e, 0x5c, 0x3a, 0x75, 0x3e, 0xd5, 0x39, 0xc7, 0xdc, 0xf8, 0x39, 
  0x20, 0x6b, 0x4d, 0x3a, 0x79, 0xf3, 0x8f, 0x3a, 0xf5, 0x20, 0x3e, 0x3a, 
  0xf3, 0x01, 0x79, 0x3a, 0x05, 0x95, 0x8a, 0x3a, 0x00, 0x93, 0x79, 0x3a, 
  0x2e, 0x9c, 0x95, 0x3a, 0xb2, 0xf3, 0xdd, 0x39, 0x2f, 0x93, 0x6c, 0x3a, 
  0xbf, 0xd5, 0x12, 0x3a, 0x6b, 0x7a, 0x2e, 0x3a, 0x78, 0x4b, 0x49, 0x3a, 
  0x85, 0x24, 0x4a, 0x3a, 0x7f, 0xf4, 0x56, 0x3a, 0x3d, 0xf6, 0x0a, 0x3a, 
  0xaf, 0x22, 0x26, 0x3a, 0x59, 0xb4, 0xce, 0x3a, 0x3e, 0x00, 0x00, 0x00, 
  0x45, 0x45, 0x47, 0x4e, 0x65, 0x74, 0x5f, 0x46, 0x75, 0x6e, 0x63, 0x74, 
  0x69, 0x6f, 0x6e, 0x61, 0x6c, 0x2f, 0x73, 0x65, 0x70, 0x61, 0x72, 0x61, 
  0x62, 0x6c, 0x65, 0x5f, 0x63, 0x6f, 0x6e, 0x76, 0x32, 0x64, 0x2f, 0x73, 
  0x65, 0x70, 0x61, 0x72, 0x61, 0x62, 0x6c, 0x65, 0x5f, 0x63, 0x6f, 0x6e, 
  0x76, 0x32, 0x64, 0x2f, 0x64, 0x65, 0x70, 0x74, 0x68, 0x77, 0x69, 0x73, 
  0x65, 0x31, 0x00, 0x00, 0x04, 0x00, 0x00, 0x00, 0x01, 0x00, 0x00, 0x00, 
  0x01, 0x00, 0x00, 0x00, 0x10, 0x00, 0x00, 0x00, 0x20, 0x00, 0x00, 0x00, 
  0xa2, 0xfe, 0xff, 0xff, 0x00, 0x00, 0x00, 0x01, 0x14, 0x00, 0x00, 0x00, 
  0x58, 0x00, 0x00, 0x00, 0x04, 0x00, 0x00, 0x00, 0x00, 0x00, 0x00, 0x09, 
  0x84, 0x00, 0x00, 0x00, 0x04, 0xfe, 0xff, 0xff, 0x08, 0x00, 0x00, 0x00, 
  0x2c, 0x00, 0x00, 0x00, 0x04, 0x00, 0x00, 0x00, 0x00, 0x00, 0x00, 0x00, 
  0x00, 0x00, 0x00, 0x00, 0x00, 0x00, 0x00, 0x00, 0x00, 0x00, 0x00, 0x00, 
  0x00, 0x00, 0x00, 0x00, 0x00, 0x00, 0x00, 0x00, 0x00, 0x00, 0x00, 0x00, 
  0x00, 0x00, 0x00, 0x00, 0x00, 0x00, 0x00, 0x00, 0x04, 0x00, 0x00, 0x00, 
  0x22, 0x37, 0x7e, 0x3c, 0x86, 0x6c, 0xa0, 0x3c, 0xfe, 0x62, 0x70, 0x3c, 
  0x78, 0xda, 0x5a, 0x3c, 0x33, 0x00, 0x00, 0x00, 0x45, 0x45, 0x47, 0x4e, 
  0x65, 0x74, 0x5f, 0x46, 0x75, 0x6e, 0x63, 0x74, 0x69, 0x6f, 0x6e, 0x61, 
  0x6c, 0x2f, 0x73, 0x65, 0x70, 0x61, 0x72, 0x61, 0x62, 0x6c, 0x65, 0x5f, 
  0x63, 0x6f, 0x6e, 0x76, 0x32, 0x64, 0x2f, 0x73, 0x65, 0x70, 0x61, 0x72, 
  0x61, 0x62, 0x6c, 0x65, 0x5f, 0x63, 0x6f, 0x6e, 0x76, 0x32, 0x64, 0x00, 
  0x04, 0x00, 0x00, 0x00, 0x04, 0x00, 0x00, 0x00, 0x01, 0x00, 0x00, 0x00, 
  0x01, 0x00, 0x00, 0x00, 0x20, 0x00, 0x00, 0x00, 0x52, 0xff, 0xff, 0xff, 
  0x00, 0x00, 0x00, 0x01, 0x14, 0x00, 0x00, 0x00, 0x58, 0x00, 0x00, 0x00, 
  0x03, 0x00, 0x00, 0x00, 0x00, 0x00, 0x00, 0x02, 0x8c, 0x00, 0x00, 0x00, 
  0xb4, 0xfe, 0xff, 0xff, 0x08, 0x00, 0x00, 0x00, 0x2c, 0x00, 0x00, 0x00, 
  0x04, 0x00, 0x00, 0x00, 0x00, 0x00, 0x00, 0x00, 0x00, 0x00, 0x00, 0x00, 
  0x00, 0x00, 0x00, 0x00, 0x00, 0x00, 0x00, 0x00, 0x00, 0x00, 0x00, 0x00, 
  0x00, 0x00, 0x00, 0x00, 0x00, 0x00, 0x00, 0x00, 0x00, 0x00, 0x00, 0x00, 
  0x00, 0x00, 0x00, 0x00, 0x04, 0x00, 0x00, 0x00, 0x3c, 0x3c, 0xc2, 0x39, 
  0x79, 0x25, 0xf5, 0x39, 0x5d, 0xab, 0xb7, 0x39, 0x7a, 0x37, 0xa7, 0x39, 
  0x38, 0x00, 0x00, 0x00, 0x45, 0x45, 0x47, 0x4e, 0x65, 0x74, 0x5f, 0x46, 
  0x75, 0x6e, 0x63, 0x74, 0x69, 0x6f, 0x6e, 0x61, 0x6c, 0x2f, 0x62, 0x61, 
  0x74, 0x63, 0x68, 0x5f, 0x6e, 0x6f, 0x72, 0x6d, 0x61, 0x6c, 0x69, 0x7a, 
  0x61, 0x74, 0x69, 0x6f, 0x6e, 0x5f, 0x32, 0x2f, 0x46, 0x75, 0x73, 0x65, 
  0x64, 0x42, 0x61, 0x74, 0x63, 0x68, 0x4e, 0x6f, 0x72, 0x6d, 0x56, 0x33, 
  0x00, 0x00, 0x00, 0x00, 0x01, 0x00, 0x00, 0x00, 0x04, 0x00, 0x00, 0x00, 
  0x00, 0x00, 0x16, 0x00, 0x1c, 0x00, 0x18, 0x00, 0x17, 0x00, 0x10, 0x00, 
  0x0c, 0x00, 0x08, 0x00, 0x00, 0x00, 0x00, 0x00, 0x00, 0x00, 0x07, 0x00, 
  0x16, 0x00, 0x00, 0x00, 0x00, 0x00, 0x00, 0x01, 0x18, 0x00, 0x00, 0x00, 
  0x18, 0x00, 0x00, 0x00, 0x02, 0x00, 0x00, 0x00, 0x00, 0x00, 0x00, 0x02, 
  0x38, 0x00, 0x00, 0x00, 0x04, 0x00, 0x04, 0x00, 0x04, 0x00, 0x00, 0x00, 
  0x25, 0x00, 0x00, 0x00, 0x45, 0x45, 0x47, 0x4e, 0x65, 0x74, 0x5f, 0x46, 
  0x75, 0x6e, 0x63, 0x74, 0x69, 0x6f, 0x6e, 0x61, 0x6c, 0x2f, 0x71, 0x75, 
  0x61, 0x6e, 0x74, 0x5f, 0x66, 0x6c, 0x61, 0x74, 0x74, 0x65, 0x6e, 0x2f, 
  0x43, 0x6f, 0x6e, 0x73, 0x74, 0x00, 0x00, 0x00, 0x01, 0x00, 0x00, 0x00, 
  0x02, 0x00, 0x00, 0x00, 0x00, 0x00, 0x16, 0x00, 0x20, 0x00, 0x1c, 0x00, 
  0x1b, 0x00, 0x14, 0x00, 0x10, 0x00, 0x0c, 0x00, 0x00, 0x00, 0x00, 0x00, 
  0x08, 0x00, 0x07, 0x00, 0x16, 0x00, 0x00, 0x00, 0x00, 0x00, 0x00, 0x01, 
  0x18, 0x00, 0x00, 0x00, 0x34, 0x00, 0x00, 0x00, 0x50, 0x00, 0x00, 0x00, 
  0x01, 0x00, 0x00, 0x00, 0x00, 0x00, 0x00, 0x03, 0x64, 0x00, 0x00, 0x00, 
  0x04, 0x00, 0x00, 0x00, 0xff, 0xff, 0xff, 0xff, 0x10, 0x00, 0x00, 0x00, 
  0x80, 0x00, 0x00, 0x00, 0x01, 0x00, 0x00, 0x00, 0x0c, 0x00, 0x0c, 0x00, 
  0x00, 0x00, 0x00, 0x00, 0x08, 0x00, 0x04, 0x00, 0x0c, 0x00, 0x00, 0x00, 
  0x08, 0x00, 0x00, 0x00, 0x10, 0x00, 0x00, 0x00, 0x01, 0x00, 0x00, 0x00, 
  0x80, 0x00, 0x00, 0x00, 0x00, 0x00, 0x00, 0x00, 0x01, 0x00, 0x00, 0x00, 
  0x1a, 0xd2, 0xb1, 0x3d, 0x19, 0x00, 0x00, 0x00, 0x73, 0x65, 0x72, 0x76, 
  0x69, 0x6e, 0x67, 0x5f, 0x64, 0x65, 0x66, 0x61, 0x75, 0x6c, 0x74, 0x5f, 
  0x69, 0x6e, 0x70, 0x75, 0x74, 0x5f, 0x31, 0x3a, 0x30, 0x00, 0x00, 0x00, 
  0x04, 0x00, 0x00, 0x00, 0x01, 0x00, 0x00, 0x00, 0x10, 0x00, 0x00, 0x00, 
  0x80, 0x00, 0x00, 0x00, 0x01, 0x00, 0x00, 0x00, 0x08, 0x00, 0x00, 0x00, 
  0xac, 0x00, 0x00, 0x00, 0x8c, 0x00, 0x00, 0x00, 0x6c, 0x00, 0x00, 0x00, 
  0x60, 0x00, 0x00, 0x00, 0x44, 0x00, 0x00, 0x00, 0x28, 0x00, 0x00, 0x00, 
  0x14, 0x00, 0x00, 0x00, 0x04, 0x00, 0x00, 0x00, 0x80, 0xff, 0xff, 0xff, 
  0x16, 0x00, 0x00, 0x00, 0x00, 0x00, 0x00, 0x16, 0xa8, 0xff, 0xff, 0xff, 
  0x01, 0x00, 0x00, 0x00, 0x02, 0x00, 0x00, 0x00, 0x00, 0x00, 0x00, 0x01, 
  0x9c, 0xff, 0xff, 0xff, 0x75, 0x00, 0x00, 0x00, 0x00, 0x00, 0x00, 0x75, 
  0x0c, 0x00, 0x0e, 0x00, 0x0d, 0x00, 0x00, 0x00, 0x08, 0x00, 0x04, 0x00, 
  0x0c, 0x00, 0x00, 0x00, 0x04, 0x00, 0x00, 0x00, 0x03, 0x00, 0x00, 0x00, 
  0x00, 0x04, 0x0a, 0x00, 0x08, 0x00, 0x00, 0x00, 0x00, 0x00, 0x04, 0x00, 
  0x0a, 0x00, 0x00, 0x00, 0x02, 0x00, 0x00, 0x00, 0xf0, 0xff, 0xff, 0xff, 
  0x12, 0x00, 0x00, 0x00, 0x02, 0x00, 0x00, 0x00, 0x00, 0x00, 0x00, 0x12, 
  0x0c, 0x00, 0x10, 0x00, 0x0f, 0x00, 0x00, 0x00, 0x08, 0x00, 0x04, 0x00, 
  0x0c, 0x00, 0x00, 0x00, 0x03, 0x00, 0x00, 0x00, 0x03, 0x00, 0x00, 0x00, 
  0x00, 0x00, 0x00, 0x03, 0x0c, 0x00, 0x0c, 0x00, 0x0b, 0x00, 0x00, 0x00, 
  0x00, 0x00, 0x04, 0x00, 0x0c, 0x00, 0x00, 0x00, 0x72, 0x00, 0x00, 0x00, 
  0x00, 0x00, 0x00, 0x72, 
};
